[PAD]
[UNK]
[CLS]
[SEP]
[MASK]
!
"
%
'
(
)
+
,
-
.
/
0
1
2
3
4
5
6
7
8
9
:
=
?
[
]
_
a
b
c
d
e
f
g
h
i
j
k
l
m
n
o
p
q
r
s
t
u
v
w
x
y
z
~
·
é
–
‘
’
“
”
∼
〈
〉
《
》
「
」
『
』
・
一
三
上
世
中
主
事
人
使
元
光
公
北
南
原
司
君
國
地
城
大
天
太
子
學
安
宗
家
寺
山
川
州
平
府
德
成
政
文
新
日
明
書
會
本
李
東
正
武
氏
水
法
海
無
王
生
田
石
神
縣
義
行
西
軍
道
郡
部
都
金
長
門
院
陽
韓
高
가
각
간
갈
감
갑
값
갔
강
갖
같
개
객
거
건
걸
검
것
게
겐
겔
겠
겨
격
겪
견
결
겸
겼
경
계
고
곡
곤
곧
골
곱
곳
공
과
곽
관
괄
광
괴
교
구
국
군
굴
궁
권
궤
귀
규
균
그
극
근
글
금
급
기
긴
길
김
깃
깊
까
깔
깨
꺼
꺾
께
꼬
꼭
꼽
꽃
꾸
꿈
뀌
끄
끈
끊
끌
끔
끝
끼
나
낙
난
날
남
납
났
낭
낮
낳
내
낸
낼
냈
냉
냐
냥
너
널
넓
넘
넣
네
넬
넷
녀
년
념
녕
노
녹
논
놀
농
높
놓
뇌
누
눈
뉘
뉴
늄
느
는
늘
능
늦
늬
니
닉
닌
닐
님
닛
닝
다
닥
단
닫
달
담
답
당
대
댄
더
덕
던
덜
덤
덩
덮
데
덴
델
도
독
돈
돌
동
돼
됐
되
된
될
됨
두
둑
둔
둘
둥
뒤
뒷
듀
드
득
든
듣
들
듬
듯
등
디
딘
딩
따
딸
땅
때
떠
떤
떨
떻
또
뚜
뛰
뜨
뜻
띠
라
락
란
랄
람
랍
랐
랑
래
랙
랜
램
랫
랭
략
량
러
럭
런
럴
럼
럽
렀
렇
레
렉
렌
렐
렘
려
력
련
렬
렴
렵
렸
령
례
로
록
론
롤
롬
롭
롯
롱
뢰
료
룡
루
룩
룬
룹
뤄
뤼
류
륙
륜
률
륨
르
른
를
름
릉
리
릭
린
릴
림
립
릿
링
마
막
만
많
말
맛
망
맞
맡
매
맥
맨
맹
맺
머
먹
먼
멀
멍
메
멕
멘
멜
멤
며
면
멸
명
몇
모
목
몬
몰
몸
못
몽
묘
무
묵
문
묻
물
뮤
므
미
믹
민
믿
밀
밍
및
밑
바
박
밖
반
받
발
밝
밤
밥
방
배
백
밴
뱀
뱅
버
번
벌
범
법
벗
베
벡
벤
벨
벼
벽
변
별
병
보
복
본
볼
봄
봉
부
북
분
불
붉
붕
붙
뷔
뷰
브
븐
블
비
빅
빈
빌
빙
빛
빠
빨
빼
뼈
뽑
뿌
뿐
사
삭
산
살
삶
삼
상
새
색
샌
샘
생
샤
서
석
선
설
섬
섭
섯
섰
성
세
센
셀
셈
셋
셔
션
셜
셰
소
속
손
솔
송
쇄
쇠
쇼
수
숙
순
술
숨
숫
숭
숲
쉬
쉽
슈
스
슨
슬
슴
습
슷
승
시
식
신
실
심
십
싱
싶
싸
쌍
쌓
써
썼
쓰
쓴
쓸
씨
씩
씬
아
악
안
앉
않
알
암
압
앗
았
앙
앞
애
액
앤
앨
앵
야
약
얀
양
어
억
언
얻
얼
엄
업
없
엇
었
에
엑
엔
엘
여
역
연
열
염
엽
였
영
옆
예
옌
옛
오
옥
온
올
옮
옷
옹
와
완
왔
왕
왜
외
왼
요
욕
용
우
욱
운
울
움
웃
웅
워
원
월
웠
웨
웰
웹
위
윈
윌
윗
유
육
윤
율
융
으
은
을
음
읍
응
의
이
익
인
일
읽
잃
임
입
잇
있
잉
잎
자
작
잔
잘
잠
잡
장
재
잭
쟁
저
적
전
절
젊
점
접
정
제
젝
젠
젤
져
졌
조
족
존
졸
좀
좁
종
좋
좌
죄
주
죽
준
줄
중
쥐
즈
즉
즌
즐
즘
증
지
직
진
질
짐
집
짓
징
짜
짝
짧
째
쪽
쫓
찌
찍
차
착
찬
찰
참
창
찾
채
책
챔
처
척
천
철
첨
첩
첫
청
체
첼
쳐
쳤
초
촉
촌
총
촬
최
추
축
춘
출
춤
충
취
츠
측
층
치
칙
친
칠
침
칭
카
칸
칼
캄
캐
캔
캘
캠
커
컨
컬
컴
컵
컷
케
켄
켈
켓
켜
켰
코
콘
콜
콤
콩
쾌
쿄
쿠
쿨
퀴
큐
크
큰
클
큼
키
킨
킬
킹
타
탁
탄
탈
탐
탑
탕
태
택
탱
터
턴
털
테
텍
텐
텔
템
토
톤
톨
톰
톱
통
퇴
투
튀
튜
트
특
튼
틀
티
틱
틴
틸
팀
팅
파
판
팔
패
팩
팬
팽
퍼
페
펜
펠
편
펼
평
폐
포
폭
폰
폴
폼
표
푸
풀
품
풍
퓨
프
픈
플
피
픽
핀
필
핑
하
학
한
할
함
합
항
해
핵
했
행
향
허
헌
험
헝
헤
헨
헬
혀
혁
현
혈
혐
협
혔
형
혜
호
혹
혼
홀
홈
홋
홍
화
확
환
활
황
회
획
횡
효
후
훈
훗
훨
휘
휴
흉
흐
흑
흔
흘
흡
흥
희
흰
히
힌
힐
힘
##조
##말
##겔
##만
##소
##시
##스
##트
##의
##환
##술
##과
##점
##자
##이
##기
##도
##명
##까
##지
##했
##을
##결
##되
##어
##권
##부
##e
##2
##o
##를
##9
##평
##찰
##중
##에
##서
##육
##담
##당
##색
##된
##때
##르
##센
##은
##n
##a
##i
##j
##p
##r
##전
##사
##와
##럭
##차
##0
##신
##철
##승
##게
##관
##화
##로
##벌
##할
##호
##나
##내
##원
##폭
##키
##야
##류
##진
##홈
##런
##획
##대
##역
##는
##문
##하
##였
##가
##았
##음
##인
##들
##덕
##왕
##l
##m
##u
##s
##재
##아
##심
##간
##라
##3
##킬
##레
##메
##커
##보
##다
##d
##치
##노
##정
##책
##으
##오
##탕
##허
##주
##적
##행
##워
##버
##렸
##리
##티
##렌
##츠
##해
##희
##c
##생
##k
##경
##테
##코
##파
##니
##엘
##었
##데
##풀
##루
##병
##산
##위
##족
##계
##상
##선
##수
##회
##집
##석
##송
##공
##h
##용
##액
##면
##근
##복
##고
##종
##익
##포
##욱
##죄
##통
##제
##법
##작
##일
##천
##칠
##백
##십
##것
##물
##쪽
##줄
##긴
##팔
##숭
##퍼
##거
##네
##흥
##바
##토
##w
##임
##릭
##손
##칭
##구
##4
##요
##터
##컴
##핀
##5
##초
##동
##안
##우
##광
##식
##한
##섯
##락
##알
##론
##슬
##람
##교
##례
##쟁
##념
##t
##랑
##령
##추
##군
##카
##텍
##개
##씩
##쓰
##마
##베
##예
##같
##비
##그
##끼
##더
##빌
##러
##브
##측
##업
##즈
##유
##준
##방
##련
##함
##던
##8
##년
##본
##룹
##국
##7
##발
##드
##6
##q
##성
##절
##분
##학
##램
##g
##젠
##크
##모
##협
##몽
##판
##설
##틀
##층
##골
##뜻
##태
##봉
##읍
##속
##체
##싱
##연
##금
##미
##배
##열
##f
##운
##투
##잡
##캐
##남
##장
##온
##압
##큼
##암
##세
##프
##험
##변
##z
##력
##새
##겨
##형
##며
##질
##극
##영
##롭
##난
##럽
##합
##셈
##b
##견
##단
##무
##너
##돌
##혼
##벽
##옥
##뢰
##번
##향
##울
##료
##출
##숙
##y
##능
##매
##끝
##뒤
##청
##머
##쥐
##킨
##휘
##칸
##급
##외
##등
##디
##처
##각
##양
##착
##축
##히
##싸
##민
##1
##타
##써
##값
##란
##섬
##택
##틸
##건
##놓
##켰
##삭
##여
##님
##왔
##됨
##현
##범
##강
##후
##팀
##촬
##뿐
##약
##맥
##곡
##검
##므
##x
##빈
##v
##횡
##악
##글
##셔
##삼
##실
##났
##두
##졌
##팩
##객
##혈
##총
##독
##저
##래
##칼
##롯
##푸
##림
##습
##쿨
##볼
##규
##량
##달
##헤
##쿠
##죽
##멸
##피
##혹
##응
##맹
##불
##홍
##갈
##넘
##표
##직
##벨
##탱
##클
##누
##링
##증
##항
##걸
##격
##겠
##박
##럼
##완
##납
##찬
##풍
##엔
##른
##략
##율
##펠
##딘
##랫
##폼
##훈
##씨
##몬
##늘
##곱
##품
##움
##궤
##윈
##룡
##목
##섭
##렴
##쇄
##케
##뜨
##창
##활
##갑
##슈
##촌
##린
##별
##헌
##느
##냐
##농
##얼
##친
##참
##효
##받
##올
##록
##션
##월
##녀
##롱
##웰
##칙
##괴
##반
##쾌
##젝
##억
##먼
##망
##텔
##퇴
##굴
##둥
##져
##언
##컨
##팅
##떠
##궁
##립
##페
##패
##려
##잎
##엑
##멜
##앙
##감
##륙
##입
##멀
##묘
##존
##힐
##널
##밀
##∼
##낙
##률
##콤
##잉
##랜
##뇌
##혔
##있
##슴
##짐
##둘
##북
##쇼
##핑
##몰
##쳤
##탈
##첩
##옆
##녕
##렉
##샤
##쿄
##흔
##빛
##갔
##핵
##템
##됐
##탄
##애
##욕
##블
##김
##융
##곤
##릴
##폐
##좌
##랙
##켄
##살
##튼
##순
##필
##녹
##취
##날
##겼
##웨
##잠
##혀
##틴
##접
##탑
##폴
##특
##웃
##플
##밍
##딩
##릉
##답
##즘
##척
##맨
##름
##득
##편
##못
##컵
##돈
##꽃
##콘
##넷
##멘
##꼬
##침
##빙
##릿
##징
##닐
##웅
##켜
##틱
##헨
##겐
##룬
##덴
##째
##깃
##황
##닌
##염
##솔
##충
##둑
##폰
##길
##슨
##셀
##큰
##막
##앗
##넬
##흘
##겸
##붕
##렀
##혜
##톤
##큐
##슷
##젤
##뱅
##끄
##혁
##밤
##않
##옌
##균
##뉘
##엇
##귀
##탐
##윤
##뛰
##텐
##왜
##먹
##튜
##꾸
##흐
##돼
##든
##숲
##덤
##첨
##밴
##엽
##털
##뉴
##잘
##탁
##끌
##채
##숫
##롬
##둔
##혐
##듯
##캠
##즌
##셜
##춘
##붙
##밖
##픈
##델
##앤
##턴
##확
##낸
##뷔
##쌍
##벤
##렬
##윗
##께
##논
##띠
##캔
##쫓
##닝
##닉
##따
##믹
##톨
##뮤
##쉬
##셰
##닥
##켓
##홀
##웠
##륜
##졸
##촉
##눈
##닛
##롤
##콜
##밥
##될
##톱
##괄
##넣
##짓
##랍
##놀
##멕
##빨
##흑
##엄
##낼
##끔
##톰
##뱀
##쳐
##뼈
##땅
##및
##옹
##펜
##콩
##냥
##컬
##픽
##쇠
##또
##셋
##뤼
##멍
##낭
##덜
##흡
##잔
##륨
##잇
##랭
##빅
##짜
##랄
##깔
##흉
##최
##곽
##즐
##썼
##룩
##컷
##없
##꺼
##앞
##듀
##앉
##é
##묵
##앵
##춤
##얀
##켈
##듬
##헬
##퀴
##킹
##럴
##뀌
##찌
##옷
##씬
##몸
##짝
##맞
##캄
##덩
##맡
##팽
##맛
##잭
##늬
##쌓
##샘
##벼
##벗
##휴
##렐
##냈
##뚜
##곳
##봄
##쉽
##끈
##첼
##븐
##랐
##덮
##몇
##깨
##뷰
##멤
##딸
##읽
##좁
##팬
##찍
##숨
##튀
##쓸
##챔
##늄
##빠
##퓨
##냉
##찾
##옛
##많
##앨
##힘
##섰
##싶
##렇
##높
##밑
##쓴
##렵
##뽑
##뤄
##좀
##좋
##힌
##붉
##믿
##낮
##떤
##캘
##렘
##뒷
##꿈
##웹
##떨
##꼭
##빼
##흰
##즉
##윌
##벡
##넓
##펼
##뿌
##닫
##댄
##꼽
##헝
##묻
##첫
##깊
##맺
##홋
##샌
##밝
##젊
##떻
##삶
##짧
##낳
##곧
##늦
##잃
##왼
##옮
##얻
##갖
##듣
##훗
##훨
##끊
##겪
##꺾
##으로
##에서
##이다
19
##었다
20
있다
##하였
##했다
##하는
##하고
##하였다
##하여
##으며
##되었다
201
##에는
##한다
200
있는
##부터
##0년
대한
##지만
##까지
10
##에게
##적으로
##적인
##되어
##국의
##8년
##면서
사용
이후
##or
##5년
18
##9년
##들이
일본
##7년
##6년
##4년
199
##2년
##에서는
##하기
##들은
한다
##1년
##하게
##3년
12
##았다
##으나
##학교
##였다
##la
##되었
되었다
##00
##라는
##라고
그는
11
##er
지역
##리아
##된다
##는데
##이며
미국
위해
그리
대한민
198
같은
##주의
때문
##스트
시작
##on
##기도
따라
프로
##들의
##들을
##하며
그러
함께
현재
또한
15
for
다른
경우
##mu
것이
사람
위치
자신
##mula
##시아
16
이름
formula
당시
선수
기록
##이나
##in
또는
##하지
##기에
사이
다음
##an
##하다
그의
때문에
가장
197
한국
17
하나
조선
세계
그러나
국가
있으며
##기를
##되는
##에도
것으로
것을
의해
##일에
있었다
##레이
##스의
영화
에서
했다
196
된다
##지는
##졌다
프랑
활동
##en
##ar
14
##리는
그리고
통해
194
##되고
##리를
경기
들어
##하였고
많은
13
##하면서
만들
하는
3월
12월
포함
##스는
다시
4월
##했고
것이다
##는다
10월
##at
아니
7월
8월
있었
##al
여러
대한민국
5월
가지
##개의
##랜드
##대로
9월
195
1월
##사를
서울
6월
시즌
##이는
##로서
##이었다
##es
독일
대해
모두
##상을
중국
하였다
사회
제1
##이고
도시
일부
전쟁
알려
##장을
11월
등이
##ic
감독
##위를
연구
##어진
이루
으로
모든
처음
축구
##지를
정부
##대의
##회의
정치
인구
등의
##니아
대표
##보다
##성을
이용
제작
리그
2월
##이었
구성
존재
##나라
##도의
프랑스
##부분
있어
193
##is
##자가
##도로
위한
영국
아이
대한민국의
일반
자신의
이상
중심
##력을
##라이
##거나
30
동안
##리에
##기의
발견
##이자
기준
개발
문제
것은
##시에
나타
가능
##했으며
이어
지방
국제
##통령
이러
##it
제2
등을
작품
192
이러한
되어
##군의
이는
하지만
라는
라고
##he
우승
사망
대부분
새로
##났다
대회
##km
전투
##위원
##로는
##0년대
25
하고
##도록
##되었고
##하면
##리카
##시키
##기는
이를
역사
##리가
##로부터
##기가
사건
주장
공격
문화
##하였으며
대통령
태어
##란드
##들과
##었고
게임
##자의
위치한
##쪽으로
설치
이다
##스를
##다는
##서는
##세기
##리그
##성이
방송
발표
##정을
최초
영향
번째
##다고
##명의
특히
191
##등학교
의미
##에서도
발생
이에
일어
2010년
러시아
대학
##자를
21
참여
설립
##리스
수도
관계
##ion
##와의
##이라고
결과
주로
진행
##사가
다음과
이전
관련
미국의
유럽
독립
##되었으며
경제
##대를
##이트
##us
##자는
형태
지정
선거
부분
##도를
##le
##인의
##들에게
##스가
##자로
로마
중앙
자유
소속
##렸다
##므로
이탈
##가지
인해
다양
##리의
##화국
그녀
있고
22
##요한
구조
받았다
##르는
사실
같이
출신
##원을
23
음악
##이라는
받아
참가
##과의
시간
있던
##el
24
##부의
##했던
고려
교육
프로그
이것
아들
새로운
올림
##식을
##이스
상태
기술
2008년
생각
##ro
데뷔
계속
2007년
##번째
매우
##다가
이탈리아
##as
배우
운영
생산
아버
결정
##비아
시대
##도는
행정
기원
000
##전을
##디오
발매
타이
##프트
##명을
##인이
일본의
2011년
##학자
않았다
##이지
190
##스터
2009년
##기로
the
돌아
##르크
##사의
등장
성공
##장이
해당
운동
##re
올림픽
##도가
차지
##리즈
##운데
##으로서
2012년
##대학교
26
1일
결국
##드는
없다
가지고
co
##하기도
##부에
전체
##군은
##하자
##선의
##fa
28
##권을
##되지
아래
최고
##am
아니라
##에서의
계획
27
202
##해서
2014년
없는
가운데
##라마
주요
프로그램
남아
##명이
하여
##인민
한편
따르
##이션
않고
##이라
##사는
##et
출전
##처럼
많이
출연
시절
국민
지원
2006년
##수를
2013년
##장으로
##ac
##우스
##성의
이유
##간의
2015년
임명
##장은
유명
후보
##il
조직
100
##남도
##수의
내용
방법
역할
##스크
음반
##화를
라이
##지의
##어로
거의
월드
##원의
##냈다
##사로
분류
##어져
스페
알려져
연결
29
제공
2018년
이라는
##으로써
##지가
각각
##하던
2016년
##스타
열린
대학교
지구
진출
않는다
##ol
##스와
##스템
다양한
작은
##수가
##ing
##였던
##음을
##대표
##자인
##민주
이라고
스타
모습
수상
마지
##전에
##ur
데이
##머니
##un
활약
##리고
##이가
따르면
##지에
##원이
따라서
##점을
표현
##으로부터
이름을
##스로
공식
##일부터
##대에
##으로는
과정
##군이
##os
##하려
높은
지금
##위원회
기원전
생활
민주
시리즈
마지막
정보
필요
인정
##력이
같다
인도
인터
제국
##시의
2017년
경상
가진
정도
만들어
대전
항공
이미
##시켰
##인다
##가는
기능
대신
##나는
##운동
##제로
##ch
##했지만
2005년
후에
##지고
드라마
31
마이
여성
정의
직접
바이
st
그리스
철도
변경
건물
##bs
##세의
##선을
졸업
##있다
fc
승강
개최
##상의
##인민공
자연
##제를
유지
오스트
##대학
되는
in
건설
보고
추가
나라
##id
##어를
시스템
영향을
있는데
서로
##수로
거쳐
이야
않은
말한다
##사에
of
상황
##전에서
결혼
##ed
2004년
크게
##이드
군사
##었으며
아르
비롯
관리
브라
형성
중화
##지로
50
지역의
##되면서
중요한
##문화
##위에
##해야
하였
##대가
프리
원래
야구
않았
일으
##부를
완전
##북도
관한
##원으로
189
##역이다
발전
사이에
##들에
제3
평가
##식으로
##왔다
인구는
실시
노동
##대는
##인을
부산
그가
##적은
##부는
2019년
##프리카
##원은
지하
그것
연합
##군을
##르트
##치는
반대
역시
보여
##om
##른다
공동
이적
사업
##치를
운행
2002년
여자
##ad
fi
##계를
기준으로
공개
##어는
이론
기업
학교
명칭
요구
만든
상대
플레이
다이
이르
##하였으나
##인은
##호로
지도
##레스
보통
위하여
소련
공간
마을
##문을
##대한
제외
인물
##제가
계약
않는
그룹
40
##트로
역임
동시에
##임을
##스탄
도쿄
기본
##일까지
##제의
##장의
##상이
##했으나
##진다
##수는
시작했다
자동
an
특징
##되며
역할을
앨범
모양
##운드
##상으로
##이기도
##이었던
현대
교황
##회를
아닌
민족
##니다
경기도
기간
2년
의한
전통
최초의
레이
초기
##단의
이동
2003년
##체의
##카이
##장에
어떤
##ia
##됐다
##리오
##명은
혹은
경기에서
모델
노래
처음으로
##호를
이끌
수행
##하는데
##정한
지나
하며
##mm
판매
태양
기관
비슷
도입
##ent
##특별
여기
지정되었다
##나다
이때
정책
##주는
달리
개인
개의
기반
추정
##명이다
기타
##시마
##ig
##있는
일반적으로
##무를
##물을
월드컵
2000년
서비
전국
경찰
되고
연방
km
주변
##소를
##ot
##이를
특별
##이의
##ation
어머니
##격을
기존
##린다
지배
속하는
전라
종교
아버지
과거
그래
##st
##갔다
##중에
##자와
있을
학생
##장에서
##적을
##성은
##체를
지휘
##가와
##광역
유일
##서를
산업
전문
비판
##드로
##구의
있다고
나오
건축
##기관
##iv
##리로
##쪽에
##ec
##리와
##어가
##도에
##시간
##ut
동일
##학과
사랑
중심으로
관할
부르
출시
노선
국내
바로
오늘
##독교
##세는
##과는
규모
##인민공화국
인간
##동안
##피언
보내
열차
이라
이루어
비교
##드의
##학적
##시켰다
컴퓨
##하지만
가까
##화가
국가대표
애니
2001년
방향
##경기
통합
##군에
##당의
최대
##트를
2020년
##위로
188
차량
현재의
태어났다
##트남
##트의
##류의
피해
##의를
되었고
##마다
받았
받은
확인
##스에
스페인
담당
##어의
##정에
그를
##리지
싱글
받고
##혔다
##체가
ch
이것은
우주
소설
구간
지지
클럽
적용
##호는
##cm
##연구
증가
두고
보호
##종의
없이
대부분의
수는
기독교
실패
##단을
환경
##비전
##트는
선정
2차
충청
선출
15일
이름은
있다는
##ra
작곡
컴퓨터
뉴욕
분야
##부가
1년
##면에
하나이다
##세가
##회는
가족
때문이다
올라
##사와
이와
##조의
어린
tv
##스코
##이로
##bc
캐나다
기념
이상의
걸쳐
대하여
##제는
##드를
##하거나
##인으로
챔피언
하다
어느
나가
자신이
fifa
##um
있지만
##야마
자기
##쳤다
사상
##원에
선발
상당
##ter
대체
##oc
##메리카
사고
스트
##인이다
##르게
3일
그녀는
##업을
평균
##쪽으로는
개념
헌법
##em
##나무
##기와
##관을
##키는
입단
찾아
공산
획득
##치가
등에
1998년
등으로
##메이션
##겼다
1999년
최근
##움을
도로
20일
결승
위원
설명
내려
있어서
##적이
##세를
조건
10일
부족
활동을
베트남
최종
3년
정당
##개월
이런
데이터
가리
##시켜
지상
최초로
##글랜드
##으면
예정
현재는
영화이다
##동을
##식의
186
없었다
##광역시
거주
##계의
##op
시민
불가
##단은
##드리
은퇴
자료
##과에
##렀다
##방송
점령
뛰어
##관은
이란
##역을
##메달
##식은
500
스포
보인다
동물
##크로
베이
##식이
##했다고
텔레
##성과
더욱
##성에
서식
##시킨
##어서
고대
물리
조사
##od
오늘날
예를
수록
##im
##시키는
애니메이션
##소가
전기
제2차
##리에서
이곳
과학
5일
##스카
서울특별
교통
언어
선언
북한
35
##구를
조약
선택
##렇게
##km2
연속
##했는데
30일
##자들은
주민
후반
##시대
25일
육군
유사
##호선
##난다
명령
공연
1997년
187
잉글랜드
세포
승리
전에
##구에
##명으로
##심을
이듬
소비
소유
28일
1996년
##회에서
유래
##ir
1995년
이름으로
있었던
de
반응
주의
어려
인천
아시아
2일
##덜란드
조지
국가대표팀
좋은
7일
분리
맡았다
##웠다
60
단체
가수
메이
되었
전자
4일
##내는
##이에
선수이다
이들은
네덜란드
이유로
변화
이듬해
우리
국회의
국립
##가의
가문
지속
폴란드
포르
##하도록
##상은
##학을
불구
21일
##한다는
연주
6일
대구
32
표준
##진을
##단에
명의
페르
사무
8일
##라도
##모토
시설
있게
##함으로써
통과
방영
##정부
공화국
12일
에너
17일
27일
구분
##이지만
16일
세워
##자들이
효과
##으므로
하나로
##사카
##비를
26일
통일
18일
##만을
##골을
##ag
##ul
##관이
의하여
1990년
1994년
아프리카
##스에서
사이의
제한
마르
강화
영국의
##주에
##일랜드
##원에서
23일
##직을
위에
##라의
##단이
##소의
14일
언급
9일
1992년
요시
목표
##랐다
정확
##되기
##정이
거두
11일
소프트
바다
불리
29일
아직
승강장
널리
##지와
##상에
분포
주연
22일
마음
멤버
##고등학교
하나의
##했을
알려진
출판
물질
하지
##레일
1991년
포함한
영토
사용하는
##민주주의
실제
오른
이해
여겨
자치
##금을
발달
식민
버전
서울특별시
감독의
결합
우승을
비행
복귀
##철도
##지역
면적은
중에
크로
##부르크
##형을
##계에
##만이
것이라고
불구하고
13일
제품
##선에
##치고
정규
모습을
##지지
##체는
남부
배치
그림
비해
24일
지역에
부여
##베이
##교육
##회가
1993년
완전히
그들의
제조
차례
폐지
##ce
##소는
아마
##주시
##라스
##회에
##하의
##신을
##동에
보다
일종
##관으로
등과
분석
이들
##지방
텔레비전
법률
19일
때까지
70
예술
##르고
##로의
나머
##로를
##당은
##ow
대중
##산을
##지에서
전해
왕국
##거리
##학의
집합
##시코
설계
실험
못했다
드러
오스트리아
##구가
더불
이사
##선거
방문
패배
자주
##스턴
제4
파괴
##되었으나
요청
##인데
이로
##나이
갖고
기여
제작된
제국의
##아의
브라질
정도로
불교
외국
##장과
##들로
##법을
스포츠
##위가
##점이
자리
더불어
선수로
그런
마찬
근처
##ap
##톨릭
##선이
오래
##주를
스웨
마찬가지
##부로
##안을
##어졌다
치료
하이
1988년
비롯한
##군과
움직
유전
##경을
##었던
##받았다
여객
##위는
것에
그들은
필리
많다
경우가
##프로
프랑스의
##정의
않아
존재한다
일제
##자리
밝혔다
목적으로
노르
바뀌
경험
반란
북쪽
회사
공항
바탕
##시즌
소재
1989년
지냈다
영어
언론
일어나
나온
수준
##시는
초대
ue
사람이
그대로
##드가
독일의
##르의
##되기도
달러
##트가
확장
작용
관측
중요
경쟁
남쪽
300
##물의
##위의
논란
##사일
uefa
성립
##인과
개혁
스웨덴
떨어진
인터넷
##버스
알렉
외교
작가
##ip
지역에서
황제
수용
80
있도록
주도
##초등학교
##규모
에스
##까지는
##ay
밝혀
성장
크리스
나무
다만
선수권
유명한
천황
추진
과정에서
주인
지난
##웨어
##바이
스스로
4년
##카와
사람들이
##베르
사라
##력은
있으나
##가를
##속도로
프로젝
연기
기록했다
1차
구성되어
작업
##도와
45
##스티
남자
파견
이외
##하다가
##정은
즉위
강력
스위
##지게
해석
##량이
##들도
상대로
##아가
북부
않다
##우는
##문에
들어가
al
##화국의
접근
발행
36
##루스
가톨릭
##형의
un
개통
의원
특정
자동차
해안
생성
##구는
런던
##졌고
도착
만나
여름
조각
임시
중간
정신
가능하다
비슷한
먼저
통치
팀의
지역을
1945년
재판
##간다
##오는
슈퍼
조선민주주의
kbs
거부
re
개봉
광주
야마
##자이다
때는
단순
##감을
가져
##ers
불리는
이주
##시를
동맹
엔진
고등학교
이며
##러스
국왕
##전이
공작
##na
삼성
##0년에
##스테
동쪽
##소년
##회사
가르
지하철
곳에
33
말했다
##없이
아카
##많은
제주
여기서
방어
##평양
훈련
##이기
목록
체포
투표
히로
시행
만에
기초
##이어
##레일리아
에도
##하였는데
사용한다
##지션
##전의
##스키
그녀의
등록
해결
##수한
##선은
마찬가지로
##대와
그린
다르
상호
것이었다
당선
다카
귀족
아무
바꾸
미국에서
수많은
형태로
대응
이루어진
##하라
시작하였다
동생
살해
출생
##ct
결성
##미터
부른다
대사
프레
##성으로
스테
교수
끝에
내각
##관의
오사카
아시
##주로
대표적인
체결
##하기로
##크의
사망하였다
아일랜드
이야기
##고를
보유
##자에
강원
디자인
##라인
번역
1986년
승격
##어나
##행을
##량을
상징
규정
##았고
제안
만들어진
중화인민공화국
1987년
##부에서
##선에서
살아
185
위치하고
##ist
이름이
멕시코
인근
보존
본래
윈도
근거
중의
##치로
##오카
이집
사용된다
후쿠
종류
##해졌다
##전은
##ri
처리
카를
따른
하계
##량은
##함을
##웨이
중에서
##나라의
안정
오스트레일리아
##단으로
있기
서쪽
##메달을
밴드
의하면
##th
제5
발사
시기
##ov
것과
##당이
친구
중단
##했다는
교회
포르투
##물이
##디어
대륙
조성
행동
##으면서
##부터는
지진
있지
종료
위험
있었고
##인트
회의
나머지
31일
수비
##점으로
##하이
38
##조를
위치해
##국이
계승
##릭터
관광
평화
일어난
이스
적이
##역으로
부정
##og
시도
##디아
그렇
##트리
혁명
옮겨
금지
##크라
##면을
에는
이슬
일을
2개
##화된
경영
위의
##인들이
알고
##문화재
바르
이루어져
근무
활용
한국의
계열
이렇게
세력
##한다고
보수
5년
해군
1985년
참여하였다
##산으로
2세
하루
180
시험
몇몇
강한
##소로
##트워
캐릭터
##교회
못하고
1984년
파일
##기술
인민
관련된
표시
직후
준비
서비스
사용할
취임
ar
##20
위해서
1세
유일한
지명
##리트
##하에
제시
##로가
and
##로나
##내고
정부는
##정보
##티아
대해서
##아시아
유니
대해서는
친일
##사업
##10
떠나
구조를
신라
##되자
##소에
배우이다
##ie
##센터
##and
##ard
가정
얼마
##권의
경기를
##만의
간의
##로로
con
##사에서
사이에서
경계
이래
다루
종합
34
디지
##였고
홍콩
sp
가까운
##가이다
##승을
##가로
아내
중국의
베네
기후
표기
##주교
윌리
##부와
안에
충돌
##작용
포지션
##시키고
못한
만화
##당을
나타나
##요일
달성
##조는
둘러
헝가
해외
정착
합류
##국은
1982년
정치적
##조가
오후
184
##러운
라디오
것도
완성
유대
타이틀
제도
주인공
가능한
##습니다
##였으며
의미한다
센터
물론
남북
로스
사진
##연합
에게
##시가
##나가
th
##tv
경우에는
유로
##ss
오브
낮은
##두고
가입
##산의
재직
이용하여
##니는
나누
말을
##났으며
##석을
만약
좋아
##서로
대회에서
##3년에
건너
##적으로는
종목
이슬람
##ou
##왕의
경상남도
필요한
연장
사령
에서는
##려고
베르
##종이
전환
90
묘사
400
##량의
##리포
##권이
각종
뒤에
제거
##분을
##체로
되었으며
##치의
생활을
생물
##전히
부근
사회주의
기록을
정식
인디
##피아
스코
관계를
비디오
통하여
공급
미사일
제기
촬영
만들었다
출신의
의견
선의
##와는
##롭게
##8년에
오르
##화의
음력
불린다
아니다
##est
문제가
##과학
##bo
파이
갖추
##시로
1980년
그려
경상북도
포르투갈
전달
제정
핀란드
##관에
터키
##9년에
##1년에
디지털
명예
연극
스튜
##고로
일종이다
수가
반면
안전
전략
전투에서
문학
##프는
##자들의
아키
주는
노력
가는
##ine
남동
##미널
##은행
동부
##시대의
투수
그해
##만에
##지도
국방
알렉산
제외한
겨울
태평양
상업
##차를
유형
이후에
37
##6년에
##과를
##이던
배경
##인들은
고구
시대의
윌리엄
##비가
##배우
몽골
##교의
주었다
전반
뒤를
##티나
##질을
주목
주연으로
##트에서
나중에
제1차
마련
아우
##낸다
허용
문제를
실제로
39
인한
pro
기능을
무렵
기존의
##점에서
집중
55
오스
천문
##ab
##민족
##분에
전시
3개
최소
##원과
##인지
##상에서
##졌으며
정부의
##ess
##4년에
내부
왔다
하자
갖춘
##계가
##7년에
##물로
바람
저항
네트워
하기
##준다
##0년대에
##학년
##까지의
부모
부문
1972년
길이
소개
##았으며
##파의
엘리
떨어져
신설
개편
임명되었다
위협
세운
##세에
##19
필리핀
게이
le
너무
에이
##사령
##역에
##크는
##되었던
출발
확대
75
올랐다
윈도우
서부
신문
합병
##주가
세르
의사
경우도
문서
사실을
바탕으로
##스토
183
일반적인
부터
##상과
넘어
##av
mbc
비밀
점차
유리
탑재
사용되는
사용하여
미래
##라노
마이크로
##라우
구단
덴마
높이
##르타
작성
지적
최고의
범죄
##학생
붕괴
150
채택
있었지만
침공
위치한다
전사
본선
##호가
일이
인식
##ity
##세포
##5년에
뿐만
##ak
교체
만드는
매년
시기에
##역에서
to
태풍
편입
##장이다
홈런
자본
##가가
여전히
##법원
1983년
정리
설치되어
남편
##해를
모스크
확보
지금의
요리
득점
민간
이번
그래서
##라비아
##중학교
시의
감소
##래프트
이끄
항상
제목
##기고
##에게는
국회의원
마리아
계약을
ii
##공항
방식
승리를
입학
##리스트
적극
##사키
충분
자리를
is
사후
##라운드
성격
고구려
북서
관찰
ne
계산
##당에
##버트
이끄는
##if
농업
##체에
##리어
개정
밖에
등에서
##되었는데
시작되었다
기계
통신
세종
보여주
외에도
평양
su
간주
수학
##lan
##면의
##라엘
수립
##의로
받아들
##화에
편집
##론을
판단
##되었지만
##리기
##즈의
열대
1개
등은
##오프
젊은
##었으나
##전쟁
화학
다섯
하게
mar
전라남도
불러
##임스
##니스
시내
스토
해체
마쓰
sc
##워드
미술
k리그
공격을
대형
쉽게
울산
연맹
##세기에
장기
팀은
##리포니아
전개
실행
창설
잠시
am
##생활
##ang
태어난
##기업
##대에서
사람은
동료
##ph
##비는
당시의
이스라엘
구축
신경
길이는
아랍
보면
건강
##밖에
##룬다
메이저
얼굴
발견된다
제6
사용한
##군으로
##te
42
강력한
조정
나뉘
##역은
그곳
중화민
##보다는
보이
##프가
##메이
비교적
설립된
케이
측정
1981년
지역은
장애
떨어
공공
강조
귀국
##로서의
후손
##료로
179
아나
10년
##트에
원자
##받아
전차
캘리포니아
증명
인하여
삼국
##실을
만족
도시로
루이
죽은
##전으로
제7
체계
##ty
##드와
라틴
사례
편성
##력의
사람들은
##키아
마사
단백
포지션은
##시와
교토
문화재
종종
##로스
추정된다
2개의
북동
대규모
증거
책임
식물
##산업
##그룹
고양
1979년
##트라
대립
유엔
##문이
##시오
##당한
##적이고
##족의
##ae
특수
시대에
예선
48
변호
함수
##용으로
##역의
##류를
##세이
64
##단체
##구로
##면에서
때에는
1973년
##신의
불과
정보를
해방
소프트웨어
sh
회복
##스포
##동차
tr
저장
##개발
의해서
성우
검은
##어와
4개
##점에
나폴
집단
##ell
##해의
##었는데
사실상
##싱턴
채널
사회적
##ber
아름
##어도
자신을
##2년에
##했기
41
##데미
에드
녹음
항복
조선민주주의인민공화국
수정
회원
##어들
하면서
머리
방식으로
##하려는
at
수입
##모리
원칙
##시설
재위
폭발
제작에
단계
정상
흔히
##경기에
##력으로
com
물러
보급
보이는
181
카운
형식
##소에서
sk
노예
관할한다
인수
##사회
##적이다
속에
있었으며
뛰어난
##셔널
행정구
대상
남서
##네시아
은행
##무원
보도
##자치
강원도
##분의
유명하다
se
초반
##약을
##자에게
블루
##사이
세이
##화는
유도
##형이
43
##자들을
대수
##ill
모스크바
##법에
있었으나
##국을
##품을
도움을
주교
파리
받는
버스
시장
요새
알아
##fc
아르헨
내에서
붉은
##다면
형태의
충청남도
##다이
때에
수여
##하고자
##크라이나
하였고
160
오리
출마
힘을
재정
여행
가격
블랙
##대전
시청
경기에
박사
##도시
외에
구성된
관심을
철도역이다
가로
이하
산맥
없어
과정을
불가능
죽음
확정
##종은
부인
##역이
행사
47
사용되었다
나카
사람의
이전에
베이징
1974년
짧은
19세기
lg
경향
암살
선고
정도의
통한
##틀랜드
##로운
협력
##었지만
이것이
세웠다
트리
아주
이승
본격
장착
구체
##트와
감염
한때
태어나
65
ap
이끌고
근대
카이
마드리
나서
##라가
한다는
카메
##색을
##데스
##제에
전후
우크라이나
인간의
##관리
사는
##신이
##지면서
원정
멸망
복잡
권한
##산은
북아
##하다고
##명한
되면서
나는
##료를
했지만
등장하는
워싱턴
##ne
역사상
네트워크
우선
##지기
하는데
조금
##권은
##를린
인사
앞두고
뮤직
무장
업무
대항
1976년
00
##인에
적은
1970년
헤이
않을
건조
##주에서
##의의
설정
공부
##ian
##igh
대상으로
방출
44
피아
##all
시즌을
발표했다
플로
##ue
##도에서
1948년
중반
건립
##인들의
단일
이후에는
나오는
세우
##국에
스튜디오
넓은
투입
1963년
레코
##드에서
계급
##레이션
발매되었다
내에
어떻
##하려고
청나라
1978년
##권에
##킨다
##서에
##바르
기사
추측
##함에
한다고
개선
##대회
cd
되지
무기
##티브
##동이
##정책
1971년
내용을
수출
##리학
정복
##경에
했으나
원작
##ud
전혀
형제
스파
##일을
1975년
##번의
하늘
수원
비율
고향
전쟁이
en
대표팀
맡고
잘못
ro
제임스
##니어
주장했다
삼각
자체
팀을
##하나
속에서
##공업
국가의
토론
고전
남성
##려는
1968년
##았던
목적
박물
저지
##간에
아카데미
##이었고
식민지
역대
동일한
비용
작전
구별
##당했다
54
출입
##타를
정부가
사람을
없고
약간
나이
전설
있었는데
탄생
##테르
##점은
단백질
까지
얻었다
핵심
발생한
공유
##구와
타고
참석
##io
했고
오픈
##받은
3차
태어났으며
##해진
##드에
##주와
고정
##로도
##제국
##이었으나
159
어떻게
기억
지낸
##형은
1969년
전용
훨씬
##케이
오전
생겨
청년
현재까지
이중
##수와
거대한
인기를
##지이다
##하마
문자
1950년
아들이
##안에
##시킬
팀이
##일러
##동의
그에
시각
프로듀
##ge
출연하였고
##리노
은하
금속
병사
붙여
플랫
판결
애플
2면
일본에서
##영화
속한다
요한
러시아의
마침
기획
##력과
자는
차지했다
역임했다
46
부임
##면이
공포
##서의
다다
제출
##저우
##ta
전철
##나와
오히
고종
##박쥐
취득
타이완
예상
육상
장악
주식
이르는
##프의
했으며
오랜
사용하고
##세계
청소년
전쟁을
##산이
세계에서
살고
창립
##겠다고
기반으로
##항공
이고
행성
la
의회
##력에
상륙
##다운
금융
신앙
점에서
머물
##서가
에너지
아르헨티나
##아버
소비에
1960년
건국
공화
현실
확실
취급
라이브
##미디
##슨은
심각
##법은
##기에는
##기압
##ts
178
아테
원년
##쿠라
브랜드
이탈리아의
가능성이
오래된
##받고
나와
##후의
182
1946년
준우
아메리카
53
스피
그것은
무역
ex
공산주의
1977년
모리
##유의
##지인
활발
주어
##키스탄
강점
해당하는
원주
##인민공화국의
대비
##판을
장식
##경찰
##ys
지붕
##신은
지닌
##스리그
##스럽
##일본
차이가
##가에
##물이다
국경
베를린
운용
##리케
대략
소년
##ive
서양
경성
비난
시작한
계획을
강제
1964년
##나의
뜻한다
##선수
##화로
##형으로
##유럽
##m의
##물은
##추어
par
만큼
##지며
왼쪽
##0만
##다른
일으켰
주둔
통제
##ck
##생의
절대
##문의
지원을
거리
52
##소와
대공
앞서
##당과
방향으로
이른
고등
시티
##법의
오토
사망했다
출신으로
거절
3개의
##차로
도서
보였다
양성
승진
인공
##테인
스코틀랜드
카운티
이었다
오히려
be
##선으로
이민
포함되어
활동하였다
##협회
도달
갈등
두었다
글로
##어진다
##같은
흡수
##조판
##병을
됐다
포위
1949년
ad
부상
##리게
오른쪽
5개
플랫폼
고속
아파
가게
1962년
백작
##교통
롯데
하드
미드
##자이
동계
##음에도
소수
##분이
ph
##류가
합의
##령을
동남
관심
56
끝나
##리우
개시
##면은
이제
##렸고
1967년
##나이티
도움
##ong
##호의
##정으로
##먼트
데이비
그에게
##타이
처음에는
만주
총독
##보를
임진
##이었으며
본관은
조합
##ice
되면
혼란
히데
이용한
지상역이다
##에르
시간이
역이다
##단과
##비의
어렵
아침
fa
도망
자격
##무라
49
51
후에는
자이
프란
##하다는
아들로
##pa
##여서
보는
강의
아시안
미나
나치
역을
유나이티
신인
클래
해서
##언을
이룬다
반복
요코
스크
##아서
수송
장군
트레이
##마스
##리아의
##안의
##재를
##술을
##더라도
간단
보조
번째로
독자
제8
##소프트
약속
결과를
빠른
##ba
집행
##니의
분쟁
잇는
변경되었다
##이란
이유는
비록
플레이오프
주고
##자기
지방의
벨기에
발표한
아미
참전
##조에
##경의
##번째로
800
의료
##고속도로
##국에서
대학교에서
곳에서
##종으로
군대를
부활
장치
지냈
##ens
논쟁
진압
공을
도중
시작하여
상당히
1944년
슬로
##사인
58
대성
##지자
왕국의
##지원
때의
후지
총리
##수에
점을
메이지
이익
소비에트
1940년
보냈다
##왕이
높이는
반발
위해서는
생긴
광고
등급
보아
동의
1965년
##히는
명명
발견된
##차례
그것을
99
##문은
##보는
##로그
##자들
통해서
헝가리
1위를
##일의
600
사법
##사건
##석이
선수가
1966년
이용해
양자
창단
선거에서
ac
투자
한반
무덤
##경제
##본을
수상했다
거래
177
사용되고
얻어
##슈타
한번
공식적으로
이집트
##스러운
##해도
##앤젤
받지
##크를
##화와
##패를
pc
해에
##행위
##산에
포기
##티노
이나
##계는
이것을
1일에
천연
##버그
가을
보낸
##사관
기록한
공군
다르다
1961년
1로
or
탈락
##리우스
관료
##누스
콘스탄
하면
##조합
로스앤젤
훗날
##체육
이야기를
합격
여객철도
레드
넘는
영입
##법이
##동으로
전공
##교를
##카이도
6년
피해를
그런데
신성
선조
##치아
생명
운전
철학
세르비아
##설을
유사한
농민
##의회
않았고
기록하였다
때부터
지어
종류의
##하였지만
자살
뜻을
##축구
방사
pr
##ub
대기
죽었다
앞에
갈라
sbs
승인
1941년
해산
빠져
##이므로
##였으나
말았다
사단
##수록
he
##문학
베이스
다니
노부
이전의
##마의
사건을
반영
so
규칙
소장
##생을
##ps
알게
##차가
##수이다
인도네시아
브리
시작으로
급제
장관
군이다
복합
지급
전라북도
##연맹
##증을
모양의
하나는
명이
쓰인다
##kg
1000
활동했다
##만큼
프로세
##들어
##per
내의
보장
최다
탈출
문헌
코미디
##브리
경우는
coun
jo
##씨의
운동을
수집
##시티
방법을
66
마케
인접
3세
도쿠
좌우
##르가
2선의
성인
여기에
응용
제대로
합성
동원
중이다
##개를
엔터
한국에서
##음이
##ich
후기
##국으로
이들의
##시에서
알려졌다
경기는
높아
공통
둘러싸
##부인
국도
me
포함하고
음식
##면으로
##드시
7년
중세
##조사
민주당
채용
공업
##모를
이뤄
받게
지키
진입
플라
자세
##로드
세인트
페르시아
제외하고
나이로
##니아의
지니
서버
감독을
프리미
둘째
##즈는
끝난
구속
반도
불법
연재
##라를
하였으나
맞이
88
무게
##선과
형태를
돌아가
로켓
작품이다
말레이
항성
가서
새겨
95
온라인
##되면
##ry
덴마크
완공
##스케
사건이
##만은
##자료
##리즘
57
국무
각각의
군주
되자
어떠
출장
미야
존재하는
마리
지식
변환
##에만
챔피언십
##플레이
120
아사
##율을
남은
이성
##기간
로버트
##적의
정책을
1면
일부는
솔로
당시에는
##종을
들어서
빼앗
##페이
그러한
달라
##라와
##베르크
##실은
시간을
스프
##에게서
김영
##씨는
개발한
특별한
분할
터미널
맡아
트로
##노동
##으로도
생존
bo
빠르게
##미야
모여
나타내는
보관
위반
기록이
검찰
챔피언스리그
등판
##학에서
##틀러
지내
하였으며
학위를
as
깊은
논의
함락
85
체코
것처럼
정확한
##항을
마지막으로
##중앙
감독이
헨리
##ate
의존
벡터
상품
없다고
열렸다
실질
기술을
주전
4개의
1919년
잡아
호텔
대부분은
미디어
##명에
##타르
수사
일찍
고용
##질랜드
선교
크로아
##일은
##시킨다
배출
후속
##전과
미군
유형문화재
시즌에
전파
올리
재배
##천군
예측
##들이다
풍부
뜻하는
통산
20세기
프로그램이다
흘러
분열
사태
않으며
목표로
교환
동작
받았고
연산
무엇
2021년
아버지는
##기에서
##비치
기둥
처형
했던
대개
개최된
fr
외부
##바라
반드시
##미가
뉴질랜드
##구에서
인터뷰
주관
특이
파라
##우리
1958년
kbo
상승
##이와
##ik
감독으로
독특
카르
##도르
라인
지은
논란이
회전
##ore
##마트
해양
##방을
일정
아라
##네스
1939년
역으로
개신
이시
진보
62
##공사
니콜
오스만
쓰는
0으로
갖는
계기로
개막
다수의
##온은
##민주당
중화민국
전주
##통을
국회
대통령이
독립운동
##통신
경주
발표하였다
명칭은
##왜란
1947년
속한
이후로
화물
##계에서
1980년대
##무늬
에어
##미를
wh
어떠한
##리다
##16
득표
##명과
자녀
##화되어
시에
소속으로
us
니시
##되었을
웨스트
졸업하고
##af
헤르
63
##이센
포함한다
늘어
자신들의
68
성을
##상태
1956년
작품을
예비
다음은
불안
##보드
170
반대로
##예술
서비스를
사우
법칙
이후의
##되었다가
##현의
##리히
가졌다
파악
트랙
학술
것이며
##석은
임진왜란
성능
ss
##화한
합쳐
##전문
##ect
평안
포도
##장군
시리아
162
하나인
되며
그와
바라
##일보
향상
##건을
브루
##동은
인디언
스위스
역은
학습
골을
샤를
##고는
왕조
정차
치러
가리킨다
군의
올려
넓이는
프로젝트
갔다
##주의를
금메달을
기자
##신으로
72
어깨
주택
##바로
1942년
저작
마침내
##기까지
##마을
##뿐만
##하였던
시카
##성군
연출
국제공항
대한민국에서는
요소
후보로
당초
신청
연대
나고
발굴
사임
역사적
올랐
에피
지리
##공화국
출간
74
엄청
주지
##제와
마치
나다
받을
편찬
##국민
전통적인
##조직
1954년
보병
##메리
능력을
소방
평가를
번의
그레
1952년
보안
인종
조선의
조선시대
1943년
##야구
정치인이다
발견되었다
다스
##질이
우려
##요시
##름을
녹색
완료
##주년
1920년
조절
간행
##재판
##으니
발발
오랫
한정
관계가
예정이다
te
제어
임대
군인
조별
침입
학문
부대
##경이
효율
포함하여
98
무너
쓰이는
코드
노벨
##무부
1959년
라고도
말에
##하였다고
##책을
##마이
명을
2000
##락을
인구가
성적을
ma
##산화
지도자
##미는
##세로
##났고
보컬
##임이
jr
장교
문제로
도요
##리코
오랫동안
없으며
점점
##치에
기대
활약을
##해가
출범
##루가
##식에
##기념
##장인
##겠다는
##ant
dna
위성
이루고
모아
의무
레오
##프를
로스앤젤레스
받는다
성적
수영
정비
일부를
##론의
##터는
갈색
##구이다
황금
미니
##총독
##없는
km2
##미의
글을
활성
해발
175
##11
보물
테러
##uc
##복을
부르는
펼쳐
검사
##연히
만들어졌다
중부
텍사
##주었다
##토의
부상을
임금
명확
발매된
제9
1990년대
73
영화배우
소녀
이루어졌다
후쿠오카
8강
가치가
마이크로소프트
##음악
거두었다
반란을
##포르
바뀌었다
추천
161
일어났다
장남
지역으로
가스
인기
경제적
1위
##계획
연구를
고속도로
영화는
##ord
향해
##판이
침략
단위
사냥
일치
##에른
가담
##조선
일본에
개칭
단독
망명
사마
후계
##시스
##내에
선보
이름의
뉴스
76
가지는
공헌
승객
ic
##투스
신호
편이다
가나
철수
고문
알파
활동하고
크기
구역
##여자
나타난다
##ver
유일하게
##프레
번호는
##터를
##동과
불렀다
##산시
##령이
지금까지
##가타
##크가
##망을
유기
##원이다
##해져
데뷔하였다
규모의
조작
대리
혼합
제작한
연관
##천시
접한다
선정되었다
59
의미를
kt
##으로서의
아이디
법정
##박물
##방의
국민의
병합
차별
경우에
어린이
700
충청북도
1953년
67
임의의
스페인의
##사단
기상
김정
성향
정지
창조
##리그의
가리키는
취소
##거운
썼다
쓰고
트랜
스미
##진이
##up
프로이센
##시키기
나왔다
##레오
시위
중인
1955년
##ii
아테네
설치된
##km2이고
혐의로
그들이
영업
질병
현역
있음을
on
지위를
진화
##라이언
96
바이에른
미드필
자리잡
소송
많아
맞아
176
고유
6개
##조로
이르러
##들에서
작품은
마이클
강등
##류는
내셔널
실현
유한
##ok
##표를
사용된
언제
br
##그라
##주의의
##진의
하위
방법으로
없다는
내용은
지금은
남쪽으로
##이었지만
동해
##각을
##end
##und
베스트
빅토
제일
가문의
자이언
처벌
교육을
##시험
대표하는
개입
행렬
##겠다
##보살
##파는
##니가
계통
##들로부터
받았으며
##화되었다
##루를
근본
전형
##게임
##카가
시작된
안드로
미드필더
sy
##티오
다수
안에서
해상
##qu
이들을
통상
공사
나들
##pe
it
77
왕실
마무
타이거
목소
상태로
그때
해당한다
박정
##일이
##고기
곳으로
##로마
나들목
1957년
진주
그레이
따로
##왕은
스티
##터가
신뢰
##ib
비례
직업
##리나
##고등
출시되었다
놓고
절반
1만
대부분이
정기
그렇게
자극
##디션
##자로서
것이라는
##ast
엔터테인
세력을
이기
승려
##층의
것이라
원소
적절
##였지만
연결하는
##평균
##대부
재건
아스
폐쇄
##타는
이전에는
체제
예수
이른다
제공한다
소련의
여겨진다
무시
##하므로
프랑크
마르크
한나라
동아
##안은
메인
방정
코로나
나누어
도모
##재로
##개혁
이라고도
독특한
심리
안동
##터리
지시
하에
김일
##게는
확률
##님의
존재하지
오페
##족이
140
상당한
##섰다
중에는
루마
올렸다
##사이트
164
설립되었다
상대식
곳이다
##우주
##12
사운드
##인도
주장하였다
행위
158
전직
초등학교
##동생
##가인
않게
##사무
발탁
##어이다
##iz
영상
##서양
##차는
##슬러
##관계
얻은
유행
북쪽으로
도와
피아노
nh
사람들의
부분을
누구
느끼
선박
소멸
프라
확립
진행되었다
총선
시카고
나타내
##로와
섬의
163
드라이
잠수
터널
##파를
##남도의
코르
길을
연고
156
##었기
프리미어
86
어려운
sm
프린
##치게
개설
시작한다
기록은
상위
##격한
올림픽에서
##프리
준다
2008
부친
##상이다
저서
창원
상대적으로
개신교
바닥
크고
##체와
87
분위
일시
잡지
등장한다
부하
선전
1번
대회에
접촉
##마르
출전하여
새롭게
속해
기울
변형
##사우
내렸다
와이
통계
##동맹
아들인
##안이
받아들여
멀리
페이
##레옹
##머스
일으키
1970년대
다소
카드
##에이
##함이
가이
왕이
동안에
개찰
8년
상하이
이끌었다
1의
##토니
프로그램을
벌어
인쇄
입장을
county
조종
유럽의
특징이다
돌아와
들고
##곡을
노르웨이
작업을
징역
서울대학교
도시이다
말이다
##되는데
있었기
심각한
1938년
히로시마
한국어
1936년
주최
도시의
##루는
##함과
보유하고
afc
##학자이다
부산광역시
테이
go
암컷
궤도
##진은
관여
떠났다
복원
스카
만들고
드래프트
자라
##데이
기회를
명나라
##관과
##씨가
##색의
##ight
##하지는
##부사
의학
제공하는
##스럽게
93
전한
선출되었다
초기의
희생
운영하고
다르게
단편
시나
신학
조선총독
나폴레옹
네이
장수
맡은
지켜
97
가와
후원
##ure
일정한
##론은
1918년
갖추고
저술
최우
조카
못하였다
속의
화산
전까지
##고가
태양의
왕의
차이
##15
일부가
가고
##경은
세계의
불렸다
##포를
##했다가
78
특정한
티베
일어나는
매일
##부대
1951년
사망한
돈을
자전
가마
다케
무한
##퍼드
위로
##ld
152
##0m
전쟁에
관직
맞서
변화를
개조
리처
동북
##ans
##자들에게
않지만
몰아
##키가
1960년대
##ial
출연하였다
개체
메시
태국
기소
히틀러
##되었다고
##텐츠
145
##석의
대체로
선임
정교
##쿠스
발생하는
상황에서
앞에서
##행정
사용하였다
클라
2012
한글
1937년
플래
크다
##론이
두려
##뮤니
선생
원주민
연구에
리더
석유
##ob
##세대
나아가
코치
##식과
168
한자
inter
복무
세웠
##별로
165
바둑
추기
##히고
이로써
분명
심지
해야
다리
84
어디
데에
투쟁
##베르트
지구의
가슴
##주고
의혹
전면
1914년
따서
무사
전신
##드라
##art
프로토
서쪽으로
연결되어
##전에서는
밀려
집권
##격으로
동쪽으로
기록되어
그래픽
전쟁에서
완전한
분해
가진다
##파가
##물에
쿠데
##오스
##이닝
##관에서
##치지
스마트
홋카이도
자리에
##중의
##점의
나타나는
92
물을
숙종
##시리즈
##지컬
나타낸다
##ational
효과를
##법으로
사업을
##원군
전부
##행성
##강의
남아있
필요가
향토
##ff
대의
미국과
근처에
##색으로
외국인
구현
기다
브레
이혼
작품으로
문을
조선시대의
추구
개봉한
구입
##bm
번주
현지
화합
구글
단지
토지
부진
역임하였다
##기록
##문제
##개가
로마의
아름다운
함경
##타로
전쟁의
왕조의
##vd
재임
텍사스
한일
##르기
학살
##메리칸
cl
중학교
높다
동성
유고
##네이
표면
##ort
##어야
##de
##례를
2010
참가했다
가치
꼬리
어머니는
##비로
듣고
000명이다
점이
154
대통령의
수리
탈퇴
##ug
종사
##속에
그로
##비스
##질의
##cc
조지아
제10
동양
지지를
쓰여
데이비드
ps
다운
다음날
2016
오키
##루의
미국은
##one
천주교
비상
##국제
기록하며
권력을
살인
재개
남아프리카
61
측면
##우의
##국가
##체스터
이후에도
1930년
내용이
역에서
열매
부분이
설득
##공신
관련이
사람들을
돌려
영웅
적합
정권
##었을
필요하다
공화국의
노출
격파
10월에
전력
프리드리
시상
##야의
이적하였다
루트
양쪽
파르
##부장
##man
2번
1932년
가공
##평가
##일로
언덕
올스타
##we
열차가
연간
위상
##주의적
##백만
운영하는
신체
후임
##조참
보건
##린은
준우승
##ust
밀도는
여섯
##계약
양의
즉시
해도
있었다고
cm
##ack
자이언츠
##양을
리스
분노
2013
명령을
중추
일으켜
3월에
사실이
##공원
##생물
##자키
##브라
상을
경력
눈에
사용했다
157
포항
그리하여
1935년
임무
벌어진
오직
유효
이루는
이르렀다
책임을
##었다고
김대
비롯하여
##ly
94
백제
코파
1933년
2세는
권력
들어갔다
##련의
스키
수상하였다
엄청난
크로아티아
거느
수석
대통령은
분기
의심
환승
화성
166
차지하고
벗어나
##인들을
##리며
인조
##구치
139
82
인권
찰스
##타운
역사를
##ind
2로
골든
부담
인지
주간
##사전
시리즈의
조건을
초에
달려
발음
##정과
그렇다면
##베리아
im
os
미쓰
추산으로
레알
전송
대대
bl
선포
동방
형사
남겼다
후인
##보고
끌어
지니고
곡은
이상이
순환
한성
ms
##호에
시스템을
되는데
블라
싸우
##주군
추가로
83
##혁명
부분은
음악을
초기에
나온다
콘서
my
car
대량
세상을
싱가
##우가
나고야
만다
유배
제후
##목에
69
아래에
문신
않으면
호소
이름이다
1934년
##타의
잉글랜드의
오프
화려
##파로
20년
주장을
못하는
산화
##영의
##역과
##비에
##분으로
##입니다
##ith
만든다
유학
줄어들
수컷
보았다
말이
지속적으로
16강
수요
희망
##터의
##라고도
##이라고도
155
여러가지
대한민국에서
당시에
12월에
밝혀졌다
말하는
##레아
##렸으며
153
참여했다
더블
방지
에피소
도쿠가와
뛰고
공중
##중한
89
we
유치
상태에서
벼슬
얻을
1910년
오다
기병
수소
##연대
나라의
이라크
요코하마
노스
재학
수도권
북아메리카
밝은
의식
행동을
독립을
연평균
##인인
호는
##되지만
man
주에
##왕을
생애
바르셀
이른바
액션
##만으로
##족은
다이묘
광복
상실
##다란
협회
9월에
성직
##공을
타격
##포로
대표로
업무를
게다가
내세
개국
구매
ed
개방
##듯이
수술
##계로
wor
##발을
3대
추방
회장
상황을
노선을
탐사
말레이시아
##공산
##미르
2층
2017
명단
최대의
172
검토
별도의
이들이
##름이
달아
입법
화장
아이돌
달하는
스케
방해
남극
상속
싸움
##슨의
##ach
##산군
에르
2018
명칭을
크리
##만한
##간을
col
일은
##니즘
개명
수의
로드
##위와
인용
##ical
1군
차트
##영을
장소
##았으나
##처를
2014
스프링
갑자기
라이트
테스트
##코스
리버
##등을
강릉
없게
위에서
직전
##키의
##인에게
##피스
연습
농구
커뮤니
##동물
##연을
오늘날의
##범위
김종
대장
구멍
의미하는
##거래
2015
마무리
되돌
##영은
110
갖는다
##키퍼
##ide
넣어
입고
##오의
167
gr
##비히
130
에드워드
##데르
##에서만
##학자들은
원래는
십자
형식으로
홍보
주기
사용자
위치를
##ung
약칭
포스트
##방향
##ory
복잡한
탄핵
sn
사퇴
멸종
##환으로
##마를
##목을
홈런을
아오
##유가
사찰
##등의
특징을
수익
파워
1인
이온
##마는
1928년
결의
고위
뮤지컬
보스
새끼
##ock
그곳에서
사가
특성
전투를
위원회
##가락
동일본
비잔
##ace
##트릭
노래를
분자
올해의
1924년
1회
이웃
디스크
해리
##천만
몸무
소집
##라에
71
cp
대법
몸길
걸친
연예
사건으로
79
hd
##하여야
##결승
공산당
제도를
현존
성남
없을
단어
##학교를
나타났다
##과대학
##기인
끝내
청구
##베스
##바일
세계적으로
우수
이자
임무를
##감독
09
논문
화이트
##중을
소형
있으므로
##가시
알바
영구
모토
사건은
지중
주장한다
단선
항의
아버지의
프리드리히
사막
##모가
##타카
##사이다
##산과
공장
천안
골키퍼
2009
게임을
sch
수십
보여준다
였다
규슈
베어
포함되었다
논리
##for
2011
포함하는
##양의
시드
##강을
가까이
자금
받아들이
방식을
사전
토론토
##스트로
구성하는
마드리드
개별
##받는
철거
##왕후
당나라
##해군
8월에
교류
드물
일으켰다
암호
174
도전
소식을
노동자
분야에서
##시스코
체육
18세기
151
출신이다
그것이
조선민주주의인민공화국의
콘스탄티노
제이
6월에
서기
##관광
4월에
탄압
##감이
ag
장비
##타마
서구
##대신
경기가
04
필수
##판은
문제에
강남
권리를
##호선의
##즈가
하여금
공주
5월에
참조
청주
파키스탄
올림픽에
부르기도
정부에
군사를
완벽
이어지는
하기도
북극
##고의
파트
##되게
드래
미리
참가한
극장
매장
##형에
근육
이외의
신도
그려져
폭탄
마주
방영된
몸을
##서와
##자동차
##우를
공개된
능력
음반은
섬식
충분히
곡을
태조
폴리
##달러
다음의
경남
창작
권리
그들을
사도
프로그래
도덕
생태
##당으로
음반이다
최근에는
강을
진격
질량
시인
배포
정체
아래와
원인이
혼인
이용할
1세의
##호와
전동차
콜롬
##유를
##제르
브라운
##활동을
김성
##다의
만한
##중이다
교차
연안
포함된다
개척
유통
성공을
발언
서서
##아는
2019
7월에
##로서는
오카
구성된다
하와
sa
디스
대상이
##중인
대부분을
서술
크레
##재가
원시
##린의
마크
마감
돌아온
되기
##디움
명칭으로
성경
확산
##파와
##실이
1921년
영토를
세부
개량
꾸준
대동
루이스
나왔
팔레
들면
##ment
상관
##차의
거짓
1925년
cr
##아이
##ath
시가
속도
##친다
성공했다
종이
좋지
기본적으로
mv
이즈
단순한
모터
차단
순간
문제는
방법은
2회
##목으로
남아메리카
소프트웨
본격적으로
폐지되었다
앞으로
##양이
지불
쿠바
지대
##환을
##폴리스
##렬한
단순히
놓여
보이지
이날
주력
##되어야
작동
##하를
바르셀로나
##제도
아티
사우스
일종의
##율이
루마니아
내가
부동
##00만
1922년
착용
##레는
1931년
붙어
식품
현상
##조건
##지니아
카라
##50
##ton
##실로
##경기에서
상태를
내놓
발간
아메리칸
손을
##iss
유력
좁은
146
km2이다
시사
##hn
행정구역이다
##해에
##독립
리그의
##슬링
사람이다
##ary
11월에
아버지가
서일본
자원
직원
##과정
연료
##노스
ep
교회의
##살이
최우수
이상을
##지마
약탈
집에
대칭
##지면
##ica
2세의
신의
##열을
lov
곤충
검색
작사
정식으로
##ick
책을
##기지
##법인
비트
농촌
사다
동굴
시조
##나카
##군에게
끝으로
비공
진학
##조차
1923년
##주의자
##름은
본질
##기구
##했었다
작곡가
광범위
포트
##클리
3번
부드
입은
##투아
08
부속
나뉘어
81
명으로
박쥐
##로에
세계대전
영국에서
편의
##드리아
##느냐
정도이다
각본
했는데
##되거나
##평을
백성
타임
불가리아
물려
의정부
입장
##소설
##크래프트
계속해서
산하
##하기를
고급
웨일
##하시
##무장
보편
1929년
소속의
이세
##ies
가설
영조
알레
##등급
게임이다
캐나다의
세월
영화제
라이온
베네치아
사회의
유적
할아버
##시장
오이
일원
##에선
##개로
##비시
##본부
말로
##어버
모바일
사항
##정치
사람들에게
개념을
유나이티드
섬에
하나가
건물은
원인
##는지
참여한
위치에
보여주는
배경으로
##됨에
본다
서북
대다
본토
공연을
프로듀서
본선에
적도
중성
화폐
멀티
일련의
##기이다
##면과
##씨를
##하기에
계곡
죽자
상주
171
경유
땅을
##ca
시작했고
1억
감시
우리는
##토리
주변의
안내
주된
리그에서
2020
가난
##어에서
##란색
초기에는
영향으로
주장하는
new
전문가
##스트라
부르고
##도서
##보호
보냈
메모리
##힌다
미국으로
병원
여성의
접속
17세기
방언
신화
그리스의
사랑을
먹는다
오는
##론에
##침을
실시된
자랑
##체이다
어두
흑인
입력
##land
##리안
지칭
구원
후퇴
##니스탄
일본은
정치인
성질
열리는
##미니
전형적인
op
개장
군대
##ma
특별히
you
마음을
사립
해설
모양으로
리처드
거리에
클레
이어서
보험
소화
용인
죽음을
칠레
##령의
##현은
복음
새벽
황제의
##계와
##시대에
웹사이트
##특별자치
##민의
000명
우에
토벌
##마가
4대
30분
등장인
로서
봉해졌다
##무네
세워진
수호
창당
##치기
##비트
혈액
##48
목숨
집안
##라면
##즈를
6개월
삼았다
mo
토착
##북도의
정통
커다란
손자
실천
참고
##sh
##치오
출연했다
고가
레닌
프랭
해협
그녀가
부상으로
포유
101
1926년
이념
1917년
자가
재산
데뷔했다
정확히
가속
축소
강수
자매
##호쿠
##세한
el
기도
후보가
현급
2군
승부
정수
##학은
1927년
pa
순서
이외에도
9년
예전
재능
변호사
패션
##테이
##국과
5개의
mon
상하
##로지
dvd
가상
지었다
##도니아
##집합
피터
매주
세력이
첫째
##30
##크와
##타가
2007
149
##슬로
##향을
지역이
도쿄도
##이게
고객
요미
##에서부터
주재
##대장
블록
용어는
당사
후에도
처음에
인구의
##조판서
태종
허락
##미아
필라
##ass
91
공기
메달
서명
##ence
참가하였다
ge
##판에
##청은
가끔
##신문
엘리자
올라가
영화의
삶을
맺었다
개인의
남녀
##토미
플로리다
세리에
요금
##점과
##한의
국정
하던
유전자
준결승
전북
##레인
일단
담고
서쪽으로는
영역
호흡
##내의
##프랑
맺고
획득하였다
수직
쓰러
##슬라
대한제국
기반을
모노
##같이
##받침
소요
##리브
##age
콜롬비아
게르
본명은
##석으로
##졌으나
나이에
뜻이다
집을
##티움
사건의
스웨덴의
구로
국토
막기
엑스
재생
##ern
카자
##나마
상태가
일상
구사
전남
혼자
##행이
##함은
일으킨
동치
서방
인상
접하고
##co
위대한
콜로
##대문
##학에
동쪽으로는
남쪽으로는
실수
##체인
사건에
획득했다
명단에
##령으로
스탈
##리언
##바키아
신고
크라
타율
인기가
곳은
입사
##이면
07
상무
##모의
반대하는
보스턴
인도의
##작으로
하사
##중이
kg
##아르
1세는
프라이
주변에
##폴리
반응을
한화
##배를
골드
##았지만
169
행위를
경향이
순위
##카의
대학교의
2위
강하게
재료
##pl
아르메
##ivers
적극적으로
영양
잡고
##장애
1907년
종로
강요
노무
마그
몬테
##하에서
우라
147
감독은
공원
##그램
보르
하인
흰색
##tt
많았다
크기는
##권과
##까지도
갖게
이하의
##절을
##심이
방송을
치렀다
이어져
않기
열었다
전화
허가
##니와
1912년
박정희
화가
##당하고
보이고
아틀
운송
##였는데
경전
파크
##프와
05
로맨
포켓
하천
알고리즘
##치와
살아남
이은
##로미터
##가능
##식에서
가치를
센트
이재
##시스트
##ase
문화재자료
억제
힘들
아들이다
교수로
동반
역의
스크린
##속의
압축
집필
부처
선형
탄소
15일에
제12
사형
압도
초청
##코의
##우스는
##각형
##지방법원
##결을
##족을
모습이
위키
1월에
지방에
국경을
모래
현상을
상호작용
대서양
소스
물이
부유
코믹
고시
독재
가시
무대
##민족행위
수반
##갔고
지정되어
기하
시게
##더스
제13
크기의
이벤
크기가
또다른
실내
##성에서
서식한다
사유
소리
해병
##코는
comp
중종
8개
차지한다
##았는데
##단에서
결승전에서
주식회사
분데스
##류로
그러므로
수백
##어에
넘겨
지향
##의가
##물과
사이를
1905년
폭력
##이상
살았다
##종합
시절에
맨체스터
밀라노
북쪽으로는
캠퍼
##한다면
말라
세우고
생기
회색
수를
이적했다
지바
미국인
소득
##청의
있다가
지역에서는
비판을
보살
계층
그만
범주
쇼와
칼리
##보기
고고
공개되었다
석사
##집을
게임의
입단하였다
분데스리가
##슬라비아
##프라
mm
전체를
em
되기도
사제
크루
##ula
##ond
도시는
영향력을
공간을
고안
우익
##류에
##유산
설치되었다
인천광역시
심장
않았지만
스트라이
양산
##하라는
감옥
과도
##관계를
##오고
##식이다
##페르
2번째
옮겼다
사촌
##나게
##레나
발표된
데이터를
스티븐
커버
##오로
로렌
북미
##훈련
쇠퇴
##보병
사람들
실제로는
##문과
1908년
분포한다
안드로이드
무인
반면에
산악
외계
##되던
미국에
발휘
탑승
관해
조기
##ier
도중에
사로
##용의
역사는
내는
##스컵
전해진다
##마뱀
135
모임
시모
주어진
총선에서
스타디움
유입
7개
앤드
없지만
##당에서
옛날
##건의
141
관계에
발전을
참모
##머리
동경
마틴
보이며
##ish
지내고
상의
##ee
구간은
미분
소규모
예방
기용
병력을
트윈
##렀고
이끌어
불리며
오페라
유튜
##위원회가
손에
역이
한반도
명시
성의
##안전
공룡
대학의
##운동을
학사
현대의
1개의
성벽
찬성
황태
석방
##브로
2월에
되었는데
박물관
들은
국가가
고리
##르를
역사가
비롯해
명칭이
안토니
와서
한신
호주
##치며
상태에
##종이다
사이트
교향
방위
##해지고
##교도
##마루
일어난다
이곳에
##정도
나타난
데뷔전을
빨간
##모는
멜로
길이가
##프란
1일부터
지나지
남겨
오버
##브를
알렉산더
mvp
일곱
##단이다
예산
유발
촉진
코너
글로벌
등도
왕위
주와
##클레
##밀한
144
유대인
이글
##스팅
포함된
교사
대화
먹는
기구
코스
2의
방면
후기의
##나고
##마에
중국에서
감사
좌익
무산
주거
중시
##자유
##비행
##러는
173
만들기
이미지
인물로
발명
적어도
하느
행복
돌아왔다
졸업한
곳을
예로
1906년
타원
그럼
대승
버지니아
싱가포르
##르바
##게이
06
하노
##ai
##학과를
대변
##다시
##카미
##mm이다
당선되었다
심지어
무관
민중
##통합
그녀를
김해
특허
##보로
참가하여
차지하였다
겨우
오케
##슨이
권한을
단행
중지
예외
클리
상황에
신분
일대
##법과
설립한
곧바로
##원숭
관계는
데려
이론을
셋째
정권을
하다가
##말로
##나라는
구간이
심사
의거
##소수
아동
중에서도
호남
01
음성
유고슬라비아
전술
##비와
##ft
거대
##여래
143
붙잡
성격을
##토는
이명
회사의
##즈니
전체적으로
대지
도메
빌보드
이행
토너
이용하는
발표되었다
다루는
유인
광역
입대
입문
철저
##담을
졸업했다
적응
##용을
모로
아울
##타와
없었고
시대에는
기능이
들여
아리
기동
죽고
##자였던
##츠는
##등이
148
정부를
##류와
##보다도
발생한다
03
동서
성과를
자체가
##노미야
일본인
안양
##한국
##칸센
작품의
히트
서식지
법적
수감
##우라
수준의
파생
##연의
##란다
중립
탐험
말해
##우스의
제11
운동에
파울
선호
영국과
4강
무리
##우옌
추대
후의
##보이
##보험
##양군
이어졌다
대선
소리를
바이러스
아무런
##우고
##000
##주의와
주목을
가야
그라
##애나
2만
##리티
##하면서도
바람에
아래의
##ix
##병으로
아마추어
##our
급격
마치고
##차에
##베리
거리를
익스
##se
빅토리아
입었다
전의
자신은
규모가
에너지를
영화를
은퇴한
거친
금강
부통령
##tion
##크스
ab
지원하는
폭격
의미가
1부
알리
##구조
##계열
##릭스
차지하는
막부
##환경
##대상
천체
138
마쓰다
##세와
천황의
우리가
##적이며
의미로
마라
메트로
중동
##카드
##편의
블라디
콩고
합동
인근에
주니어
의견을
판타
##이치
유용
작전을
추락
##마저
125
상황이
12년
독점
별로
크림
걸려
##년에
##청이
##olog
1층
마오
삼아
유아
가수이다
비정
영원
##쳤고
##ite
받으며
야스
전임
##카는
습격
운항
다음으로
잠재
주요한
이르기까지
티베트
겸임
##졌을
것인
내륙
##루미
##디는
지역이다
항구
구성원
모양을
레인
##지기도
##졌던
전승
비잔티움
되찾
노선이
두려워
못하게
신칸센
본선의
부탁
테오
고베
납치
뜻으로
색깔
흐르는
기본적인
코치로
비로
소위
유키
지질
##나라를
6개의
##0km
love
대원
##ium
타이틀을
우루
신사
원하는
지표
체험
##되었다는
도시를
약간의
운반
중심지
날개
마카
##ve
동아시아
##베이스
##국인
##성도
1900년
라이벌
발족
장갑
극복
승차
주파
##판의
##피를
##생활을
맞추
실업
영혼
이복
정류
##탄을
부분에
02
##ms
메탈
점성
주어졌다
##교는
위치하며
공무원
책봉
univers
qu
공정
레이다
##사람
##문관
밖으로
##현을
바가
방송된
##연구소
하버
모습으로
활약하였다
일본어
##주의는
배열
##총리
과거에
기여했다
남한
가쓰
사람으로
대해서도
페이스
##지구
##int
142
비틀
##자나
103
경계를
그들
라운드
##대사
##실의
관광객
간섭
설이
##족과
##이라면
##졌는데
서울시
선거에
30년
4번
퍼시
##현이
황후
동지
성종
10만
2대
창간
긴급
마법
없었던
미국이
관하여
정벌
털이
##시스템
아직도
전향
있어야
mc
오염
호수
간접
내지
장례
전작
진출에
연락
증언
##파에
##령은
##졌지만
이루어진다
콘텐츠
##끼리
이곳에서
되었으나
eu
뒤로
후한
원형
클로
##교가
않았으며
2세가
di
고지
올린
##실에서
스트럼
조선총독부
기부
주제
##령에
##투표
도움이
레지
책은
최상
트라
##률이
변화가
한강
pe
꺾고
수천
쓴다
##편성
##아웃
##하였을
유물
준공
현의
사령관
수밖에
특급
##gr
되었다고
풍부한
웨이
##공간
##바다
수록되어
북쪽에
정조
당의
망원
무늬
평론
##산에서
2006
사용하지
당해
구마
##의원
서남
전원
##문으로
의도
항해
##미술
##청년
1904년
옆에
활동한
형성된
주도는
동맹을
15년
번뇌
선두
휴대
대회는
cor
보기
아케
청동
##오가
##습을
##광역시의
친선
105
136
근로
시마
결과로
##리케이션
르네
##ah
137
제15
친일반
별도로
보좌
퍼져
##자들과
벌였다
일본에서는
종교적
놀라
##포스
지역과
효과가
##토가
##필드
mus
발렌
제네
담은
레전
말은
명성을
배급
제도의
개발을
열차는
못했고
##츠의
임신
유럽에서
안드
##rom
꾸준히
서독
##자였다
##나를
초상
##전자
##마쓰
경기장
에스파
거둔
##본은
##럼비아
일본이
기온은
##래의
개성
고교
##르와
##노는
대회를
공동으로
달의
##즈와
인물이다
매각
미시
제17
per
눈을
발효
시달
##팀인
##든지
ip
부장
뿐이다
##권으로
##센트
##영이
나라를
아르메니아
인류
fre
마시
인증
간에
동시
막을
ser
덕분에
와카
##플로
지원한다
기재
문화적
루트비히
동영
막아
스리
방법이
사양
원로
##테쓰
##활동
10개
##액을
불리기도
발매한
자전거
몸무게는
포켓몬
성균
엔진을
지배를
친일반민족행위
그레고
두드
##기능
발생하였다
항공기
##au
##긴다
우승에
##aw
##브레
들어간
정의할
호환
##자이자
사과
착공
피렌
##노의
##니에
##수도
##프스
##되었기
##ction
카메라
##안군
##페이지
연고로
이종
조약을
결심
다큐
두산
바위
영주
지연
시간에
분산
방향을
대만
대단
들이
벨라
아프가
2위를
고립
오리지
입단했다
사적
지어진
##구역
##실한
##올린
##주의에
카페
127
필요로
고통
##보의
스타크래프트
경북
군대가
목숨을
게시
오클
이정
##률을
스마트폰
모험
반사
이수
##루살
##고에
않았던
##들인
출전했다
개업
정원
##to
밀접
신장
얻게
이야기가
마음작용
구름
원산
추적
프로그래밍
브레이
##보통
##초의
##발전
뒤인
역과
1911년
못한다
빌딩
성과
##세기의
##황후
아프가니스탄
해군의
##마리
##돌프
하우스
세계를
1950년대
발생했다
##로써
##위대
##터와
때문이었다
한국인
맡았으며
삭제
##율은
구조의
전체의
노르웨
##루살렘
그랜드
##식물
공식적인
등이다
초래
파티
플루
##에게도
잃고
##체에서
##소송
##공의
128
world
마산
여의
리투아
##천의
##우에
우리나라
비스
테마
##화하는
들어와
현존하는
낳았다
목포
미네
무선
신하
심한
이지
졸업하였다
1896년
이외에
아울러
##상으로는
한국에서는
대학에서
유지하고
말하며
순수
적색
향을
##홈런
히어로
##둥이
내용의
이르고
파트너
##로동
##속으로
문화의
닌텐
역전
##les
오키나와
대로
비가
##방이
##팀이
상태이다
등장한
디젤
남양
##니스트
2004
통칭
대회이다
공전
중이던
중화인민공화국의
총재
페루
경력을
당했다
많고
없기
해제
john
nhk
급행
남쪽에
##롤라
남아있다
최근에
일로
나가사키
법원
##모델
소속되어
계획이
아우구
깊이
모음
집에서
마르크스
##프란시스코
동메달을
사이클
가라
자손
##병이
##석에
##함으로
적절한
계기가
돌파
##급의
20일에
계획은
##티스
##드르
##amp
##현에
관객
전망
원래의
재단
##도사
##정적인
활약하고
들었다
마스터
##건설
아니고
카이사
종전
특성을
합리
제14
마케도니아
연설
모델로
오리지널
스톤
응우옌
쪽으로
피고
사진을
세로
압박
플라스
##파이
호르
##방에
3위
연루
정도가
##오와
발레
시를
온도
공직
##보가
##번호
강점기
안의
중앙에
##oph
군을
빛을
##사기
훈련을
라틴어
공민
어릴
센트럴
아베
##편을
세계에
##레이드
발견되는
##분은
##민당
도호쿠
##지사
##경기를
##토를
개최되었다
그럼에도
왕립
피난
##슬림
250
문화를
1세가
gen
##데이트
##ism
##위원회는
미얀
일원으로
입증
##심의
바이러
드래곤
fl
공립
창건
##패로
확인할
예루살렘
##하겠다고
##인명
자료를
##수엘
30일에
브라질의
pla
주에서
추증
##저스
25일에
2루
막대한
선제
클라우
##경으로
##랑이
모시
##수산
제공하고
크로스
베이스볼
사우디아
극단
샌프란시스코
##전한
##보면
국가를
착륙
##트롤
존재를
2005
그리스도
모집
##hz
아이스
운동의
네덜란드의
##ost
마이너
벗어
오렌
용어
홀로
##발의
100m
아들을
중기의
##말을
##온의
계열의
군대는
##터로
1909년
데리고
일환으로
##등한
거기
기록하고
담당하는
인터뷰에서
gre
리그에
gu
스승
##즈키
이치
인텔
혁신
dr
##테스
빨리
제휴
##전투
3번째
강이
대주교
양식
##글라
결승전
사우디아라비아
은메달을
3d
버리고
차남
##판으로
제16
지중해
필라델
##차원
##성이다
때마다
특수한
##m이다
##son
##법인이다
##우치
결정했다
제국이
백인
유성
현종
##이었는데
16세기
분광
커뮤니티
##시켰고
##관찰
##후에
사로잡
사기
없으나
활동이
물리학
##으려
끝났다
여동생
11년
es
끝이
##트랙
복구
있으면
협상
##14
약한
##환의
##하러
전투가
고조
복수
##고한
하와이
월간
시작했으며
all
목록이다
단종
##해는
아웃
여왕
가미
고도
후지와
##자책
길고
성씨
연계
##진흥
##단계
활동에
레전드
13년
아비
애국
이오
##가루
##토스
##등록
무슬림
##토시
##업이
기념물
클래식
곳이
귀환
의장
##스톤
##항은
아니며
돌아오
브라우
##꼬리
sf
영광
해적
일부로
임명되어
공략
가능성을
결과적으로
자유를
애플리케이션
마쓰다이라
문재
적대
##고자
##제품
라이프
매니
빌헬
##anc
관심이
야생
점은
측은
##병원
##마자
##13
##였다고
##ame
##기관이다
독자적인
금메달
적의
##카스
##스테이션
다룬
##리시
##해진다
항공모
##ime
성질을
안쪽
옹호
설치류의
나선
##석과
##곡은
1915년
액체
왕위를
##실록
국가에서
최종적으로
푸른
##ere
머리를
박탈
장성
##학회
##ga
역사적으로
면역
##사지
왕으로
자리에서
최신
위기에
일본군
만난
것이고
간단한
호칭
추가되었다
전통적으로
적을
##메르
##민이
성공적으로
다큐멘
내장
못해
용산
중력
급진
메르
##변을
사이에는
아니었다
레벨
머무
보잉
트럼
곳곳
때도
범위
업데이트
이토
바꾸었다
이익을
가득
교섭
냈다
안타
##니를
##니치
##왔고
2부
모순
##나르
##론과
플레
##ric
2008년에
에스토
지냈으며
건담
무력
스틸
싱어
축제
퇴각
했다고
프랑스는
일찍이
##바시
11일에
des
과의
브로
##ale
결혼을
리드
승강장은
후반에
거슬러
그동안
차이를
힘이
##이즈
##있고
##ance
2007년에
대구광역시
코리아
##온다
결과가
규정하고
가능하며
아파트
##반을
제19
intern
테크
당한
불렀
않도록
의원이
중구
쿠르
운행하는
프리미어리그
카자흐
실패했다
라트
발전에
##청을
베네수엘
어두운
cent
보인
##ina
친일인명
변신
없애
자격을
##ep
2004년에
공무
성은
##하르트
##회로
분리되어
전세계
필립
무신
레이블
아가
##케이팅
무료
불만을
해임
##ann
뒤에는
타입
##지붕
##ous
##라미
119
김영삼
힌두
시작해
관련하여
출토
##과이
10일에
결과는
분야의
나의
말하고
##자리에
##18
108
바티
신라의
관통
저택
토마스
형태가
인간이
이듬해인
공용
내부의
##ke
##규칙
nba
명종
모르
전투는
요구하는
라며
미토
세균
에우
##실에
배제
트럭
전투에
충분한
개념은
거주하는
##시즌을
ng
줄여서
1913년
##형과
##들과의
과학적
친척
##공학
##자이너
기호
반지
타워
항일
##본이
지지하는
##있으며
케이블
정찰
직무
##대원
##비디오
##ata
프랑스에서
2005년에
3개월
비서
##시피
##코프
세계적인
목적은
왕족
##구리
##온이
##겼고
2006년에
##바의
동남아시아
##음에
##연한
처럼
패러
##사이드
##하라고
다이아
번호
오세
체제를
##면서도
경험을
아나운
프로토콜
화려한
보한다
출현
##dp
##널드
결정을
과학자
##ron
##ult
늘어나
병력
##인들에게
##군에서
제2대
후보를
세조
술탄
찾는
##명인
102
포인트
화재
##안타
작품이
학교를
두번째
스카이
외의
조용
제국은
프레임
남부의
동구
현상이
##ile
##등에
##편이
##된다는
000명의
떠난
##바나
음반을
##사추
##내에서
##금이
이승만
유튜브
대우
투어
폐기
##리크
무효
부흥
손상
전두
##직에
주장이
대신에
사장
섭취
외야
커피
때때
양도
유소년
재즈
친정
1895년
공채
서경
언어로
한양
##강점
생각을
근처의
감각
둥근
몰락
시라
첫번째
##란을
##격이
비공식
우수한
캄보
##그로
제18
##카르
착수
평생
##투쟁
gro
미치는
유신
##렸던
##유로
지명을
gl
방식의
선수이자
기록에
직접적인
노선은
14년
동독
유니버
서서히
법무
베타
죽이고
황제가
##안으로
회의에서
##트리올
랭킹
전성
방영되었다
별칭
26일에
전염
찾을
##old
수신
장편
##fl
재발
짓고
##증이
##받지
사고로
열어
트위
##출을
##팩트
군사적
본격적인
메디
배정
채로
##률은
##bert
염색
작고
기생
법학
석탄
##님이
사람에게
덴마크의
각기
내내
자식
죽을
##림을
내야
맞게
배를
##주인
악화
야기
의병
27일에
dis
물에
아즈
주말
함유
양키
향년
얼마나
캘리포니아주
시기의
##반의
포함해
퍼시픽
구상
앨런
프랜
##yl
살던
##야는
##복지
세워졌다
sl
밖의
밝히
별의
상임
하얀
##공이
사용자가
원자력
동기
마친
반환
##조약
22일에
인정받아
station
그리스어
kn
진나라
##일리
##드라마
일제강점
성립한다
뿌리
우즈
피부
##다니
##산맥
##카타
##플러
비슷하다
공간의
대결
몬트리올
무소
사직
편지를
능력이
따르는
##작을
##목의
드라마이다
낙선
패턴
기록하여
돌아갔다
이곳은
박근
선진
##교로
사용을
부르며
근거로
잘못된
cla
도심
땅에
리가
윤치
통화
##합니다
사용이
##사령부
의지
##미와
달린
득점을
수단
순조
일조
##세츠
##항으로
어렵다
상영
##철도의
누르고
##스와의
##고속
발견했다
운행을
900
##과로
##금은
연방의
명예의
두드러
건의
##색이
fm
고성
이마
진술
측근
##cd
##페이스
사무실은
보여주고
경고
러브
오디션
토머스
##고쿠
##17
##됐고
엔터테인먼
때때로
가질
그랑
펜실
16일에
구체적으로
간다
시로
전당
##치면서
##편에
대조
일명
##하니
##교회의
사용하며
역임한
때로는
산타
속도로
취약
##천을
##우며
소속이다
##건은
112
관계로
기술이
밴드의
언어를
히가시
##아를
##측의
##층에
1916년
후보에
분류된다
부착
사상을
섬을
유닛
전한다
28일에
비단
지점에
한동안
##켰다
들어가는
지방에서
진출하였다
구체적인
김동
##스에게
##형이다
군수
17일에
개발된
구조는
100만
스파르타
닛폰
속도를
##ain
아티스트
필라델피아
비례대표
활성화
조사를
로부터
전에는
##중은
13일에
선거를
가즈
값을
삼고
400m
가해
제수
##시절
##후보
잎은
##였기
##클린
사용해
기요
일본으로
##stem
만화가
미하
##질로
건너가
백악
브라이언
승리로
흔들
##붙여
부패
##디의
코로나19
구릉
타운
##전기
경우를
운동이
##ose
싱글이다
좌파
##업에
프랑스어
영국은
중심기압
fe
##쥐과에
##소한
##초에
##건이
관리하고
명문
##신과
##tr
117
하나를
갑작
강과
사헌
상원
차트에서
아래로
폴란드의
요미우리
교과
목격
보충
행성의
맡게
실종
주축
##악의
소재로
디자이너
##성한
##타케
크리스티
다루고
가지게
제20
선언했다
군은
근접
맞는
서머
팽창
##금으로
게재
##색은
원작으로
무라
정교회
평행
##하가
##ome
북한의
특이한
1선의
감정
고분
진출했다
팔레스타
무려
##중심
시간은
이리
후쿠시마
남긴
또다시
미스
왕비
제갈
##위원회의
은퇴를
##스포츠
쇼군
저널
페이지
##아나
##바야
정부로부터
다가
초창
있다면
cpu
av
내외
시스템의
뜻의
사르
작위를
좋다
##바는
된다는
잠수함
ec
기갑
하거나
형식을
##임은
##민은
##범죄
제외하고는
이순
일요일
연구소
발견한
대폭
대외
어항
예언
##tc
남부에
이인
폐위
##점이다
##란트
국가대표팀의
도서관
##게이머
가다
북부에
진단
##금의
가능하게
위협을
3만
진영
##tor
##직한
그러자
14일에
##학자인
하였는데
시설이
박영
얻는
민주주의
급속
이영
화면
##회와
서울에서
도구
등재
제약
형식의
##팀은
연구는
민속
수수
에티오
유격
합법
##화학
##용이
##형태
2000년대
연구하는
두루
서쪽에
풀려
##ha
##누리
연구가
보스니아
외무
21일에
지목
##통일
프랑스와
레이저
##문제연구
그중
일했다
##장관
12일에
마찰
사육
사격
주문
##ius
교외
##진과
##러리
알려지지
지금도
뮤직비디오
낮아
맡았고
메리
시기는
학자
##티는
로빈
팀에
106
우승하였다
따뜻
보상
##대회에서
##네스코
트레이드
동래
시대를
이원
죄를
10대
레코드
5일에
조치
복사
안티
전부터
점유
포로
화살
##40
##텔레
그림을
차례로
교차로
외곽
##애를
건물을
소관의
안장
카탈
공사가
관장
##군사
조치를
전쟁은
다녀
생기는
시칠
정면
침몰
##스피
버전은
지어졌다
##코가
##그래
no
소실
오고
건물의
박근혜
do
말할
아벨
##란이
제목으로
3일에
kia
교도
메모
##렸을
##번뇌
시작되어
모니
목적을
충격
##린이
영화로
건물이
기타리스트
met
##조와
##곡이
##uth
마케팅
이처럼
##직에서
경부
확인되었다
라트비아
사료
##중국
##된다고
##사추세츠
##적이었다
출전해
말한
방식은
##았을
##수수
123
알라
오디오
전역
투르크
한쪽
##다리
사용하기
준우승을
dj
거리가
수평
침해
피에
에스파냐
앞면
편리
보내는
엘리자베스
번식
##터에
118
빌헬름
1호
관점에서
면에서
판타지
6일에
주립
##소스
3루
나이지
메가
무거운
선을
신용
이바
스토리
##석탑
아미노
음악가
참가하고
들을
무죄
실용
쌓아
##류이다
##레의
##메라
아이슬
일으키는
주한
시스템은
전진
기지
작센
프로게이머
전쟁으로
않는다는
##oci
정확하게
##마치
기업의
##수사
제작되었다
발원
##0명
##der
##량으로
중순
##az
23일에
신설되었다
동년
부문에
얻기
재산을
##사상
##너는
##하였다가
스파이
콘서트
가도
풀어
##생으로
##병의
독일에서
정부와
##기관으로
bar
거제
약화
판결을
리듬
받기도
법을
어드
18일에
##ank
2000년에
##우주연
ak
ds
거기에
동화
줄기
통근
##한을
##yn
순천
군단
서식하는
##리자
##타나
##클럽
구조로
res
눈이
설탕
오가
충족
##론적
이에야
조건으로
새겨져
3회
나이트
동쪽에
목조
신흥
요소를
파운드
##타리오
발생할
자유롭게
##리면서
이루었다
부과
##pr
##우와
미나미
vs
오스트리아의
리비아
심판
왕자
##파크
##동에서
특징은
공화당
##롤라이나
시호를
##런스
##연이
되었지만
##의에
##석기
무대에
삶의
##ics
격퇴
총대
##me
##해방
##학위를
중심의
엘리베이
물고
##디에
노비
115
아니면
대학원
통일신
상징하는
3칸
5대
사인
용이
##나미
엔터테인먼트
리투아니아
1명
fo
산소
시즈
에릭
주제로
##내기
200m
system
부품
창시
##제국의
생각된다
시드니
가벼
수렴
종으로
특유의
##모니
생각했다
이론은
오렌지
서해
유네스코
##심한
일어났
형태는
남아있는
연속으로
er
감지
몰려
일관
클린
토대로
##받는다
##됐으며
프로야구
감독이다
##소리
끝나고
규제
기체
대법원
목사
우리의
평면
##하였기
126
아이슬란드
##스부르크
##열대
##있던
##라이터
출시된
7일에
둘은
##레를
설립하였다
제조업
ob
중심이
##바이잔
##수아
cod
그룹의
잃은
##억원
좋아하는
하버드
bbc
pd
개원
요르
점이다
##오리
게임은
3학년
미주
포괄
##바닥
##유키
차지한
정책에
자본주의
치열
##과도
브래
팀인
이스트
전선
최저
##림픽
일어날
2009년에
않았기
거느리고
발라
스릴
스페셜
과거의
섬유
장르
핵무
##져서
문화체육
##제르바이잔
남해
흐름
##ley
사실은
플레이어
앨범을
세대
조반
집으로
##닉스
24일에
성공적인
둘러싸고
아세
자를
초점을
황해도
##att
활약한
편입되었다
경사
귀중한
여신
##조정
##전도
한국방송
공동체
8일에
ce
대답
입자
##희는
평균자책
의견이
nc
관습
말기
며칠
아폴
임기
총선거
##분야
##프에
민주화
chr
공의
링컨
시집
##션을
각본을
국소
원자로
중계
채무
세미
##란의
건물로
민족문제연구
일어나자
달러를
영감을
##검찰
못할
직선
치료를
크리스토
무용
##대학원
신생
피어
##글로
경기에서는
시즌에는
2003년에
진정한
현장
##초를
##매치
##여객
##간이
##각이
대통령을
성공한
성모
회사는
##차별
시절에는
구리
비즈
우연히
위안
통행
##현악
프로그램의
조직을
공사를
미치
투구
##질은
군에
자바
국가에
설립했다
나라에서
결혼했다
찾아가
본사는
동물의
받침
이틀
조상
##화하여
12개
##티에
아이를
##돌이
수록된
id
rec
넣었다
출력
##고도
네이션
자발
종의
##스테르
wwe
막내
증기
##니까
##미사일
##투를
애틀
응답
첨가
##불교
우라늄
파리에서
##스러
##장한
디비전
키프로
##백을
##금융
##열이
영의
예능
##hpa
##숙한
실험을
hy
불을
컨트롤
##소이다
##설이
29일에
비슷하게
받았으나
아제르바이잔
양식을
재활
중도
##계승
과정은
계절
스핀
##지대
라우
##스트는
스테이지
공학
내고
쓰인
원내
트라이
향한
구조가
성균관
ass
날아
만의
주를
진동
104
한국에
친일인명사전
강경
나이가
색을
종은
##당하였다
##즈에
char
가마쿠라
북부의
합계
##시타
##이사
2003
3위를
매사추세츠
##일과
##목이
행정구역
3가지
가사
갈아
김용
분배
토마
113
전체가
유니폼
하인리히
고무
베토
전례
4일에
##네의
차가
##오를
##모로
한국전쟁
지정하여
수행하는
글리
끊임
끌려
봉사
부른
되었을
바실
알코
의사를
##미디어
독일은
일시적으로
관중
대회의
참고로
##미에
1930년대
프로그램은
2002년에
중추원
게오
창업
프로리그
하나이며
과학기술
기상청
거리는
날짜
볼리
칭호를
##포는
대관
속도가
의회는
정사
109
평소
르네상
문재인
2일에
길게
사천
쫓겨
후일
##해주
##하였다는
모두가
다중
##래스카
조선로동
라이선
오스트레일리아의
수치
##츠와
달러의
af
##카라
##세스
##히로
소유하고
다리를
부대를
의원은
있어서는
kore
내린
다항
왕은
케네
2010년에
경상남도의
선교사
흥행
##진에
##보에
##너스
4세
채권
해인
##화하고
##are
언제나
밀양
##재의
장의
자신에게
전자기
총괄
133
두어
일도
필름
##트르
활약했다
자리잡고
2학년
두개
##서이다
##견을
베토벤
신속
일는
##론에서
미국에서는
선수이며
다음에
써서
##중에서
##ls
##편으로
디아
병행
##디스
5천
9개
경비
기리기
쓰이고
##작가
정치가
히데요
김대중
싱어송
야간
##려서
124
조선인
동명의
서브
소수의
청와
##자스
##생이
##수인
시즌의
명백
연호
환원
##자원
##중에는
##디가
이상으로
##라이트
아사히
김포
빛의
추상
##자리를
##200
##음은
플레이스테이션
마을을
##주년을
석조
##주일
##바흐
사건이다
위기
차기
탈환
##기획
대학을
시절부터
멤버로
스릴러
1천
9일에
나갔다
놓았다
마루
고려의
조건이
하야
지구에서
어려움을
conc
7개의
강제로
대피
빌리
장로
증손
##런트
성공하였다
고발
부천
식량
##가스
들어오
바이올린
아버지와
급격히
것에서
##ool
##선이다
##풍을
인정하지
광범위한
구미
김태
성당
주차
대전광역시
그렇지
극히
이슈
이끈
##일체
##be
작품에
her
거행
석가
여론
진급
##카를
##몬드
##oth
bla
mac
놓은
##속을
제주도
시켜
옷을
추모
##공동
132
존재했던
##ign
중간에
자세한
영동
음식을
##a는
##주쿠
##버스터
불교의
실질적인
간부
깨달
연꽃
영역을
지혜
##진으로
up
개관
매달
평범
##그리
지정된
단단
유출
포인
##sk
공로로
전인
##서에서
##때문에
기록된
나타낼
선거구이다
마을의
월드컵에서
거주하고
디즈니
##아프리카
조선인민
1894년
미스터
추격
##도이다
##생산
배치되어
##원들이
##dr
##곡으로
##셰비
지방을
방법이다
##음의
##각의
university
문화체육관광
속으로
##인조
##적에
도카이
섬으로
시작된다
학생들이
움직이는
보전
보니
코트
##해지는
##포가
fc로
비오
열고
##자도
##이었기
음반의
개혁을
말기의
복지
오하이
##기준
주장하고
제외하면
중의원
1에
미사
진도
최하
##곡의
마리오
별다른
##시에는
##리타
##티모
존재하며
펜실베이
그다
모드
선종
19일에
아니지만
분야에
본명
비극
아리스
##목은
되었다가
1500
도주
융합
##경과
##회장
개발에
기간에
여기에는
홈페이지
##산면
고쳐
부대는
얻는다
제사
##르며
##정당
##행은
##층이
선수를
않았으나
아마도
노무현
will
네이버
곡의
질량은
##왔으며
사카
##척의
방송국
추정되는
승리한
가난한
16년
나아
부수
입체
##예프
107
수도인
승격되었다
쇼핑
시그
연결된
도움으로
마천
밑에서
영문
증권
회담
##밀리
##학교에
사이가
고양이
촉구
##시까지
##재는
##용은
제1회
출전하였다
관리하는
목록은
승인을
영남
토요일
##제프
시나리오
리버풀
속하며
시초
해를
##대교
##커스
시즌이
듯한
쉬운
체계를
##라리
##정부의
독일어
강수량은
로도
피에르
허리케
북쪽의
먹고
새누리
##받을
무승
의회의
종결
##서도
##예를
다큐멘터리
고체
광산
##sc
##푸르트
##블로
과거에는
디스플레이
꿈을
했다는
하드웨어
기습
김진
내보
분화
식으로
신비
안산
중에서는
##사태
기록하는
조금씩
pol
몸에
개발되었다
지속적인
미노
봉쇄
제사를
이름인
중앙위원회
##idae
사라졌다
노력을
사자
쓰였다
##환이
##인치
##ward
122
선수들이
사망하고
의미의
가면
먹이를
왕위에
장면
##야가
##아메리카
에이스
이의
지폐
춘추
##쪽의
##러가
##층석탑
도시가
담당하고
드러나
객관
순교
철도의
컬럼비아
코무네
##ll
구간을
일종으로
나섰다
현저
##학적으로
dc
걸어
말의
군대의
기름
받기
왕복
유언
##누엘
##항에
##턴은
권위
부사
위탁
##슨과
10여
129
진행된
에스토니아
밑에
아랫
전제
##인들
##주식
##렸으나
##코쿠
##마사
##베트남
##능력
##반응
활동은
계획에
외교관
##해와
##미로
사용될
지구와
##사우루스
루스
봉안
한계
##원들은
##공은
모델을
꽃은
돌연
온천
있습니다
주석
초록
##외선
바꾸어
trans
치명
대한민국은
##하려면
min
자체는
중소
##놓은
121
111
중국어
결과에
5m
딸을
여수
##자이며
##가에서
##즈카
##태평양
식별
약물
##민을
이미지를
댄스
자치구
물고기
온타리오
테일러
학위
##러의
이집트의
iii
홈구
##손은
대한민국에
지나치게
캄보디아
후궁
##작전
##란히
##톤의
114
아열대
초등
일본을
있었다는
부분적으로
노래는
관람
생겼다
중기
##망이
영화에
초반에
5만
명에
일에
감독과
진출을
시계
##플라
중국과
경제학
규모는
개그
상수
아트
진흥
태평
페르디
임용
##ng
##비나
대학에
생각하고
mod
마쳤다
연세
진짜
##네는
##려면
가축
공인
##고래
##박스
참여하여
##omys
##own
인접한
말하였다
모형
법조
장난
##이거나
하나였다
##km의
변경하였다
개화
산다
소환
육군의
협의
##자본
##통이
##식품
##타임
000여
승강장이
##슈타인
당대
부를
소나
일컬
임상
대신하여
목표를
체포되어
대처
버튼
실려
재무
해변
##시노
숨겨
##츠키
##연은
국가는
제주특별자치
되돌아
펜실베이니아
시호는
콘크
##양은
med
강희
진군
##브리지
실시간
단위로
띠고
신호를
지점
##되지는
##실과
여기에서
lck
교수가
소행성
유죄
트레
##포의
##유는
du
가량
대웅
리메이
맞추어
발트
이화
이산화
일는다
##마와
##돌을
국가로
아이치
one
시외
##림이
활발한
웨일스
곡으로
드문
일렉
중독
##처리
김씨
밝혔
##ork
야쿠
위임
##라톱
134
##ise
월드컵에
근처에서
시내버스
가나가와
net
몰래
사사
##불교의
nas
부호
섬에서
천도
포크
작곡한
국방부
오하이오
mp
뜨거운
말기에
수술을
허브
##훈장
이후부터
##ute
어려움
민법
방패
총칭
유래한
마음이
기하여
난징
자율
철학자
향후
##풍속
지방자치
어울
좌표
플랑
##청에
카자흐스탄
대합
사원
평택
##라브
구제
오오
##길을
이름에서
5세
bro
김상
매개
바그
존속
측면에서
희귀
##음으로
##포구
주민들이
남쪽의
검증
누군
맞지
장려
찾기
##갔으며
시작하였고
fa컵
기점으로
북위
신한
##이면서
불리게
십자가
쓰시마
춘천
##단위
급제하여
international
넣고
##서야
##르지
##구르
##위원장
싱어송라이터
3으로
높고
부부
추출
##권에서
##연속
부족한
시설을
##고등학교를
여름에
모친
앉아
장관을
주위
평등
##전선
프로레
##이라도
제품을
can
있으면서
주소
지고
자신과
대통령에
진행된다
생각할
인근의
업적을
할당
##지나
##봉을
##enc
참가하는
로맨스
ke
인산
출연한
과정에
전라도
신이
장군의
##해왔다
##산성
##거리는
##크에서
생산하는
강점기의
광해군
구동
진정
해주
1898년
브라우저
강도
역에
##크에
만났다
시점에서
##ala
##인가
전투기
데뷔를
##지역의
그쳤다
드럼
안보
양호
김기
제독
##예정
##유적
특징이
발을
붙은
선구
안에는
양주
전념
출전한
물러났다
통틀
화제가
##열의
##겼으며
세계대
대회에서는
이명박
1호선
mag
ste
딸로
여성이
오빠
우편
이내
호위
##군이다
거론
시키
준비를
물리적
불상
여행을
옹립
원수
초과
##내어
일본과
기능은
이루어지고
부정적인
끝까지
부의
직결
힘입
##님을
결정적인
중요하다
아예
전압
황제로
##ire
##하겠다는
비즈니스
문장
상반
해운
영향력
요구했다
시점
지정되었다가
보여주었다
교역
문과에
서사
소총
##a의
##티의
##증으로
타카
펼쳤다
##제이
##목적
##으로의
독립된
배구
알렸다
해밀
##두는
##박한
교황의
별은
아서
의뢰
캠페
##이었다고
##바이러스
내부에
잃었다
조리
아틀레
##orn
활동하는
##위원으로
다양하다
실패하였다
겪었다
달이
디오
최후의
##백과
피해가
이래로
라스
제도가
##br
##참모
이후로는
##enn
지휘관
최근의
총대주교
ele
레바
모으
미카
어휘
협약
로열
비평가
수면
육성
이반
##ola
##더는
##채를
사회에
개발이
데이터베이스
한성부
주어졌다고
4번째
김재
무기를
정한
##미쓰
##톨레
##urn
보완
적고
데뷔하였고
기반의
트랜스
추기경
동성애
영어로
이남
##각은
정리한
3의
가환
모방
##로니
##열차
comm
je
##보안
##캐롤라이나
학교에서
밀접한
난다
싶어
##시부터
종로구
이어진
후안
##십자
##함의
지냈고
사단법인이다
a매치
##나라에
1901년
3차원
그날
드림
얻고
요소가
이노
텍스트
된다고
관할하는
선언하였다
스케이팅
원리
와중에
##말라
##마일
##피는
##녀를
조직의
영화배우이다
곡이다
##어지는
##르노
규모로
간단히
##공산당
최상위
에티오피아
딸인
##전사
가지며
도는
선이
##디나
카를로
##사령관
알바니아
교구
반경
향하는
##야를
##물질
제국을
나가노
경험이
4위
일리노
장학
##지휘
소속된
##박물관
관직을
둥글
시베리아
##pt
사고가
찾아볼
cf
물건
알제
야당
##놓고
운동은
노동조합
뉴욕에서
물질을
리얼
사슬
시흥
잃어버
측의
##2의
##케이션
sec
법인
수습
아인
접하며
학부
소설을
조별리그
캐스팅
할리우
##나서
제곱
충격을
nat
난이
마하
만나는
함으로써
##행의
엔진은
나폴리
삼각형
체코슬로
밤에
주가
##기기
사이드
##스카야
무상
상트
##ood
##선언
1902년
건축물이다
시칠리아
기단
좌절
##층을
업그
폭풍
회계
##루와
##통의
##yc
##레가
2012년에
만나게
3명의
나열
노란색
백색
##약품
도착한
김수
배웠다
빠진
숭배
윤리
##우지
다음을
##스티벌
등지에서
이윤
하더라도
##항이
정신적
1시간
센다이
순수한
해상에서
달성했다
고수
깨닫
신임
장거리
카리브
##60
ind
가리키
##ake
8개의
구출
섬은
영상을
장치를
하마
사이타마
주민들은
가고시마
속도는
투옥
##스파
##스틴
##난성
자신도
##ene
구마모토
2천
루이지
바른
줄무늬
##버러
##방은
##올로
나오지
니가타
방식이
##제학
기술의
매입
엔지
이차
들어온
2001년에
베트남의
포르투갈의
부동산
요크
용어를
해수
##음과
다음해
태양을
검은색
소금
##과정을
##내셔널
##작은
##0년경
넣은
팀으로
##작이다
##방으로
000만
광둥
실전
재혼
조달
쪽은
척추
역임하고
##테르부르크
자택
효고
##측에
않았다고
아시카가
이광
탐지
표명
회사가
##암으로
위치하는
구의
밀집
분당
시와
으로서
최후
회사를
##번을
national
내리
성주
캠프
##ition
고려대학교
우즈베
이긴
자금을
쫓아
##럭시
##액은
것으로서
선거구
상태였다
미얀마
1루
ir
선사
철도가
유래된
움직임
har
인플
조명
호조
##ink
결혼하였다
##커는
##효소
나이지리아
서초
##책으로
##란은
우승한
중단되었다
codice
내전
않으나
자체를
##치료
##족에
##달라고
전체에
바퀴
일대를
지위
도입되었다
통일신라
2칸
매카
제자
제압
지형
한국시리즈
3세는
사면
손해
에버
이어진다
피트
##권도
실패로
3층
4차
with
이룬
##창을
경찰은
프랑크푸르트
바티칸
관현악
상용
부유한
목을
연애
용의
팔라
문명
알루미
원인은
할머니
##21
##평군
이루며
경신
성분
##강에
경우에도
1903년
1884년
요청을
리틀
보지
직전에
축출
코어
##순위
애틀랜
에서도
부문에서
가요
석탑
설도
##씨와
슬로바키아
하원
##화이다
인물이
리메이크
리우
면적
장군이
최대한
##m에
##황을
시즌은
조선로동당
나눈
두는
본거
상원의
##짜리
2002
str
자연스럽게
공모
대상을
##환은
##합을
참여하는
2011년에
고구려의
냉각
위기를
##시키며
자유주의
경상도
iso
##80
비용을
용도로
정밀
간호
공익
밀어
##인들과
기록하면서
차량이
방식이다
슬로베
ev
사간
차원에서
31일에
미루
수업
시범
인생
중대
##기니
##푸아
그냥
많으며
보호를
봉건
소매
시골
일대에
존중
카디
카롤
학자들은
##체제
부서
1899년
김일성
관리를
##앨범
그러던
사망하자
공격에
fc의
아시안컵
문화체육관광부
가짜
불어
아부
지주
##방울
##쳤으며
##릴라
야마토
추측된다
꽃이
##아파
##쟁이
##멘트
의미에서
왕국을
즉위한
종류가
부근에
때인
신규
연결된다
아름다
승부차
일본국
자동으로
헝가리의
매출
오라
협상을
##왕과
도시철도
복귀하였다
바에
이식
##방에서
##강이
대학교에
amer
가죽
동국
버려
시바
신시
초연
##동이다
가지가
국립공
몸길이는
3세의
입성
주제가
##희의
남원
느을
예배
##루아
생각하는
직접적으로
헌법재판
뉴저
동명
##우드
중국에
지휘하는
##ement
닌텐도
알코올
힘입어
ibm
개교
##소방
##리조
다음이
섬이다
영지
우주의
헤라
만족시키는
달한다
베니
본부
산란
##마르크
기록했고
나머지는
들어간다
배우로
치러진
nor
불이
블로그
쌓은
오타
왕세
의식을
제트
##주기
##터스
것보다
부적
억압
화석
##퍼스
가톨릭교회
노르웨이의
다룬다
단기
담겨
사절
실린
문제의
참여하고
116
드라이브
칼리지
bc
반박
줄어
##액의
##국장
##약성
현재에
근무했다
##ology
거북
비유
안으로
우울
유가
##가고
##현과
기록해
시즌에서
형태이다
스타일
어머니의
콘스탄티노폴리스
먹을
패키
##모와
환경을
더불어민주당
믿고
헤드
##상규
##항의
christ
mic
경로
공신
기아
지름
항소
힘든
게르만
비로소
알루미늄
중재
포획
그래프
블라디미르
바오로
##작품
##lex
시리즈에서
승강장을
버전의
##선거구
도요토미
pet
수학자
시기를
일러
전속
##리라
##bl
##좌상
요구를
1999년에
war
아는
오를
있기도
##ana
##회의에서
기간을
획득한
패배를
##보통학교
보일
불편
왜냐
정렬
충남
카타
케냐
테니스
2명의
승계
##오나
위치는
존재하고
시스템이
차량은
결성된
핀란드의
성격이
자격으로
알을
전도
조조
##우스가
문화방송
교전
상류
차이는
사회를
정치인으로
주장한
등장했다
모용
올바
코스타
피신
있었을
##ames
간토
더글
로이
별명을
세자
이관
이가
자오
전동
종착
협박
리그를
페르난
드라이버
거기서
대거
마츠
몸이
연세대학교
리만
불확
중복
표본
호세
민족주의
드물게
농림
대가
효소
사람과
생각해
결혼하여
년에
미시간
선생의
씨는
즉각
##총장
형성한다
지나면서
레바논
게이지
예선에서
축적
##아리
##무스
이용한다
계속되었다
조약에
고래
광장
꼭대
##라기
##커니즘
수도원
mat
논문을
벌어졌다
붙인
서유럽
아바
용어로
주류
칭찬
##차와
##행으로
##제한
##그레
##박사
아이템
바이킹
광주광역시
교수는
누가
뒤집
롤링
양국
연쇄
조정에
주오
##지는데
않는다고
어머니가
바나
처녀
##하우스
##교수
##마로
##실험
부분의
아래에서
가까워
니콜라
글루
마운
삼촌
최적
##ml
##작이
##변이
독일과
이론의
것인데
마일
카스티
일리노이
오바
총리가
최연
##돌은
방송되었다
정도였다
난민
모은
주도로
태자
##칼라
2명
네팔
따온
필사
회장을
##테면
20여
드래프트에서
권고
분비
센고쿠
여진
왕을
##렸는데
##태후
설치한
운행한다
모델은
시는
죽였다
포병
##아키
##측은
독일이
1897년
아버지인
고등학교를
벼슬을
미즈
신선
태도를
##사리
2001
관련한
특징으로
스스로를
레논
시장에
아라비아
팀에서
##플렉
경계로
스튜어
2가
모서
비타
술을
주체
화강
##포트
알려져있다
star
차량을
po
던져
매끄
모르는
반해
이케
정해
회의를
##스런
##교에
##itt
진행되고
사랑의
이곳을
who
구할
덮여
양이
엄격한
했을
##iel
##폭탄
##방위
하나님의
동생인
아미타
프로레슬링
tra
진공
컬러
편곡
구분된다
##도어
보유한
디자인을
day
페어
하이드
##까지만
##수용
##감과
공손
관념
제안을
회고
##mb
##보건
이를테면
시대부터
차량의
##베르토
360
우호
일이다
##정원
##욕을
아버지를
미시시피
1학년
gn
본인의
여부를
##사나
고려시대
건설되었다
##ade
나가는
엄격
위장
##차량
##왕에
##쪽은
##라이더
sw
아크
일체
평창
선수들을
프랑스에
##검찰청
무실
사토
소니
숫자
옆면
진을
타격을
프레스
##황제
물질의
위험한
스쿨
평정
해소
생각한다
서식지는
super
1분
mr
미터
살았던
전년
##iam
##임에도
##번에
##있었다
이야기는
아일랜드의
고기
담긴
버렸다
##경영
정부에서
존재가
설립되었으며
과일
밴드는
입원
##도리
##급을
##턴의
##ash
계획이다
북아프리카
감행
만일
수동
##역사
##파인
출신이며
아이디얼
에피소드
통틀어
소지
하남
흔한
##장히
대통령으로
##이트를
광저우
단축
라파
맞은
조언
표지
협정
퇴역
경기장이다
학교에
골프
낸다
빌려
이씨
와이번
pre
곳의
임관
##시민
##아들
성공회
기업이다
갈릴
그랜
물의
지식을
##24
##거리를
##펜하
인정하고
inst
두께
시위를
##자연
##네시
##판과
발견하였다
역사적인
리치
심의
##가이자
시작하는
표현을
인터페이스
뛰어나
투표를
##그라드
가벼운
ca
##대왕
##해살이
##작의
공간이
모델이
움직임을
적극적인
와일
##ont
모델이다
그다지
노리
베드로
상처
일하는
최악의
패한
흥선
##거는
런던에서
생략
오쿠
##어지고
##가들은
##종과
##림의
임명되었고
유지하는
당주
보헤
##야만
##문에서
##였을
##달아
스타리그
모양이
경찰에
단층
떠올
마약
재현
##화물
##추는
부분으로
브뤼
이북
##전문학교
광무
기각
신중
의원을
터뜨
##소득
##감에
미국을
제국에
왜냐하면
되지만
슈팅
시장을
업체
한미
##노가
올랐고
구와
뚜한
충주
폭스
히타
##도비
##드레
##히메
경기의
결정되었다
환경에
성우이다
국영
성운
손가락
콤팩트
편에
횡단
##코드
##터널
선수는
rna
노선의
당일
병으로
수축
출산
황족
##나갔다
##86
##푸스
환경에서
크리스마스
감정을
국군
신념
신탁
축조
##발이
전통을
멕시코의
열매는
누르
담배
수에
언더
캔자스
##장치
프랑스가
앨범은
어려워
물러나
갈수록
만남
목성
쓰기
없었기
##팀의
작용을
새겨진
로스앤젤레스에서
점성술
by
규격
라오
만성
민사
일방
이벤트
##원숭이
플라스틱
민병
배틀
부지
얻지
올리고
자문
##나우
적합한
볼리비아
평범한
산의
에디
역까지
유동
##연료
##택을
온대
채워
표방
##적이지
##법에서
##브는
대전이
도입하였다
스피드
##선수권
노태
##즈로
출신인
sd
곡이
배신
산하에
중산
중장
판사
회사이다
제네바
뜻이
발현
세상에
예하
잡았다
청원
킬로미터
표면에
##허가
##스카르
상트페
1집
벌인
##버렸다
15세기
관할했다
점령한
딸이다
중일
##책임
##팀에
디비시
문자를
영등
적혀
지나는
축하
투수가
##니시
##년의
##월드
평안남도
오프닝
박쥐의
##마뱀붙
브란
어뢰
잡은
호평을
##널티
지역구
##연구원
터키의
베네수엘라
극동
놀이
따른다
원반
이진
취하고
프톨레
협동
##벌레
##절한
##누스는
##풍이
복제
##터미널
##즈에서
##갈색
복귀했다
가옥
순회
폭넓
임시정부
궁극
수성
신축
어워드
죽어
펠리
스탈린
본사를
수확
피하기
함대
##에너
##주어
##구나
시절의
평가된다
떨어지는
결코
대치
성취
아기
호의
알려지게
발매했다
최대풍속
1998년에
군대에
백제의
##위해
##익을
##법상
##법이다
마이크
1996년에
북방
##결정
##대책
##스트의
1920년대
del
단어는
주어진다
탄도
퇴임
평일
황해
##악한
디자
사살
산하의
죽이
##나리
##bi
##너의
왕국은
1라운드
상상
정해진
해당된다
오사카부
상트페테르부르크
3분의
iv
전세
##시즘
##트륨
##사랑
##3명
##1의
대회가
기독교의
붙여진
콜로라도
cro
강에
싸워
언어의
점프
파이어
##더니
도미니
상장
자국
차이로
##잡이
시리즈를
민족의
유사하다
극대
안치
잡혀
주사
중형
쾌속
##양함
그리스도의
울산광역시
프랭크
고백
룩셈
손으로
전력을
정도를
##무역
아니라고
##가지의
개념이
그려진
atp
3천
ver
교리
마에
신부
포로로
하락
##물인
프랑수아
개발하고
기술은
전체적인
국왕의
온도가
지키는
##uk
##웠고
선수로서
##로부터의
100여
1885년
비난을
그레고리오
오피스
완화
전역에
##행에
##면에는
##강과
한국은
정치에
이유를
머물렀다
쓰지
##화에서
국내외
싱글로
사례가
jt
계몽
도미
무의
쇼트
스폰
플랜
환자
##공무원
##act
자료가
요새를
분명히
개종
적지
직할
행사를
##노프
##리아는
2013년에
##운동에
루터
보다는
투수로
희극
##함마
##극장
가져왔다
school
gs
가수로
불리고
유교
정무
##신경
##ald
##위원을
일으킬
넓게
무료로
자란다
충렬
카스
하부
##학부
이적하여
다운로드
공민왕
밖에도
손꼽
지각
##내며
##다르
##오르
##fer
##먼은
경기로
천연기념
민영
번에
아타
즐겨
침투
정치를
수상한
보호하기
아무도
맞붙
성서
시종
책의
철회
##불을
공격하여
정의한다
##문화유산
돌을
지장
##도바
##간은
##브의
국제적인
룩셈부르크
5위
마블
메타
발칸
소말
해의
중심지는
fc에서
앨범이다
1997년에
할아버지
che
무궁
사당
선과
스티브
##로이
##품이
사회에서
중앙아시아
버전이
##201
구스타
긴테쓰
날카
때에도
승무원
함수의
마을에
17년
lp
군이
닫힌
등극
만세
방글라
불명
세력의
25년
씨의
제노
존경
추산
그후
마닐
연령
세워져
갈등을
2인
상행
##서원
##수소
세속
저기압
##구성
##열에
##팀을
남쪽은
파일을
pl
말하면
칼라
합작
결정하였다
위원장
기초를
둘러싸여
대두
비평
빛이
세금
자회사
집계
토르
##들여
##네가
##변에
형성하고
1871년
한나라당
기저
문서는
분출
케임
코치를
하차
##당해
##심에서
같은해
평안북도
고령
구단의
법의
안테
어업
##매매
##ane
어려서
방글라데
밝히고
피츠
ko
금성
돌로
마스
애덤
중서
중공
선수들
##cm이다
1대
강서
거울
결론
대교
성사
##병에
##쿠니
##월한
##감한
독립적인
미사일을
선정한
토니
헬륨
##서기
##라트
##고와
20대
음악의
설명하는
지난날
cont
창원시
나주
당연히
발급
연기를
위헌
통영
합창
해마다
##분석
##느러
이루어지는
서쪽은
high
높게
어른
##하자는
##일으
##글리
실질적으로
act
문서를
산림
여우주연
유라
##티미터
##학원
수록곡
##tv에서
뜻은
문예
안성
질량이
##풍의
역사의
주장은
바이오
형성되어
5번
가늘
단절
아야
처음부터
프로그램이
이론에
##ife
패전
##ena
상태의
스트리트
방사성
토너먼트
넘어가
변수
산출
시공
##왕조
##케라톱
##길이
기록으로
대한민국과
존재할
##하자면
목표는
바르샤
프톨레마이
cs
공습
연못
주머니
직면
제3대
cap
ty
응원
의석
후임으로
남기고
물건을
시노
정유
##정에서
설치하고
3부
차원
##으려고
변화에
간신
디트로
바빌
반공
악기
##차이나
##고리
##량과
##홀름
학교의
받았지만
차례의
앙리
유년
저명한
지쿠
치고
##역학
역사에
후보는
담당했다
시트
##레타
##람쥐
##학교에서
자신들이
##레이터
대학생
은퇴했다
연극배우
개가
뛰었다
인격
현금
산업의
균형
동위
미디
소셜
암시
연봉
입각
##희가
전두환
18년
수장
심리학
전하는
##기게
##는지는
##본으로
##링을
헌법에
불러일으
확실히
견해
규정에
나란히
두꺼
시장에서
혐의
점령하고
완벽한
3명
꼭짓
대가로
매매
수색
장군은
##ject
##inc
1890년
기간은
방면으로
사모
전역에서
##23
##철의
##주택
공격수
수비수
등용
떨어졌다
사관
청주시
치안
##인한
설명한다
red
미상
배상
애슬
주위에
지능
##전인
##사업을
##두를
##품의
##채널
##시키지
##ower
대응하는
그들에게
영유
하라
##리야
##락이
사람도
발매하였다
기존에
통합하여
마다가
생식
요동
잘라
##da
##감으로
사이버
실시하고
tw
난을
문인
fc와의
가족은
남북으로
구간의
붙었다
쓰레
이닝
##버린
서울의
새로이
자유형
##대학교에서
이라며
올라간다
페르디난
대명
애칭
위에는
촉매
##아와
##타니
돌출
부가
이빨
##부상
##층은
결정하는
마을에서
비율은
성능을
선보였다
미네소
2배
마다
은거
인문
잭슨
흔적이
##주지
생산을
임명된
삼국지
가신
오노
제퍼
하트
##way
19년
들어갈
개념이다
취임하였다
4만
벌금
석회
이내에
증후
트래
##협의회
로마에
다양체
열린다
동쪽은
기초로
끊임없이
종속
##자들에
##아일랜드
##츠가
의미는
얼굴을
세이부
아르헨티나의
9시
가자
기회가
막부의
##풍으로
하나님
##eng
이유가
클럽이다
교향곡
두개골
배가
선물
오지
테레
제21
공격해
사고를
500만
방문한
##예정자
각자
라마
명성
품고
함부르크
##천이
##준은
우승했다
경제의
##으로부터의
은퇴하였다
스위스의
쿠데타
낳은
소나무
주위를
##쪽에는
##개국
시즌이다
난카이
원조
파스
파란색
##ream
과정이
중반에
팔레스타인
것들이
수료
연상
컴파
파나
대표적
진행하고
이탈리아에서
건설된
더욱이
반도의
짐작
##점인
##나오
스트리
이란의
그렇지만
2는
자생
##과가
건설을
##호선이
르네상스
나중에는
볼셰비
비자
와의
키는
##m2
##빌딩
##국어
##두로
그룹이다
재판을
테이블
고통을
네오
선로
세션
잔류
정신을
하에서
헤비
##되므로
##코와
##비서
##que
##값을
##검사
현재도
자유로운
타이베이
정보가
도입된
실패한
인접해
발렌시아
간선
나올
별이
유학을
재편
##킬로미터
##코타
운영을
차지하며
라이언
진출한
선발로
요시노
파이널
디트로이트
감안
검출
게이트
마우
슈트
압력을
적다
회수
##키와
유래했다
마음에
이스라엘의
세네
유저
태극
하행
##따라
불가능한
colle
부대가
영지를
일대의
##버리
##렸다고
##운동의
연합군
reg
함경남도
2주
디렉
병을
복소수
포장
학문을
한스
##루에
주장하며
설치하여
연결되는
내려가
메달을
아케이드
견제
무지
부설
인데
크기를
페리
##승지
##덕션
##리터
##위안
여객철도의
대안
성장을
없어서
전격
휴스턴
##사단은
결정된다
내용으로
1889년
##교육을
북쪽은
취임했다
뉴저지
역설
장비를
하시
##계약을
##등으로
도시에
되어있다
1994년에
고인
부재
아닐
통용
##발사
활동하다가
추가적인
이루어지지
아나키
블랙홀
2억
가열
것임을
공부를
더해
로저
모셔
사범
지평
##말에
##스기
##기나
##금지
선출된
1995년에
cn
나섰
뒷받침
리보
모나
산지
성별
##서비스
##양으로
위원회의
동쪽의
조성된
오리콘
##조참판
스크린도
가려
불꽃
오로
이천
주행
##중추
##았다고
시작하였으며
대표적으로
대학교를
수록예정자
원더
초신
트루
##차전
##준의
##mun
출시한
부근에서
다니엘
부드러운
htt
뒤에도
맺은
##대륙
영국에
건축물
##지역에
비율이
낙동
높이가
예이다
한층
##하로
##았기
##m에서
대책
발각
샘플
용병
음모
충성
##회담
##토모
서쪽의
air
각지에서
고민
아소
작아
페스티벌
플러
##신도
##량에
조선에
2015년에
##호선과
가문은
물질이
ho
정권이
##빈은
리그인
되었던
런던의
##정책을
확실한
da
서원
스캔
연소
유식
이경
환상
##덕왕
##받았고
##대학교의
1883년
가오
경작
돌입
사거리
수녀
에밀
##손이
##미즈
진행되는
교육과
건물이다
비판했다
빨간색
감싸
다니는
토지를
##전이다
##노에
val
괴롭
기증
##문자
##국사
##분해
고려시대의
강동
사정
신조
측에
##메다
##해온
##che
##채가
문화가
지구에
유벤
##부르
해결하기
담아
명이다
빈곤
취항
클라이언
피로
##렸지만
##수리
##집이
##것을
4월부터
야마구치
오클랜드
rad
김창
비주
우르
있거나
자의
##주자
##통제
##헤이
131
1990년에
트리플
끝날
노트
문법
전기의
태백
판정
##ye
이때부터
열차의
프로젝트를
가을에
##두에
들어올
시즌부터
##rop
아름답
ml
델라
로즈
뽑아
사리
사쿠라
세력은
제3차
포기하고
성이
자칭
재미
제도는
지도를
한인
##손으로
부분에서
2014년에
인터내셔널
남게
손실
##증의
##들과는
##기관의
포스트시즌
5번째
동조
옥스
창의
##산리
##공주
##군단
##벽을
나타낸
##ution
1868년
관직에
김경
범위를
에미
여우
용암
정서
치른
##나스
##ti
##gb
11개
설명했다
##과학기술
기자회
소송을
견인
대부
상표
제치고
##가들이
##봉사
##번은
국제적
알렉산드로
고향인
1기
4명의
ter
다테
제도에
홍문관
##해주는
##해졌고
미주리
##버스터미널
단어를
더이상
둔다
시코쿠
신화의
언어는
있는지
##스트를
##위원회를
나라에
이르렀
고유의
성숙
의결
조류
카트
##해양
##거리가
판매하는
중요성을
스미스
dav
신정
원을
짧고
합친
##키를
##루스의
##위성
##준비
##형인
##컨대
도로이다
교통의
국보
맞고
맥도
보리
원인을
입을
##학이
##연방
##순환
##덴부르크
메시지를
후지와라노
cal
조립
카나
##히토
##받게
수도를
국가대표팀에
야마가타
##form
time
가동
상인
이장
튀니
##oss
##기록을
동치이다
감마
과반
무함마
좌석
투항
휴전
##협력
##체고
경기도의
전반에
세인트루
무리를
별개의
서민
애비
직통
사이토
올림픽의
국유
저렴
정권의
처분
##우기
##주의가
그러다가
카를로스
온갖
회로
체포되었다
감리
메릴
아다
집결
혁명의
##온을
면허
무성
박스
점에
퇴적
지구를
경에
아돌프
조르
##심은
##병은
##디언
1993년에
천황이
대패
산둥
연한
질환
포드
##왕으로
##채는
태어났
언급한
스트라이커
우즈베키스탄
송나라
얼음
합스부르크
##대군
##거를
##각형의
러시아는
예정이었으나
최소한
낳는다
번성
세례
쌍둥이
용어이다
종을
헬싱
##25
역사와
인디애나
모시고
1위에
내무
니코
비하여
아데
토요
##6명
##품으로
##냈고
대통령과
##시켰으며
정의된다
실시한
2라운드
글자
말미
평화를
동안의
계약이
##상규명
나라는
위와
유연
장안
편지
호응
##티코
##미트
##무로
##궁의
구성되었다
공격했다
인터페이
비행기
미래의
스카우
치열한
가네
격렬한
동부에
레슬링
복소
송시
음료
##토르
##영과
사용되며
시작하면서
운행하고
소비자
잡아먹
슬로베니아
만이
애리조
##ins
일어나고
재능을
사카이
습윤
응시
인상을
투르
해저
##나가는
##공격
##프라이
2가지
급성
책이다
##gh
##ensis
저작권
김옥
명목
조정의
##설에
##운을
##청에서
##vel
##혹한
연구의
오늘날에는
아키타
대행
뒤이어
실망
없었
우측
코소
##피의
##km에
공격으로
교육의
연합군의
##경찰서
##도르프
미네소타
권장
미소
부총
유권
코코
피겨
학원
##기사
본래의
비밀리에
2선
고쿠
곤란
데스크
빈번
싸웠다
외에는
지옥
휘하의
##행위를
##코르
기업인
만을
메커니즘
상응
장면을
장소로
통치를
풍속
하원의
현행
형상
##야에
##그는
10분
수행할
경찰이
무소속
1승
8시
kr
교회를
상세
스이
이산
##광년
##골로
##증은
나타내고
증거가
불가능하다
자세히
공과
상이
타구
페널티
포수
##제에서
##교와
##업은
##ino
노선이다
농장
만료
시정
클라이
##당하는
##푸르
독일인
사업에
보존되어
암호화
모의
사쓰
소리가
##애틀
제안했다
살려
선배
집안의
다이어
해체되었다
li
부도
요충
##판에서
##직으로
제24
데뷔하였으며
드러났다
친일파
미야기
체코슬로바키아
sam
숙청
충실
##것으로
##올라
##황이
지역인
프로그램에
표현하는
기관총
소설가
대대적인
클레멘
bu
농산
밝힌
시레이션
우정
제프
조화
하동
##반에
##적으로도
게임이
데뷔한
노선으로
가족의
아마존
not
없던
##파르
##발로
##세르
이용된다
##oll
경찰의
sci
걸린
그로부터
무조건
물어
##수지
바다에
##프로그램
교수를
꼽힌다
보드
산요
토스카
플라이
##전차
##년간
1995
정치적인
마을이
효과적으로
black
국어
그루
부작용
사위
압둘
입헌
지류
토끼
##산동
1999
게임에서
발생하여
시대가
수준으로
내어
러셀
몸의
불태
서부에
입장에서
##벌을
##막을
로마에서
모습은
변화는
건조한
프란츠
명명되었다
해병대
길이의
대각
산시
타협
허가를
##port
##할때
##훈을
보내고
회사인
unit
거부하고
동영상
고다
섬과
전함
존슨
푸에르
한큐
해군은
##파이어
##5명
##변의
제23
프로듀싱
궤도를
불린
청춘
팀과
피의
##당하여
##나에
##버는
##4명
국민당
인정하는
소련은
art
유로파
##박쥐과에
갈리아
강풍
견해를
단식
대도시
북구
선비
성폭
수령
오비
피핀
행성이
협조
##학적인
영국이
임명하였다
길에
카우
##ek
##신에
##루션
##살의
지적했다
스코틀랜드의
프란체
매카트
감금
군산
김현
올리는
##냐는
비판이
자료이다
개봉되었다
항공모함
아리스토
기해
리뷰
맥스
사서
전날
카카
영향이
클럽인
기여를
살아있는
득표율
##formula
슬라브
시애틀
유비
##가르
##7명
##ican
열대폭
다케다
크리스티안
돌고
몬스터
##키아의
##테이션
##림과
정당이다
가정에서
제정된
남구
싶은
요약
입구
차체
체류
커널
태국의
##부문
##츠를
##집단
##개는
사랑하는
개념으로
목록에
##박물관에
목소리를
매니저
4위를
out
링크
파리의
하우
##무가
10개의
##eth
시리즈는
생물학적
1시
규범
기사를
불규칙
암흑
##타이드
중국인
아키텍
##고속도로의
등장인물
고사
공수
서적
연금
예수의
있음
##시게
##레스의
##되어있다
더불어민주
노르망
3000
arm
시즈오카
엔지니어
ww
가맹
가리지
몰수
보라
붙였다
삼중
알래스카
절차를
조사에
##평화
##공파
1992년에
1가
rock
글래
마녀
수도로
장사
##됨으로써
기준을
대신해
가구
고원
공표
내리는
당원
비영
성곽
타자
##철은
##브르
나오고
동일하다
2세와
계수
공천
서임
중대한
##8명
##운다
##팀으로
중심에
등장하였다
도로가
don
목성의
비준
에디션
폭행
하치
##보르
##직할
##올림픽
가지의
지진이
스리랑
탐색
##메가
##창한
10시
가지로
##hel
결정한다
실패하고
곡선
마인
발의
진지
##되도록
##질러
##디를
##먼드
##감은
사용하기도
플레이어는
헌법을
원의
##액이
##ble
발견되어
##들에게는
기간이
##mm이고
각국의
경연
배후
줄여
즈음
출가
환자의
##에미
위험을
간주된다
받으면서
배속
유산
이규
##간지
##티아의
##세다
##득점
이전부터
시간대
중화민국의
활발히
헤르체고
마라톤
top
간이
경의
동학
봉기
소모
인테르
증조
크롬
##부에는
##법칙
##미한
으로부터
나라가
4회
때려
막시
왜곡
이방
이건
허위
##페란
분리된
내각의
안토니오
wil
나비
앞장
이타
##문이다
##칼리
##취를
##벤처
국가와
앨범의
독립운동가
부드럽
gdp
vol
권총
무대로
파동
##du
##초로
##린지
##순위로
사용되지
게임에
수여받았다
헤이안
생겨났다
푸에르토
3할
mas
wind
보게
수단으로
주자
직장
##ear
도시에서
31일까지
기여하였다
파이터
암컷은
구역은
발언을
서재
자선
자랐다
##생명
형성하는
건축가
권유
넷째
우의
이병
조병
종족
흐르고
##이후
##내지
##피가
##있게
되었다는
개통되었다
연고지로
신형
원나라
차로
취재
역임했으며
필리프
제목의
가격이
새끼를
오카야마
애리조나
2개월
동점
목판
백화
숨어
전지
##루냐
한국철도
##라에서
##씨로
##갔다가
##블리
13세기
클래스
값이
델타
생체
아담
왕가의
##공무
트로이
올랐으며
호르몬
6세
강연
발병
차를
##새가
##1명
##왔던
##웨이트
제작을
플래시
스크린도어가
2기
5분
날에
넘게
발령
선원
총리를
카르타
##2명
##하임
20만
영화가
종교의
1882년
벨기에의
san
극심한
날이
대대로
때가
산성
압력
하도록
##계급
##강은
게임으로
korea
sv
경희
광명
내정
모인
불평
상경
성적으로
수련
씨앗
알지
엔딩
영업을
키가
폭로
##왕후의
##연대는
상황은
기본으로
엔진이
니콜라이
예전에는
nad
못하여
벽돌
위주로
조세
##수에서
##타스
선수였다
2017년에
충청도
브리튼
동아일보
선임되었다
토너먼
노란
독일에
동행
자라는
중퇴
##ual
##계에서는
1월부터
프리메라
나은
본인이
양을
자기의
털은
##집행
##석에서
활동하며
2016년에
공간은
도로를
해안에
고토
기회
로그
스노
양반
##통은
##여우
##링은
붙여졌다
따뜻한
듀얼
워터
총장
해가
##브스
바꾸는
민간인
반도체
기와
마리의
문과
어렸을
자결
천거
칸의
파산
환영
##ner
##하기는
이전까지
관련해
기업이
열차를
다이아몬드
어항이다
김병
돌격
사바
스칸
식물의
오로지
##mp
##단지
##린을
생산된
##학자이자
리옹
무척
무슨
앞의
정월
제의
진해
##조각
##토와
##카리
##훈은
기록되었다
정도에
설명할
그곳에
2호
2시간
가솔
각색
리오
상해
정말
터보
평평
혁명을
운영되고
작성한
레드삭
pop
관악
대니
샌드
16개
매끄러운
머리에
명사
미쳤다
백두
치세
현직
선거는
그레이트
lo
개인이
병역
염기
우회
추서
키워
##커의
경기장으로
발견되지
제국과
전신인
가나가와현
김제
마야
미들
스홀름
온건
테르
##만과
##ella
시스템에
주목할
아폴로
구단은
컴퍼
해태
주연을
##일체유
무궁화
et
다마
연수
파손
##대학교를
소련이
않아서
창설되었다
콘크리트
ha
lu
대포
##위기
##교에서
진행했다
마르세
mi
고창
모자
실력
싸움을
유의
프랑스령
형성되었다
담당한다
##국제공항
구단이
서포
시직
아날
않자
직위를
##진상규명
##보니
##근이
##설은
##클라
전쟁과
문화와
조직이
1년간
eng
간신히
고산
동참
무쓰
미친
이태
코카
##병과
##쿠버
지휘를
##ull
세종특별자치
rh
실력을
청룡
하반
##2호로
자유당
주민들의
위험이
늘어났다
페이스북
내에서는
동대문
말까지
이이
정자
##뱅크
##ert
이용객
리그로
설치하였다
적용되었다
바꾸고
십자군
6시
yo
김홍
데스
반감
봄에
세기
우드
의무를
흐른다
히사
##관이다
기념하여
시기에는
종목은
개를
개헌
기숙
맺어
시에서
여파로
정립
판례
##시나
##대구
##들었다
##티가
전투의
그룹은
미토콘
케임브리지
부시
중점을
형인
##권에서는
##축을
##xt
##염을
이상한
개인적인
b는
결론을
모티브
왔으며
전했다
최성
##제도를
##거진
합류했다
왕실의
william
gt
데서
일제의
저하
현상은
표현한
작업이
남동생
경향을
북아일랜드
제출한
크리스토퍼
베른
아레나
터치
##지아
##결합
##ication
주장에
프레데
갑옷
분지
##했습니다
##표는
##받았으며
도쿄에서
뉴욕의
조약이
이사벨
도착했다
김정은
예선에
피를
흐름을
##기둥
한국과
##ater
변경했다
스테이
무렵에
사태가
영화제에서
끌고
리베
볼로
상담
선도
장미
후기에
##드릭
##읍에
##능한
아니라는
중심지로
2년간
gener
ts
알리는
자작
##클로
##이었을
하였지만
mor
균형을
대왕
별세
신화에
오류
인명
입지
코호
##연수
org
마오둥
공이
공으로
맞대
병원에서
아산
인류의
카드를
##어인
##철이
##한이
##발은
##분과
축구를
1886년
단독으로
광년
김유
##했음을
##대회를
##너가
##링턴
##ony
##inal
역사에서
세포의
마르코
안전한
장애인
bre
다투
도야마
말부터
맥락
무대를
승리에
씨가
앙골
오르는
의회에서
##관련
사용하면
사헌부
살라
진실
차출
창녕
체인
##리던
##va
##클레오
##탄의
중국은
점령했다
북한이
제주특별자치도
gir
국적
국장
다름
닥터
새긴
세금을
스태
양자로
전래
충전
##들보다
##보수
##주머니
##절이
접근할
미군의
불참
셀레
약혼
위그
주조
##광을
200만
도입한
방향에
효고현
바르샤바
관료로
구형
보증
입주
##리온
1893년
면이다
시부
영산
절차
체크
##테스트
##터에서
##솔리
때문이라고
##acaf
내용이다
전통적
요청했다
강남구
동문
안티오
원숭
이룩
캐서
화순
힘썼
##9명
##m로
아랍에미
단계에서
live
개항
고대의
사전에
산이
정하고
##승으로
##다를
##것도
##새를
따라서는
대사헌
유아기를
concacaf
3세가
경시
##림은
사용되기도
##스트리
만들어져
주도한
에스페란
하루에
죽음의
지붕은
누구나
모로코
청와대
기어
배수
보성
장제
존스
황제는
##지오
##로우
##준이
##형제
받았다고
전국적으로
종교개혁
동일하게
주민의
1991년에
부르고뉴
경질
구해
들려
설일체유
죽인
##쉽게
프로덕션
승강장으로
관음
청나라의
호크
##해지자
기반한
1888년
혼란을
문신이다
늦게
도왔다
소문이
실존
싸우는
작다
전이
종군
##하키
도시인
연구와
ang
수행한다
제한된
rev
천문학자
##able
청동기
비타민
2골을
ioc
당하고
대영
법무부
수양
심하게
의석을
증대
패널
##랑을
##운이
##반이
하나다
24시간
350
수용할
프로세서
##고등법원
1을
gra
고소
병이
일이었다
작가의
절단
중부에
초빙
##s는
##업으로
서울에
스페인어
보도했다
박사학위를
아라곤
되던
이렇
##하기가
사랑에
1848년
강은
다를
열심
전국의
중수
추첨
##노를
##한테
##무는
##xx
##척을
한편으로
경상북도의
지키고
향토문화유산
쓰여진
9개의
동인
미치지
양식의
형법
회피
##사들이
##하루
##재단
##다드
##work
##카에
노래이다
방문하여
가져온
안정된
출발하여
코무네다
검정
명은
벌여
차용
청색
피라미
##지정
##업의
##연으로
##블랜드
발견되며
최고인민
간격으로
기기
믿는
성으로
세레
원인으로
웨스턴
##바퀴
일본군의
5000
바탕에
알렉산드르
게이오
비용이
아이치현
##마뱀붙이
1은
따왔다
블루스
입양
필드
허리
혐의를
##자리의
##되나
##당인
##타우
사이로
서울대
일반화
드러머
디자인은
분위기를
하노버
격추
내걸
듣지
크라이
프롤
##집으로
##프레스
##난을
선수들의
2차전
궁전
끌었다
내부에서
반격
소닉
품질
##츠크
##국적
##뉴스
음악에
지도자로
종료되었다
생긴다
성향의
그보다
의문
주제를
파기
##니라
불안정
수익을
wal
대역
메소
승무
이소
##부리
##반도
##밀히
제25
상관없이
가산
니혼
브로드
승점
아와
재선
##원수
##졌기
##반은
##께서
결정에
inc
단체이다
거부했다
오리온
geor
긴장
단체의
떠오
윗부분
이양
자체의
주위의
증상이
코드를
##사고
##태를
문제와
유럽과
출판되었다
##사관학교
k3
짓는
##지지만
##어요
##전시
##신학
##커가
##풀이
##안과
##타입
##표가
영국령
분포하고
바뀌어
간사이
김구
삼척
스텔
압록
원통
자와
작전에
전무
중엽
진사
축성
해명
협정을
##기일
##지었다
##바이트
##더의
10월부터
고려하여
출전하지
지원하고
사라진
홍콩의
나타나고
공로를
권위를
딸이
상공
조광
해고
##근의
##열은
하나로서
압도적인
클리블랜드
우루과이
도널드
##por
##레틱
스페이스
##urg
##chn
시험을
친일반민족행위진상규명
der
규정을
다비
레온
비늘
쪽에
##사용
##속에서
##밀하게
제시한
부근의
music
허리케인
느린
사탕
처분을
행하는
호쿠
혼동
##찬을
##illa
보여준
프로젝트의
1세와
지키기
계단
과테
상급
에어로
재상
화를
##캐슬
공개했다
1989년에
제목은
주관하는
누이
동유럽
라그
마가
부인은
호를
##pg
중국을
정책은
1866년
##테이너
21년
강대
미만
성에
일하고
##7호로
독일군
발견하고
실시되었다
판매를
미라
세상
승자
우파
현황
##결과
##복의
##빈의
##ons
13개
생각하자
지나간다
입학하여
가로지
캠퍼스
group
막는
부대의
선동
전당에
좌측
초월
##본의
##베이성
초창기
코스타리카
##해살이풀
디비시온
러일
산스크
시에는
유목
적어
타당
##조에서
##net
##해튼
##약한
##맥스
30여
off
50만
3년간
유래하였다
생겨난
가리는
금요일
다듬
영역에
우한
은하의
장흥
주입
청산
팔작
하니
##말의
작용하는
등판해
관해서는
간략
밀리
방침
부각
쌍대
연안에
원격
유타
정전
##기독교
##70
##협의
##현으로
203
통과하는
경쟁을
제정되었다
시청률
말미암
공방
극우
되도록
사영
연립
이데
정하는
제니
지수
콜라
##관계가
대표를
다양하게
표현이
가족과
가족을
사상은
물리치고
거두며
에도르
갈등이
good
##펜하겐
그렸다
방치
포착
선수들은
유지하기
여겨지고
cbs
것인지
노이
배려
시이다
주니
회화
히라
##기자
##운영
##투자
방법에
증가하고
고양시
벨라루스
구하는
류큐
버전을
즐길
##ko
##러를
##히트
대한항공
18세
보내어
##아버지
유력한
기수
물체의
음향
이송
자산
총리는
코펜하겐
##다양
##ds
##판사
##번지
클럽의
항복을
업그레이드
가군
갖지
동로마
마스크
사무를
상처를
스즈키
프렌
##작인
사건과
주파수
케네디
애틀랜타
df
면제
사항을
식당
유형의
투명
트란
##9호로
##요를
##령과
##번이
서울로
서울특별시의
완성된
모니터
올바른
kh
가상의
도카이도
박람
안타를
학명은
한명
현악
##진군
##업체
선수의
##ital
##iver
##나무는
남동쪽
작성된
게릴라
기에
실버
##아야
##종에
정의는
국가대표로
미나모토
산스크리트
고문을
천재
##하게도
에너지가
작업에
전략을
mer
sr
tc
반포
번영
하코
##회사로
##함수
##청구
##망에
1892년
대체되었다
이해할
대항하여
지리적
7세
공양
년간
농어
돼지
루시
이득
접한
프론
했었다
헌정
휴식
##타고
##저기압
입단하여
##호선은
ka
긴키
빌라
자아
자크
장소에
연합의
여겨졌다
왕국이
fla
서정
시속
언니
접해
##집에
##협회는
해당되는
조직은
설명하고
선택할
북동쪽
다나카
암석
왼손
##po
##브리아
##친구
##날레
##운동장
스포르
가르쳤다
종류는
밴드이다
4개월
ra
것일
선은
세바
예컨대
치렀고
파인
##gm
##체계
##양과
##민과
대표가
받아야
시리즈에
분리되었다
제기되었다
유리한
소프트웨어를
오케스트라
매수
전까지는
헬레
##시한
##사회의
##능력을
##망의
사람들과
조선일보
##우스와
가르침
ceo
au
life
rom
이븐
전담
점수를
##스레
활동하던
관계없이
지구가
ebs
공군의
수로
한민족
##위에서
##공화
1200
자유의
##해야만
지나가
기관차
학생들의
학생들을
산업은
몽골의
##ave
떨어뜨
북동부
카메룬
ngc
si
가의
각지의
겪고
동정
월요일
화엄
조선후
구축함
리에
마린
유진
유러
자메이
전복
정상에
##로이드
##추진
##유도
이름과
활동했으며
개발했다
인도차이나
제품의
plan
김규
농경
라오스
송신
충북
진행하는
부족으로
삼국사기
새누리당
6대
강간
내리고
정작
초고
후진
##지부
##워서
실시하는
그래도
1861년
생성된
6세기
격투
국적을
대북
보복
시가지
어찌
은메달
죽게
채취
함흥
##어스
##사한
의미이다
아래는
캐나다에서
##클리드
메뉴
몸은
시장의
조국
토리노
협력을
힘으로
##치히
##장사
공격하는
시간의
##위원회에
개편되었다
후쿠오카현
결선
병사를
엘리트
자란
해남
##모스
이탈리아는
자리하고
0이
a의
교정
루키
수산
여성을
원정을
직책을
##트루
##가수
##바둑
##감의
1887년
묘사한
쿠데타를
용인시
와일드
ber
누적
본부를
서대문
시립
의회에
지내는
창출
행동에
##mc
정책의
패배한
오이타
미토콘드리아
광학
대마
성전
정이다
흥미
##직은
8월에는
추정하고
공항은
몬테네
하느님의
리바
카사
크레이
포스터
효종
##당한다
##퍼는
##각으로
담당하였다
뉴욕주
아프리카의
성장하였다
북서부
아날로그
3선
동등한
사형을
세우는
이회
칼로
항쟁
##2는
##암의
##히데
내용에
필요성을
기관이다
공산당의
궁정
다발
드는
보강
불변
우아
출석
튀르크
모두를
##회의를
수행했다
규모를
발달한
최연소
ta
구하기
맨해튼
펜싱
헌신
##원인
##야스
##물리학
##안에서
지방도
고이
나노
옮긴
패하였다
##보장
##유예
에서의
14개
이용해서
옮겨졌다
세인트루이스
ur
다크
다목적
방화
예선을
장인
전수
탐구
협주
호족
홈경기
##피에
만들었고
정당이
비영리
고아
다리가
변동
섭정
전전
추종
칼뱅
##코딩
##상도
##요의
있어서의
프로젝트는
만들어진다
아스널
가솔린
경복
낭만
대좌
전하고
치즈
카시
클러
##어리
##되어서
uss
요격
##하와
##보와
##루스는
##더가
일본군은
##ision
승리했다
전해지는
일어나지
프란치
코호몰
군부
기니
남미
드디어
##술의
##생은
음반으로
추정되며
홍콩에서
죽음에
park
과도한
메릴랜드
2시
4세기
병원에
보낸다
이겨
인증을
##역까지
##네티
##더를
표현할
다이쇼
주지사
키프로스
dra
공자
많지
문무
싸웠
안나
정이
파나마
함수를
##lo
##행동
운행이
인간을
2차원
소재지는
bs
다저
명인
##정리
##층으로
##편은
정치적으로
지원하기
대항하는
약속을
방사능
순으로
온도는
왕조가
집어
집정
천천
후세
##티시
##유지
활발하게
논쟁이
조반니
나이는
남베트남
부에
생겼
연인
자책
황제를
##자르
##야와
##대대
##창의
참가할
기술적
모습이다
1863년
않아도
북서쪽
독자적으로
구이
부다
수락
재래
직책
차관
##기계
##전달
##포와
##주의적인
로마로
회원국
산맥의
솔로몬
정기적으로
하느님
1위로
4의
유료
재일
폭이
##직하고
국가인
경제는
분류하고
대전의
##르타뉴
후계자로
함경북도
3인
50년
5세기
동력
제대
총리로
파푸아
##사사
##심과
##심으로
##루시아
##제작
##미노
##직의
것이나
진출한다
1891년
운행되고
밝혀지지
전략적
스튜디오에서
카탈루냐
3분
abc
your
본부는
재해
철폐
티켓
하르
##운의
##롭고
##언어
역할은
표현은
학생들은
보호하는
part
일제강점기
강철
견해가
나지
나를
브르타뉴
이현
자민
##회전
##누스의
시작하고
기간동안
천문학
2연
공고
열을
예전에
옥타
율리우스
일기
조형
패했다
확신
확진
##아과
12세기
##ark
1864년
##지역에서
작가이다
연기했다
곳곳에
급속히
무역을
지자
콜린
탄자
파병
##트넘
##천사
##카쓰
1998
참여할
##위원회에서
인간은
##cm의
바다의
전반적인
포유류의
40년
광양
살게
조인
##네마
##년이
보호하고
기념하기
club
성씨이다
애슬레틱
것입니다
결별
극락
상파
생리
서스
심근
요인
이완
##는가
##ator
설립하여
##ille
논란을
미래통합
미야자키
세네갈
김옥균
if
soc
경로를
관절
낮다
대기업
방안을
읽고
파란
하비
##i는
##나기
##군다
##6호로
사용되어
시작할
소유한
민족문제연구소의
손해배
1개월
도사
복장
산을
올드
우유
잃게
지극
##색이다
##신인
##8호로
##미스
##불이
12개의
7월부터
발전하였다
확정되었다
저지대
의혹이
경력이
레스토
소피아
속이다
예는
조로
추존
히메
##노리
14세기
의미하며
마르틴
아나톨
미드필더로
최고인민회의
놓인
데모
매킨
목적이
치는
##자라고
##sa
##토록
##례의
##료는
##출력
##히코
이용되고
유지할
명령에
타이틀곡
도메인
대단히
이바지
거점으로
낙하
드라
마누엘
변광
손실을
아브
전구
회귀
##화할
##슬리
7월에는
영향력이
설립되어
국회의원을
효과적인
2m
관동
김지
당대의
몽고
사슴
수학적
연동
우치
전자의
진한
질량을
최강
##에의
19세기에
그녀에게
체결된
맛을
박지
상록
원천
점수
투여
포식
함대를
##하이드
##분열
지역에는
자료는
예술가
파견하여
받아들였다
우려가
사쓰마
친일반민족행위진상규명위원회가
렌즈
실재
아메
##어족
##평의
##쥐는
아이즈
않았다는
언론인
대륙의
마다가스카르
led
값은
군정
느다
볼티모
서부의
여겼다
이코
장을
풍자
한계를
##트레
##아래
##태수
1996
대한민국에는
올림피아
공화국이
안정적인
mark
비주얼
노면
래퍼
서진
시도를
항성의
##단에는
아이가
##ott
결승전에
반란이
나루
넣는
도로는
맡기도
순위를
어촌
연이어
일화
좌의
카프
##말은
##죄로
##히지
9월에는
대표는
생각이
비롯된
서비스가
계통의
감옥에
7시
mem
검거
관세
맡는
무솔리
송파
정몽
키예프
타지
탑신
##승의
##리쿠
##데라
가장자
프랑스로
음반에
서로의
지배하는
유래되었다
2에
독창
동메달
오아
점과
주계열
키스
##ero
15분
임명되었으며
언론에
불과하다
면이
별자리
복선
산에
상서
알프레
페트로
혁명이
##현에서
위치가
진행하였다
어느날
조지프
투표에서
정상적인
밴드를
생방송
함수는
헌액
후예
##되다가
##세키
투수이다
##ubl
bas
동형
북유럽
시신을
시신은
이스탄
적게
쳐들어
춤을
행진
##관계에
##보리
##4호로
동안에는
받았던
걸쳐서
##바야시
유러피언
뉴캐슬
모호
버마
취업
테네시
화학적
##3호로
##천면
##링겐
##린과
대한민국을
활약으로
1592년
명확히
##디나비아
팔작지붕
kar
기이
별을
불분
비엔
##전부터
##로프
##타수
마이애
들어가게
둘러싸인
명확한
미쓰비시
프란체스코
가중
김민
넓고
서산
선봉
성명
점거
클레이
황도
##색과
##테른
사회민주
220
기원후
프로그램으로
##ings
1881년
추구하는
가공의
open
경과
남하
냉전
부채
야외
지미
체제의
파고
##궁을
기록과
주변에는
신앙을
7세기
달라고
병자
사상의
성리
세비
소행
쓰기도
접수
평을
핑크
##니오
한국을
그룹이
컴퓨터의
침공을
##도서관
단원
별명이
세습
온난
워너
절벽
타르
##자금
##토프
##비오
##여명의
1997
구성은
독립적으로
stud
1988년에
탈락했다
1군에
남았다
도래
범유
병력이
수복
신민
악의
이준
파는
##시인
##지거나
##방과
##단했다
##청과
##스트가
그래미
장남으로
레인저
애비뉴
mb
노인
노랑
믿었다
빠졌다
위구르
입국
정려
참수
평의
후배
##정부가
##학사
##록을
##묘한
서울중앙
정의를
제30
비판하였다
여겨지는
스테파
체계는
가와사키
커뮤니케이션
오케스트
공휴
정선
##pp
##마스터
##변속
##믹스
100년
중앙의
분야를
선고받았다
1이
교사로
기인
바흐
우두
한중
##역이며
##집의
##양에
따르고
개인적
공항으로
향토유적
##과정에서
흥선대원
단어가
미에
출처
##명칭
작품에서
인간과
반응은
지닌다
효율적으로
펠리페
거점
스플
일대에서
증상을
##전까지
##정신
##케는
11시
##ange
4세는
ost
경주시
공존
달고
무작
신종
오대
장면이
조슈
찍은
##자에서
##90
##정부는
##리이
##동시
##나라가
유지했다
1860년
분석을
spec
micro
23년
나트륨
랜드
아리아
통보
##테크
음악은
컴퓨터를
단체인
차례에
성향을
sns
아오모리
말미암아
고추
관상
등에게
오크
원활
이누
총을
한해
홍수
##5호로
##광이
##g이다
경제를
##amm
옥스퍼드
럭비
말과
부합
윌슨
인과
죽기
호프
##경비
##일인
2009년에는
일으킨다
공간에
1870년
보이게
원칙을
스트라이크
안드레아
당내
동네
소통
제주시
체제가
##조리
##테리아
##복음
##토로
##큐슈
시작되었고
생산이
1876년
반응이
우크라이나의
tbs
김인
문하
비전
소의
없으므로
워크
장녀
집회
##토쿠
##초가
##있어
##학교의
연구에서
진출할
적용된다
개칭되었다
오세아
1m
간혹
누나
도루
모색
본인
인가
접어들
종신
평민
해부
##나에서
##치에서
##회사가
##브가
##약의
러시아와
정보는
요구하였다
위원회는
결합하여
미하일
cj
국한
동서로
복용
산호
의원의
첨단
##키타
##련된
##ze
들어왔다
으로도
사망자
출연하여
국내에서
##ows
스칸디나비아
열심히
3일부터
4가지
가타
남성의
맛이
생전에
평탄
##당했고
##나파
##파리
분류한다
대전차
가문이
집합의
인기있는
가라앉
5시
거창
교양
끼고
되므로
모신
목재
##스콘
##ral
##리마
##성인
##독을
그러고
중심을
1년에
2분
가문을
곱셈
공명
달리는
마셜
선천
시장이
위를
일차
직을
현대에
효과는
##당할
##론으로
##융합
##ini
1872년
파괴되었다
몇몇의
귀국하여
##방향으로
b의
그저
단계에
세라
승용
조에
체조
##자고
##cs
##들이었다
프랑스를
보고서
버전으로
의혹을
마천루
노후
물과
사쿠
쌓았다
오락
잡는
장점이
좀더
##속도
fc에
공간으로
후반부터
자녀를
포유류
브뤼셀
상파울
6번째
레이스
선행
저격
중등
태권도
혼성
##내려
한편으로는
부르게
저항을
취득하였다
레오폴
##ular
등지에
일진
정동
지출
카타르
쿠웨이트
##기며
##부원군
##와라
##폐합
시리즈이다
네이션스컵
가사를
밖에서
배에
신주쿠
철종
##포시
##손의
국무총리
외야수
ios
박종
영장
요절
##런은
##번호는
##섬의
20분
평가했다
비교하여
젊은이
가격은
느끼고
지칭하는
놀라운
강화를
거쳤다
공백
농부
루카
베리
종이다
켈트
파벌
폐렴
표를
피오
현을
##나로
##들처럼
##32
##업과
것이므로
30일까지
역임했고
자료로
국가대표팀에서
검사를
번창
이베리아
##복은
##초는
##독한
##mus
##레이크
2007년에는
정의에
이동하는
phil
법칙을
tre
교회는
기법을
부파
의회가
제너
코시
##평론
##사범
##피크
수록되었다
외국어
달러에
가져다
나타나지
부모의
콘스탄티
천천히
4로
거리의
군용
드리
수교
수필
안도
역도
전락
주니치
##서스
##사유
##나시
포함되지
##로마치
거다
거칠
삼층석탑
세트
시어
일족
##내었다
##페스트
##패의
진행을
생활에
int
##지역으로
증거를
강하다
수사를
오기
피할
##oo
##회원
##갔으나
이론에서
##지방선거
이번에는
대규모의
associ
루이지애나
김준
분수
서귀
신세계
여지가
온다
은신
정제
주권
커서
한족
##선생
15세
10월에는
개발하였다
are
cat
못했지만
삼림
숨을
앞선
양육
잠정
##버스는
##복이
##한은
##배에
##달마
##틴은
이용하고
계획의
결혼한
연합군은
아프리카계
마르티
아직까지
보석
소극
시몬
예고
요제프
케빈
휘말
##스투
##ler
##회사의
활동의
영국군
2006년에는
공간이다
방지하기
평론가
관목
나무를
로페
무안
부평
언어가
전산
직행
##호르
##매김
##품은
##플레
아이폰
되어야
##km이다
관련되어
자유민주
2008년에는
가운데에
충청남도의
당선된
친구인
어렵게
도덕적
중성자
와카야마
감수
달에
덴쇼
성적이
어시스트
탈취
##정권
##버른
##통상
##바리
##금과
##여성
##는다는
기준이
전투로
항공사
노스캐롤라이나
미루어
win
고든
국외
노조
대도
양측
용어가
유학생
이모
전화를
지는
카테
키르
##라호
##집은
##줄기
##마크
##달라
##길에
##놀이
경기장에서
계속된
건립된
공장에서
관제
노바
법에
유역
##대칭
##하우
##들리
##마리의
##료가
사용하게
1970년대에
##led
소설이다
가르침을
지명되었다
북서쪽으로
히틀러는
준우승에
euro
아이스하키
야쿠르트
7대
길다
무로마치
연희
예로는
이메
진수
퍼포
##개에
##ative
지상파
제한을
바다를
평안도
j2
만난다
문경
반전
밴쿠버
연호를
인재
질문
페로
##지능
##전략
##화하기
##오자
##종인
##세력
##삼진
##름의
30만
이르게
출판된
전해지고
채택되었다
도르트
맞았다
바오
에레
칼을
호랑
후작
##도상
##적과
##여단
##후가
노동당
장기간
케이프
##스테르담
푸에르토리코
city
넘어서
막대
매체
발기
상부
##하겠다
##sch
##상업
##년을
사용자의
영국으로
차지했고
2005년에는
제4대
경인
급격한
나일
너비
딸과
사의
설비
쳤다
택시
##ka
##히게
##케의
##라이어
##리그에
##학과에
##aceae
5회
pat
그밖에
김원
미키
손잡
신학자
원소는
정성
카지
##하되
##레스는
##미사
##장로
##1호로
##증에
위치로
어머니와
##시켜서
1873년
참석한
헬싱키
bus
그만큼
도박
무명
우간다
철학적
칭송
형식은
##위한
공격이
cre
경계에
귀속
발해
서열
성도
왕과
적외선
컨테이너
##부아
##22
##노스케
km이다
대중교통
설계되었다
요청에
천황은
베네토
공헌하였다
데스크톱
이스탄불
ft
구니
당국은
동사
불화
중위
지부
참의
##gn
##몽골
존재했다
일반적
발표하고
중앙아메리카
플레이어가
그룹을
합격하여
jap
간첩
나갈
내무부
로버
미션
뿐이었다
없었으며
영어를
은혜
컨트리
하프
##결혼
국가보안
정치가이다
그것의
robert
규칙을
serv
대청
바우
염려
자제
저는
종래의
지시를
징병
했기
##시이다
##라디오
##포에
##함대
##대학의
구간에
가족이
정차한다
분기점
##한국당
피렌체
mil
가기
구한
대접
더비
색이
아치
지사
천수
한가
##퍼런스
##척이
15일부터
12월에는
유럽에
어머니를
대비하여
아키텍처
best
갈래
박성
비중이
아쿠
전역을
조현
주었고
켄터
포로가
폭파
##진보
##하르
##노와
##고에서
##례로
##유사
##약이
2010년에는
데뷔골을
발전소
명령했다
국왕이
6번
대출
브랜
블레
쉽다
아빠
우지
키보
훈장을
##로폰
##3명이다
##유산으로
##후이
사용하던
16세
지방은
##리스가
실시했다
아들이며
급히
뿌리를
유혹
정당의
한림
##hr
##법률
##배가
##ara
설립하고
구조와
집합을
높여
단장
도피
우세
제천
청량
체제로
패하여
허드
##지던
##cus
##절에
##ya
##격은
5월에는
##unt
노선에
1865년
전달하는
서양의
살아남은
포켓몬스터
1등
2명이
3m
5의
롬바르
밀도가
오일러
의과대학
인력
##오에
##법원에서
##요는
##디와
##건축
3월까지
유래는
밝혀진
단계로
techn
어드벤처
american
2를
ib
von
군벌
대화를
동부의
띠는
사신
영역에서
토크
##메트
##거의
##요리
##약으로
6월에는
독일군의
##let
기원은
300만
연루되어
관장하는
elect
e스포츠
백과
왕조를
원소의
유해
트렌
하급
##사단의
##간으로
##니크
##제철
20개
들어오는
4월에는
##시키는데
심지어는
의약품
입는
총무
카세
판정을
##ior
##수단
##천은
##국이다
##저는
##벨트
##ano
컴퓨팅
대수적
프린스턴
제후로
##가능한
4천
na
의지를
쪽이
채굴
##티넘
##좌를
일반적이다
공격은
##ura
기관이
치명적인
겪은
머리카
멜버른
적분
조계
측에서
##견이
##든다
계속되는
전라남도의
하늘을
줄어들었다
것의
단체가
대에
무서
비는
아유
재차
직사
페니
##했음에도
##택이
음악적
종목에서
강조하는
gp
공예
교회가
기지를
끌어들
수중
##제이다
##합성
##샤오
##시켜야
취임한
전반적으로
불확실
5명의
감찰
김윤
대령
모른
실무
이바라
준수
총애를
취한
##하더라도
##go
기록이다
그룹으로
##시간은
통합되었다
##ops
국립공원
극장에서
맡았던
모범
배터
불완
이기고
##스퍼
##서인
##로스의
##안보
##브와
가능성도
240
1일에는
예정이었다
수준을
tour
##조판서를
##ike
벌어지는
고시엔
center
국회에서
기고
실각
악마
옆으로
중원
증폭
출전을
##라니
##방정
##봉은
##매를
##킨스
##타도
##놓았다
마음의
캐릭터를
해밀턴
공성
그외
남자가
단계를
도둑
모른다
생명을
이창
장이
치환
하워드
##조한
##교사
##민스터
유명하며
##urus
이론이
기관의
1880년
1869년
영토로
몸길이가
안장되었다
과장
교회에
김천
인원
장소를
크리에
평야
1980년대에
21세기
수행하고
arch
논쟁을
검찰은
면적의
불행
여배우
운수
장관이
전하
제명
프레이
회장으로
##사항
##8명이다
##배치
도입했다
영토가
중요하게
아무것도
주인공으로
우에스기
##ouse
7번
맞춘
침묵
헤어
화해
##끄러
3월부터
##시키면서
1867년
1987년에
근거가
프랜차
미나모토노
nt
구장
도스
모르고
섬이
원리를
항등
현장에서
##칸의
##100
출마하여
usb
max
광범위하게
면서
아들은
징수
참의원
캄페
파면
해왕
##공사의
##비용
프랑스군은
국제적으로
제한이
언급했다
효율적인
필수적인
오클라호
건널
공장을
대위
미합
손상을
수차례
스칼라
알맞
자기가
제재
##가미
선거인
성장했다
##erson
플랫폼을
타이거즈
9시에
cam
hms
뜻에서
비치
소외
스와
예멘
오해
제로
##가쿠
##황의
##충은
2004년에는
요시다
from
sal
김명
나미
매력
뮤지션
반죽
양대
##선수로
##두었다
##훈이
제2회
구조이다
1862년
남서쪽
발탁되어
수요가
핵무기
일렉트로
각지에
달했다
뒤의
의문을
읽는
증진
지위에
캐시
##조사를
##지역을
##가요
##테스는
##운동이
단체는
##그룹의
bm
pi
거꾸
경호
구성을
송도
위생
태생의
##기하
##26
##화되고
##라나
##테는
##컵을
그리는
이름도
출연한다
시절을
생성되는
여름에는
알렉산드리아
철저히
프란치스코
4명
나간
보행
알폰
이봉
제임
중생
콘테스트
포럼
##기갑
##음으로써
##협정
##질에
##ball
##ym
##짐에
2012년에는
정보통신
부르주
소유의
탄핵을
##주식회사
2번째로
것과는
면을
부러
아카이
우왕
유클리드
파랑
##조치
국가들은
210
국민들의
비판하는
##기관이
확인된
측정하는
2호선
il
거치면서
광물
만났
상에서
심해
의원으로
이랜드
재난
재료로
##노카미
##버스가
##복합
##네오
##카에서
##속은
##박이
클럽은
나무로
야마모토
만주국
oh
공세를
과는
관점
급증
나가지
보낼
살짝
시위가
신동
자세를
판의
##게이트
##티드
##창이
10세
것이지만
조직에
사업이
증가했다
자료에
1878년
갈라져
영원히
소말리아
king
가이드
더빙
말에서
장르의
##통치
##락의
##단체의
##머는
##피오
제작하였다
이전하였다
진출하여
태양과
유래한다
배치되었다
thom
남편이
msl
지바현
ah
mit
xp
깃털
꽃잎
번갈
상기
송출
신원
암스테르담
적었다
준동
카이로
포털
##6명이다
##무의
##왔으나
##ety
500m
대사관
직후에
겨울에
하늘의
요르단
instit
2할
네모
보이지만
상소
안녕
완비
임의
전원이
주먹
##재산
##다오
##료의
가지지
임명했다
요구에
방식에
사후에
연산군
paul
각자의
못했던
본인은
샌디에
퍼스트
포토
##화산
##락은
지나면
배치된
움직임이
원칙적으로
대표팀의
글로브
인도네시아의
취소되었다
리더십
record
거리에서
단거리
못하도록
소식이
수업을
입자의
자원을
치렀
파우
##다와
##렉션
##럴드
이곳의
인민군
삼국시대
노르망디
나우
벨리
수염
아들의
의령
출구
##자라는
##니코
##루에서
##근은
##초와
##양성
아이언
러시아에서
작곡하였다
비정상
트럼프
쿠르드
신한은행
두꺼운
ger
글러
동등
옥수수
장원
퇴직
##바가
##활성
나타날
학교는
이동할
학생이
표기한다
후손들이
##브리엘
ram
계엄
글자를
등에서는
무술
사단은
산으로
오미
요하
찬양
찾고
포츠
활주로
##이야
##기면서
##다람쥐
##포드
공격할
노래가
겨울에는
이산화탄
감자
금환
발착
배향
버스를
부당
비중을
슈투
일일
자카
전대
차세대
행위는
헌납
##공으로
##모에
##살에
영화에서
3월에는
작품인
음악과
비교해
분포하는
완성되었다
상업적
##프랑스
5일부터
두각을
미세
성적은
커플
##커를
##티를
##것이
##맥을
##엔터
중국에서는
그림은
소재한
바람이
비율을
end
크로아티아의
군인이다
남작
막스
묻혀
온두
자진
적당한
지점에서
질소
##프턴
인도에서
교황이
종류로
대성당
##상태가
5cm
노보
대나무
동요
만드
복권
증상
측이
친구가
##시브
##르다
##전에는
##근을
고려사
이적한
활용하여
##세포의
경전철
피츠버그
끼쳤다
맹활
않다고
인원은
주주
팔꿈
훈장
흥미를
##천과
##남부
##막이
시작되었으며
정보의
적용되는
705
발행하는
1985년에
등급을
플래티넘
성남시
david
let
wr
외래
지린
특집
회사에
##데자
##창은
##참찬
축구단
공개적으로
주변에서
거주한다
올리브
##여자대학교
고유한
무시하고
맥아
비스타
시합
여부
책으로
태그
힐베르트
거쳐서
시티즌
도르트문
8세기
9세기
걸리는
농축
불에
연설을
##관인
한국독립
##레이트
서로를
노래의
원칙에
분쟁을
투쟁을
2tv
공리
동탁
등지
먹이는
성에서
신상
안전을
정주
##으려는
##리얼
##절의
##민들이
이어주는
공격하였다
지하에
체결했다
고향으로
아들이자
목소리
공소
암모
와인
총회
##예가
##륜구
문화에
시간과
국민투표
이사회
이주한
너무나
아랍어
우루과
게오르크
hot
sol
각국
무대에서
숙부
양식으로
자서
잔존
집착
포터
하타
##카쿠
##마력
##그러
##웠던
구성하고
제2의
상태는
대중의
##프로세
수원시
dream
가쿠
남방
싸이
차고
항목
유지하였다
노래로
받았는데
현재까지도
더글러스
2위로
기법
두개의
백만
봉해
순항
안되는
와세다
저자
##호텔
##c는
##za
1994
자격이
거꾸로
24년
가던
교류를
군대와
막고
밀도
설계를
앤더
없으면
위스콘
이사를
초당
초부터
함양
헌병
##전대
##문서
##회관
##통과
##암은
일부의
##대학을
inf
조약으로
할리우드
그나마
대사를
목회
반역
승하
위촉
작전은
직계
##심에
##천으로
##삼존
사실에
음반이
##tern
결승골을
1874년
주인공이
근본적인
대량으로
7번째
sim
면적이
숲에서
연대는
용서
장소에서
행성은
##시기
##cr
##종교
##거가
한다면
이론적
정당은
1875년
증거는
빠져나
완벽하게
본질적
3남
강으로
구호
길이를
늦은
로키
모았다
어우
이항
자국의
전적으로
중합
키릴
##스키는
##전용
##코토
과정의
반대하였다
헌법의
에너지의
1차전
남동부
북동쪽으로
비단털
rt
기성
로비
##s의
##리면
##투로
##직되었다
##증과
##쳤으나
설치했다
진행되어
라틴어로
남서부
공헌을
앤드루
3억
aut
she
군중
당황
사상이
음원
전적
정종
조부
혼다
##nd
##선형
##녀가
프로모
경기장은
행정부
선언을
분쟁이
중소기업
##데자네이
규정이
너머
마애
박사는
속하게
열려
예가
의회를
카바
##원자
##분한
##두의
##있지
##됐던
제1대
존재는
진행한다
구조에
조약의
##berg
공직선거
3시
fri
데카
머리가
번도
위원으로
해에는
##대서양
##수입
##러드
##감사
폐지하고
##스키의
다카라
아내가
나누는
북서부에
소수민족
구멍이
몸무게
자택에서
6일부터
vir
골짜
때를
붕어
상점
시기가
실리
왕에게
##공단
##율과
북부와
증명하였다
빅토르
집안에서
무산되었다
조선인민군
2집
song
고장
공적
구금
김광
말린
바와
작사가
##분류
##질환
##타워
지역에서만
의사소
남편의
피아니스트
퍼포먼
j리그
강행
극도로
떠난다
모금
바울
서인
쉽지
식사
여단
주임
천왕
##런의
##면적
##누마
##연합회
apg
장악하고
승진했다
포도당
엑스박스
익스플로
gnu
2단
james
공로
답변
오디
육체
일원이
주전으로
콜레
타케
패해
##p는
##cl
##통에
##우로
##례에
##군주
1960년대에
경제적으로
가리켜
물리학자
국가대표팀은
파견되었다
라이온즈
위키백과
유라시아
광해
구독
군복
단말
도키
두지
말도
벌이는
앞세
없었지만
위함
인적
주부
##알라
##7명이다
##fm
##궁에
##되었음을
야구를
이론과
클럽에서
예정인
엔진의
편찬한
##여자고등학교
마비
버린다
성북
최장
카네
향상을
회장이
##스틱
##르에
##오던
##ci
##cess
##공장
##공화국의
##순은
활동으로
일부이다
이어지고
2018년에
2004년부터
##시간이
과학의
지속되었다
제안한
종류에
죽음으로
나카무라
취득했다
이바라키
두가지
띠며
애완
엔트
조그
청송
친족
##아노
##선발
1940년대
2007년부터
##스터는
2006년부터
이슬람교
공부했다
##시험에
레스토랑
3위로
award
높았다
드레
박해
불신
싶다
위조
칸은
##할린
활동과
제작했다
주장으로
독립한
stat
증가하였다
작업은
이주했다
스테이션
거절하였다
받아들이지
라이선스
모빌
미성
베오
부교
원종
유스
읽을
정칙
철학을
편이
휴게
9월부터
애니메이션이다
책임이
구에
반정부
베풀
않다는
이제는
종묘
하므로
##정지
##청으로
##망은
##방송을
조지아의
집합이다
성격의
네트워크를
##사무소
대다수의
프랜시스
오세아니아
개기일
물체
사신을
새마을
유수
전기를
초콜
취리히
퇴장
##수로서
##1은
##표의
법률을
soci
둘레
등번호
문종
법은
일가
자위
정인
출동
##도스
##쳐서
이름에
교육에
##대학으로
아시아의
법률에
출입구
바닥에
후지와라
알제리
켄터키
5km
bi
hen
공안
과연
내며
맥주
메틸
문자로
보은
복역
혼혈
화재로
##치면
10일부터
##였다는
항공사로
경찰서
피해자
성립된
장악한
카스티야
3점
line
그릴
무언
방어를
상고
수목
앵글로
여인
전멸
책에서
클루
하키
회상
##by
##무기
그러다
중국공산당
##부분에
지방과
판매되었다
합류하여
필리핀의
서초구
3단
dos
sur
거세
고마
루돌프
보기도
에른
죽여
줄이기
중이며
##코로
##네를
##증권
##0년부터
15개
사이에서는
참여를
참가해
##이라며
총칭이다
리우데자네이
마닐라
long
금산
니켈
다윈
성명을
어리
장치가
코린
코드는
퍼즐
평원
##화문
##문인
##b는
##달라는
##겠지만
부분일
1일을
2005년부터
인물의
인물은
현대적인
오늘에
이해하는
체결하였다
api
권한이
아카데미상
매장되었다
4승
만년
매표
분홍
쓰이지
일괄
일식은
입수
토트넘
투어를
행해
행사가
##와서
##보국
##ery
위치하여
감독에
보통의
대체할
문서이다
경성부
목소리가
구멍을
아나운서
수수께
sun
방송되는
번째는
선거가
거부하였다
당선되어
지진으로
느끼는
수컷은
유니버설
도미니카
hol
꿈꾸
반입
상소를
소작
오산
자명
##어류
##변호
##vid
하나씩
러시아어
인해서
승강장의
발전과
전국동시
결합을
##tain
클라우드
잃어버린
college
5개월
남산
배달
부회
염소
외부의
이홍
첼시
튼튼
##만으로는
##히드
##붙였다
사용자는
스타일을
fir
현대자동차
이와테
스트레
승리하였다
언론의
즉위하였다
이주하여
종목에
신설된
성능이
철저한
라파엘
토스카나
오클라호마
22년
cy
dec
법안을
슈타
신진
앞둔
이보다
재팬
전차를
##지로서
##지라도
##왕국
##번으로
기록했으며
방송이
인정받았다
교황청
증가하는
북한은
달라진다
명확하게
free
a3
공장이
구역으로
다쓰
맹세
범위는
비어
완결
정도는
케이스
해안을
##사다
##wn
##후는
##콜라
1980년에
인물을
이끌었고
집행유예
마카오
전성기를
big
대덕
릴레이
밀란
선으로
신석기
왕조는
음이
자립
재편성
직교
패하고
형제는
##소인
##ho
##천년
200여
2011년에는
지원이
대체적으로
이승만은
##고등보통학교
북극점에서
jtbc
순차
양력
우체
투자를
파시즘
화랑
##물리
##손을
대한제국의
기여한
부모는
app
출간되었다
국토교통
천연기념물
쓰레기
고치
만인
워드
한창
해군이
호랑이
##가게
##정사
##무덤
##디아의
##직이
##텐셜
1992
조선왕조
중국이
존재로
파견된
그린란드
충돌이
클린턴
날카로운
가브리엘
격려
경건
고트
곳이기도
굴복
남송
찍어
타인의
탁월한
##지리
##와도
##적이라고
##바위
##동원
##절로
##확인
중심지이다
러시아가
태풍정보
부임하였다
끝내기
낙동강
전국동시지방선거
깊게
리프트
성동
성매매
시스
조화를
형제가
##수송
##미치
##디드
사용했던
마을로
##기관인
금환일
ast
night
rich
둘이
마요
미식
민정
병력은
보며
비해서
이단
인정을
정권은
천사
크기와
팀이다
##승이
##탑을
##슨을
설립을
운동과
내려졌다
이성질
특성상
과시
규탄
라치오
매리
민감
불균
심야
아프
엄마
일간
전자는
질문에
책록
##자문
사람에
아이젠
생각한
바이어
국왕으로
1986년에
##데이터
벗어난
akb
4학년
교회에서
날로
말리
서자
서위
신을
자코
파충
폼페이
형용
##ks
##공연
##rol
2022년
##지방검찰청
요청하였다
계승한
amd
파라과이
펼쳐져
##타나베
카디널
bra
tu
격리
고생
마술
생일
얼룩
제왕
질량의
쿠빌
팬들의
호출
##대회에
##거리에서
야구장
결승에서
가톨릭교
project
강조했다
느끼게
계의
끝난다
났다
물은
생몰
아뢰
연대를
조항
집단의
해전
협회의
##공립
##탄은
##any
만들었으며
이루지
따르지
중요시
450
귀국한
##ization
class
크리에이
cia
근래
낮고
능동
다리는
말하자면
맞배
머리는
문자는
배운
법원은
본존
양보
요괴
있듯이
편안
해역
해독
##적한
##질과
14세
발표하여
받아서
역할로
평가가
시행된
##슬라프
곡물
목요일
본관으로
영천
포스
##라서
##4명이다
##추고
##gy
##합의
영국인
선언하고
부진으로
일러스트
병자호
3연
7일부터
cup
tom
김형
만장
상정
숫자는
신학적
알프스
이겼다
크기로
##9명이다
##화하였다
##루크
##제인
##5명이다
통과한
설계된
결성한
개찰구
노태우
수수께끼
6만
back
ht
고흥
부추
신입
않으므로
울릉
체르
카즈
흑백
##지어
##27
##ox
##들고
##급은
경우와
##리그에서
명칭이다
교황은
수행하였다
아키텐
인공지능
tri
도이
법이
브룩
순서로
저해
전주시
정리에
황폐
효력을
##28
##용과
##표로
##살을
##이었다는
조사에서
에스컬
교수이다
창설된
남서쪽으로
완공되었다
히어로즈
박영효
##엔터테인
hum
mov
고을
배의
살보면
수페르
영월
이언
직경
청계
통하는
휴대전
##사르
##심사
##암이
##강도
것이기
1월에는
교황으로
이동하여
연주를
승진하였다
미스터리
충렬왕
##네티컷
결핵
맡는다
명륜
석불
세분
찬사를
콘솔
포격
##45
##cm이고
교체되었다
road
일치한다
스튜어트
가토
길러
대승을
몰두
성질이
청도
테라
하쿠
학과
##로워
##로스는
##경쟁
##코치로
##임의
##현실
##순이
20일부터
활동했던
11월에는
행동이
방정식을
순서대로
2승
나빠
매립
색의
성악
안고
오시
청소
측면을
##르면서
##강한
않았을
40여
alb
확실하지
방정식
테스트를
심사위원
인테르나
fk
납부
다수를
배터리
사각
의용
조소
##일기
##봉의
##번대
##곡리
##순의
2008년부터
그룹에
방향의
아내인
단백질의
##peg
프레임워
가늘고
association
구경
상에
성문
영암
정적
지탱
한달
##lin
##포타
##미네
##블릿
독일군은
우승과
로마를
발매됐다
시민의
접근을
이주하였다
근거하여
세력으로
##리우스는
프로세스
이뤄진
하노이
bab
내린다
불필
산티아
연관이
자민당
조의
최남
##어사
##2명이다
##군인
##극을
##늦게
대전에서
추가된
주변을
기념하는
##트가르트
전설에
들어서면서
신청을
ktx
##라에몽
구내
굴절
글리코
도출
리스트
보자
상품을
시중
종식
죽임을
토목
헤센
##나가의
##퍼레이션
##1명이다
지방으로
기반이
조사한
에너지는
즉위하자
가톨릭교회의
트레이닝
논의가
메시지
인상적인
1명이
법적으로
신학교
오자
정관
##로쿠
##메이트
##노부
##수염
##구스
##약은
주장도
##uss
생성된다
기초한
에이전
개정으로
##ship
4일부터
곡들은
공적을
마땅
모차
미군은
수만
원소를
조조는
중견
추축
##당하자
##오게
##네르
##구멍
기술과
조직된
정의된
보통은
##ode
통일을
노르만
가르치는
설정되어
동원하여
2일부터
거란
꼬리는
라쿠
레버
버스가
얻었고
직속
희곡
##술은
##지법
##ila
##하늘
##잉글랜드
##채의
아이들을
민주당의
아무리
혼자서
강의를
기대를
도리
사바나
정화
지분을
코네티컷
패럴
혈관
##남에
##흐트
##캠퍼
다시금
지정한
국내에
조약은
기후는
달아났다
평균자책점
탄자니아
가루
구획
남인
달린다
동인도
믿는다
보였고
부부는
불상이다
시체를
신봉
요정
인형
정경
정읍
취하는
##테의
##바오
##궤도
1993
시즌에서는
2009년부터
거두어
식민지를
미래를
남서부에
저지른
ext
주어졌을
방사선
##유가행
무늬가
차가운
위스콘신
과학자들은
군청
극한
맞춤
선양
신천
오와
응급
정박
친왕
칭기
현역에서
##메드
##광은
##장에게
##까지를
##ars
##라이드
260
레이싱
국내의
##바이러
미군정
무사히
hel
mid
mich
같다고
동진
디에
손녀
애기
종영
한의
##미나
##세였다
##타점
사업의
조건에
합류하였다
프란시스코
플레이오프에
fun
복무를
쓰나
유망
조조가
향하여
황색
##니언
##발생
##두가
##빛이
##빛을
##채와
##ors
기준에
스스로의
살해한
5명
lou
공감
광고를
군과
독서
리조
머신
없음을
요원
원고
이같은
일주일
주세
지분
팔아
히브리
10억
1990년대에
되어서
뛰어넘
노르드
북동부에
무게는
거처
물결
신은
잎이
조차
조정은
##하길
##군도
##배의
도시와
여성은
간행된
4세의
뒤에서
마키
명나라의
무네
보름
성행
와는
왕인
정해져
지침
추억
해준다
##정부를
##코를
##공사가
##판매
경우이다
5월부터
사회가
시민들의
명령으로
거두었고
강력하게
무너뜨
##무장관
프랭클린
사간원
신시내
봉수
살며
아쉬
우물
의사가
조심
펼친
플리
##다니는
##디자인
10위
이후인
6월까지
돌아가는
기관을
지내다가
세웠고
착공하여
유식유가행
3호
고온
마스코
전제로
조영
형의
##35
##바브
##절도사
##체제를
##른베르크
지방선거
표현의
통합되어
연주자
해석을
인플레이션
도라에몽
리베르
매직
바스
방공
배척
수은
자처
저그
적발
제의를
##쿠르
사망할
경찰관
사랑과
시민권을
남동쪽으로
ba
격렬
고르
나리타
부풀
연달아
제인
조롱
혐오
##시다
##지않
##공과
000m
발전했다
시민들이
총독부
학술적
가드
미트라
시선
신기
일각
임원
후방
제26
생산하고
언어이다
1877년
공화국은
사라지고
000년
엘리자베
sing
국기
단체를
드레스
번은
시국
아드리아
양평
통폐합
##다발
##등과
프로그램인
ant
2003년부터
멤버가
1984년에
사태를
처벌을
플루토
백악기
시외버스
방글라데시
cg
갔다가
납작
뜻하며
먹기도
먼지
명단의
발동
백신
세븐
여자가
입어
자릿
주일
지켰다
체스
칼럼
편을
항만
##사자
##바와
##몬트
##농업
사업은
모양인
종교는
행동은
1세대
베르나
전사했다
무엇을
미드필더이다
익스프레스
3시에
dd
군함
기차
꽃을
놓아
산이다
습득
연중
이륙
일하였다
있은
정리를
채소
황실
##시으로써
##술이
##리스는
##동물의
##저를
##혔고
국가정보
우승으로
필요하다고
전국에
##ugh
1세기
4시
8세
batt
ol
기사가
높이의
말고
시원
열릴
이례
정계
혜택을
##티와
##ger
##든가
11세기
1979년에
독일을
집중되어
웨스트민스터
브루클린
심리적
프리미어리그의
charles
2세를
pap
비옥
인코딩
자리는
필터
행위에
향했다
##신앙
##처분
##쾌한
스타일의
클럽으로
선출했다
사무총
밝혀져
기사이다
프리미엄
텍사스주
올스타전
blue
아틀레티코
die
간결
높이기
버그
번씩
블로
슬램
차르
합의를
##대리
##역인
##행과
##티즌
##크레
시대는
결승에
시민권
uefa컵
넘어갔다
미래에
물러난
재정적
극장판
볼로냐
꾸며
로베르
미군이
박상
빛나는
신분으로
오만
한겨
회원으로
##결과를
##군수
##마케
##골이
국가에서는
실시하였다
나오게
유사하게
언급하였다
것인가
http
거머
괴물
구슬
동전
본관
타타르
##마한
##하였으므로
10세기
이용이
50m
발달하였다
탑재한
얼굴은
구역상으로는
보냈고
소나타
국사
보이스
볼프
성우는
수단을
재계약
표기는
함대는
##선인
##익스피
12월부터
여러번
자유와
계속했다
아래에는
후보의
마을은
조건은
브란덴부르크
거시
걸프
기적
끝나는
색은
테무
##라드
##협회의
##층에서
##등기
##디로
사용되었으며
생산되는
분포하며
1972년에
발발하자
후계자
정교한
호소카와
곳이었다
범위가
비토
서바이
소생
의식이
임계
편이며
호모
##기아
##할수
##루엔
##상황
##태가
##장성
##움이
##탄이
일본식
##ari
문화는
생산한다
##스터의
지구로부터
champ
도로의
제품은
708
자이언츠의
영원한
클레멘스
카카오
2점
3가
9회
ear
가격을
근사
기압
다마스
문정
복수를
신전
여운
왕래
풍습
후유
##수교
##시키려
이탈리아를
개최한
다이빙
전라북도의
관할하고
바다로
하이브리
재직했다
함수이다
오리건
브리티시
1인당
rem
ve
게리
경량
눈물을
병에
손님
원소가
타는
효자
##코치
##공작
##방법
##투수
##형문화재
1970년에
6월부터
하였다고
##시키면
시리즈로
이해를
작가가
mart
##시설을
협력하여
대표팀에
부임한
화합물
그러고나서
bel
고쳤다
공시
공영
김승
끝을
당하는
서거
세상의
여기는
여론이
인위
입상
지을
키보드
##시안
##가락을
##mo
##오닝
##kt
##요일에
##모양
##0년까지
##하지도
영국에서는
계속하여
활약하며
50여
충청북도의
세포가
승리하여
공화국을
자리매김
움직일
처리하는
확대되었다
주둔하고
히틀러의
의거하여
type
힘썼다
3세기
8대
남성이
밀레
봉화
세례를
실권을
인테
일산
주기로
편으로
형을
##pc
##족으로
국가들이
중국으로
이상인
중앙은행
기관으로
연관되어
web
초콜릿
개로
금동
내포
둘다
많지만
완봉
위상을
저질
전봉
쪽의
화재가
##ax
##ris
##회사를
##고스
##광의
##훈의
일본군이
1990
만들기도
000명이
올림픽을
식민지의
가입하였다
얼굴에
##에너지
교부
기장
숫자를
여부는
지대에
촉발
프리스
##조연
##로니아
##인간
##비치는
##표준
기록하였고
구성요
아이콘
개발하는
중앙집
2013년에는
불가피
복귀하여
아내와
law
에른스트
lang
못하였고
보령
슈고
평상
##64
##친왕
감독직을
제27
개최되는
2위에
9일부터
궁중
당나라의
모하
버린
보이기
생길
실은
요인이
점검
조이
철강
총사령
추리
패스
푸아
한국이
지배하에
이듬해에
보수주의
채택하고
채널을
베어스
당사자
트윈스
pos
기원을
번호를
요즘
조회
행위가
혜성
회원이
힘의
##멕시코
1983년에
인구밀
도입하여
선정된
도착하여
제시하였다
1982년에
생물학
코트디
깨고
끝냈다
능력은
때와
북경
원심
즐거
총회에서
패트릭
##지이며
##담당
##왕복
음악이
지원했다
않았는데
요리토
일찍부터
메소포타
pan
관리가
구부
금호
대량의
보로
아디
엑스포
이심
익산
정예
질서
페라
휘발
##렸다는
##제도의
##섬유
##저의
##헌법
기준이다
평가받고
앨범에
2001년부터
##ody
구분할
작가로
기억을
fil
개미
모리스
바리
세가
송환
예일
요소로
자행
잠실
재개발
집적
캄파
휴양
##전력
##노르
##주간
##러와
##시아의
14일부터
##회의에
2011년부터
학생을
설명하기
유니언
부모님
득점하였다
머물러
뉴질랜드의
발탁되었다
마그네
다카라즈카
1조
jose
감상
겐지
견디
누리
먹이
연락을
윤보
이길
철도를
카피
라이너
정당한
조성되어
내세워
플랑크
파푸아뉴
ever
경매
뉘른베르크
병기
소용
신약성
없어진
일생
중개
집의
충칭
키르기
타인
핵탄
##전적
##무관
##좌의
활동하면서
결정하고
대학교는
드라마로
비교하면
강력히
제5대
안전하게
great
연호이다
슈투트가르트
3번째로
ok
눈은
땅에서
심화
아델
영역은
장치는
푸젠
필연
##서비
##so
##버의
##백화
##비크
##비우스
##0년에는
경우의
##위원장을
중앙정보
예술의
비율로
8강에
객원
기온이
꼬리를
모모
수인
씨를
의장을
입장에
죽이는
침범
크기에
픽처
형벌
후대에
##트트릭
##당시
##고지
##밴드
19일부터
일부러
정치의
생산되었다
##운동가
건설이
기타를
##ipp
목록을
이야기이다
제거하고
가로질러
선생님
제13대
비스마르크
##다니며
쿠빌라이
1점
utc
레일
변질
앞에는
어나
외국의
유체
이니
전장
제도와
죽었고
징계
케플러
풀백
##부시
##키스
##바를
##랑은
##팀에서
##규는
##막의
활동했고
자연의
여기고
개인용
보수적인
heart
무엇이
마운트
보헤미아
mlb
gold
신임을
투하
후자의
##사들은
##대비
##아에
##책이
##출판
##급으로
##팀과
1974년에
발생하고
반대하여
산업이
논란의
파견되어
회의에
헤르만
##ucn
김정일
발족하였으며
헤르체고비나
tim
갈색을
도읍
메카
무자
위원을
차원의
컨텐츠
콜럼
##호대
##하리
##하곤
##니우스
##고시
20세기에
1973년에
##ild
##osa
모양은
일반적으로는
담당한
사무소
마르쿠스
남부에서
스위치
황태자
그랑프리
wii
가졌고
겪게
광대한
구강
만날
반성
법안
법령
장벽
절망
주창
초회
##pm
##인구
##재와
##절도
##등은
그러면
가능성
그것에
연합군이
공간에서
바로크
건강한
##노동조합
단단한
도청
본사
소문
실수로
안토
야전
양서
연화
유정
이브
임기를
자사
즐기는
지오
측에서는
테베
##서울
##인산
##제사
##바스
##vent
1949년에
##ese
종교적인
임시로
위치해있다
아테네에서
마이애미
5세는
iucn
miss
가우
것들을
남매
디비
로타르
불타
엇갈
열두
월남
일기로
직업을
징집
찰리
하려고
##철학
시작되는
국제선
태양계
성장한
나뉘었다
조선민주주의인민공화국은
병사들이
고등학생
브레멘
증권거래
스카우트
설일체유부의
개수
걸린다
불량
설문
스몰
이들에게
전위
##로에서
##방식
있었기에
조직하여
스페인은
정책이
추정되고
기타큐슈
스트레스
시설이다
sat
라디
보류
장관은
재앙
족의
중용
진료
품은
##락에
국가들의
여성과
나무의
삼성전자
교회와
시도했다
홈런과
신화에서
라이프치히
div
est
고의
글이
목에
사할린
소가
정계에
크며
하후
##진구
##대회는
##주사
##개와
##피트
##피아의
발견되고
사망하면서
생각하여
정책으로
서식하고
1879년
거두고
제거하는
노부나가
705인
1칸
5가지
pal
ru
군마
급여
대를
도도
리히
목욕
반대를
불려
빠르고
사명을
소아시아
속했다
쓰게
에노
처리를
칠곡
컴백
튀어나
##키에
##라토
##보았다
##버스를
##위치
12월까지
개발하여
돌아오는
결합한
이사장
혼란에
아이디어를
각본가
시마즈
##레타리아
캄페오나
같았다
남자의
양상을
유닉스
자켓
줄이고
취할
특산
패밀리
##sp
##구간
##닌은
선수단
2월에는
이것에
데뷔했으며
##문화의
모델의
소설의
전해져
캐릭터가
감염된
베를린에서
문헌에
명나라에
광둥성
5위를
mot
관구
국철
도봉
오가는
충성을
홋카이
##부대를
##아트
##비안
##쉬는
참여하지
역할이
인정했다
여기서는
##km2이다
알렉스
이외에는
모스크바에서
청나라에
근위
내전이
당하여
도마뱀
뛰는
무리가
육지
제헌
호모토
##29
##임에
##비언
##단백
자신만의
국가들
구성한다
행정동
state
연주하는
치료에
살아가는
활용한
돌려보
디자인이
어려서부터
불분명
갈리
군데
뒤늦게
발톱
부주
생선
수증
여학생
오일
캐논
##말이
##아스
##요가
##ql
아이의
연합하여
공항이
이시카와
##ency
aa
sil
늘려
사수
시오
에페
원동
일주
일리
일삼
제동
철도는
퍼텐셜
형제의
##ru
##대수
##1호
##곡동
##움의
이상적인
성공한다
부산광역시의
레이더
비슷하지만
선택한
결합된
달성하였다
장착한
akb48
oper
무르
왕궁
우위를
재료를
패자
풀이
형이
확장을
##기만
##했기에
##때는
이상은
2010년부터
제공했다
데이터가
떨어진다
progr
전시되어
학문적
요미우
유용한
1단
god
공국
다행
도네
떠날
림프
변모
영사
온도를
왕정
의상
잡을
통킹
판본
히노
##다테
##정상
##례가
##처의
##클래
##딘은
##대학교는
서비스는
명의로
설계한
체포된
10년간
공유하는
생명체
##축구연맹
거룩
건안
단정
며느
발산
여주
의성
장자
주의를
죽는
칸이
캐리
파시스트
후루
##과와
##준을
영국군은
정도이며
시스템으로
이야기의
개봉된
지하철의
자체적으로
전설이
개시했다
루마니아의
imf
3명이
6명의
7만
감소로
규정한
둥지를
복종
비둘
시장은
양은
이조참
주제에
하기로
회사로
##치카
##노미
##리드
##업무
12시
시작을
시간대에
제공할
올라가는
왕국과
출생하여
구별된다
마르크스주의
이노우에
폭넓은
여우주연상
부다페스트
mt
과잉
권력의
단어의
묘지
살아가
스기
여타
위패를
유령
있으니
절도
탄수
##제일
##운은
##머가
##샤의
아이누
230
운동으로
시스템에서
학교가
입단한
대중적인
사라져
국정원
개그맨
안정을
에마
자체에
충무
크메르
##승은
##폭력
##아비
##판에서는
##불의
##먼의
국가이다
공개하였다
확인했다
주민등록
##ague
명예를
부모가
등급은
니콜라스
##텔레콤
유니폼을
dem
네티즌
대여
등산
미카와
반격을
벌이고
설명을
아쓰
연말
열리고
유영
집단이
피살
##달의
##언이
보고서를
##시간에
물질은
1859년
3위에
j1
당하였다
셰익스피
영덕
완수
재벌
한데
함은
해트트릭
호기
##마귀
##링의
##대학교에
붉은색
관료이다
임금이
dist
무어
무제
삶에
상가
예종
요시아
유지를
의정
잔여
장관으로
조경
중거리
##레와
항공기를
건물에
모양이다
입학했다
atc
도쿠시마
극단적인
오바마
플루토늄
경순
따랐다
명목으로
밑으로
방대한
배반
부등
산과
수시로
숫자가
아놀
잠입
전면에
정형
탈당
회장은
후원을
##움에
##먼이
##하기까지
기술로
돌아갈
추가적으로
관리한다
앨범인
지나가는
불교를
사령부
제7회
거절했다
대승불교의
무함마드
ul
강에서
개선을
날은
동의를
못했으며
묻혔다
반도에
별명으로
복속
승정원
예편
음주
점진
쳐서
초까지
최영
코리
통역
학명
화제를
##조작
##야말로
##문제를
##아로
##해질
##바인
##b의
##움과
언급이
기초가
연맹의
##시설이
고성능
아세틸
과테말라
mk
고후
길로
박원
벤처
앨라
입구에
증발
차이나
타우
##99
##모어
##프에서
##실점
##녀의
##ated
제작하는
역할도
마지막에
##app
근거를
제6대
로맨틱
이글스
제너럴
교장
김선
모스
살면서
외손
임기는
전리
정문
중랑
지명은
채색
철학의
카슈
현무
##wa
##설과
##fs
##타라
##필을
1988
대학은
소련군
어머니인
##기관을
없었다고
근거한
오스틴
탄생한
격파하고
mu
mg
가량의
말에는
몰도바
미만의
삼은
선조의
승낙
실효
종업
짧게
천장
초의
테두
투신
패망
하의
환자가
##만인
##태는
11일부터
인구를
출시했다
가르쳐
가정용
브래드
1남
3는
4분
공국의
매도
무기로
세토
신당
에반
여부에
용해
전력이
지날
파주
##ael
##닌다
##km로
그녀와
조직으로
음반인
내려오는
비행을
왕국에
수준이
인민해방
센터에서
사진이
성우로
미니시리즈
비틀즈의
대웅전
스리랑카
셀레우
gi
rs
격하
날려
대수의
동물을
명제
무찌
복수의
순례
이조
이범
전방
침체
##보지
##산염
##제조
##마라
##충이
프로테
사회민주주의
앨범으로
남부와
하이퍼
##iew
선고했다
##플레이오프
확률이
히타치
united
조선후기
8일부터
겪는
결제
공주시
단점이
문자의
살기
저수
적법
정거
총리의
필하
회유
##33
##동성
##성장
##박을
##목과
##순에
아이티
유명해졌다
만들어지는
동물로
수준에
스테인
캐릭터로
공군기
세웠으며
신체적
general
0의
m2
검열
묘는
사민
월터
적당
전단
풍경
##호에서
##메스
##억원을
km의
일어나기
등록되어
근무하였다
this
손해배상
way
게스트
균등
부왕
삼는
심포
왕가
입자가
출품
해킹
##기병
##기상
##46
##마켓
참가하지
##eld
지나친
바다에서
내부에는
##ney
핵심적인
천안시
제15대
여의도
유벤투
power
것들은
권유로
담보
둘의
반달
외삼
자궁
전미
전자를
중건
추운
##르스
##내면
##희를
##직원
##품과
##충의
사람인
연구로
경제적인
대학교와
##urch
재판에서
##ific
미술관
단백질을
아침에
플레이오프에서
맞이하였다
사운드트랙
급격하게
교원
돌이
모욕
사림
솔루션
신기록을
쌓고
직무를
##해서는
##미래
##좌에
##lar
나타냈다
역사학자
내용과
기능에
결혼식을
신앙의
800m
내놓았다
제17대
추증되었다
패러디
network
감리교
thomas
국악
금액
내에는
도산
바쳤다
보정
세번째
싸운
싸울
양조
인사를
줄일
줄곧
타오
##레스트
##제비
1991
설치하는
##ama
필요성이
보고되었다
2002년부터
내각이
치러졌다
6천
교단
날인
남자는
단속
데에는
묘소
변이
앨버
외할
장시
저주
조수
창고
특성이
황소
##ning
##화했다
##리기도
##니티
당시는
1975년에
중심지가
드라마는
다이노
태양이
개인적으로
선언한
패배했다
발행된
##스키가
지진의
세력에
떠나게
센터백
제19대
자발적으로
windows
cur
md
뇌물을
바쪽
버스는
생명의
양쪽에
영미
점으로
주며
클리어
키를
할양
##ky
##ker
##집이다
##그의
##학으로
##참여
하나에
올림픽에서는
##르트의
기관은
통합을
작용한다
출생한
충돌을
거래를
icbm
장로교
가스가
뉴멕시코
다국적
바젤
부부의
수비를
아칸
의류
조봉
코이
희망을
##사에게
##타리
##돈의
##길은
차지하게
이적을
적용된
##드리게
사무라이
회사에서
주도이며
정착한
90년대
dom
강성
그럴
기를
받던
앞뒤
영역의
오우치
위법
입후보
잉여
피셔
현상이다
##명도
##사적
##원사
##해줄
12일부터
과정이다
싱글은
거두지
한번도
play
스트리밍
프랜차이즈
ls
강하고
날을
날개를
누에
복위
비지
사하라
세르게
식용
신체의
울프
주저
향신
헌종
호스트
##히라
1971년에
##elf
폐지되고
시험에
사례는
오토모
일으키고
개찰구는
토착종이다
영의정
ben
각료
격자
생물의
신자
음운
입당
제나라
찾지
추론
한사람
형식이
##기통
##은하
##우회
##fe
##곡면
아이오
수도가
관계자는
경제에
형태와
복귀한
1812년
양성자
분위기가
대의원
메트로폴리
home
고종의
교리를
구례
네바다
발포
변하지
복식
비를
새정치
오르게
천체의
초전도
쿠퍼
탱크
합천
##소재
##아지
##생성
##개미
##린저스
11개의
조선시대에
세계로
가지를
제22
대회인
##ional
운영한다
선출되어
오늘날까지
발행한
고가역이다
세종특별자치시
japan
캄페오나투
land
mult
뉴클레오
문명의
밀가루
분사
서프랑
셀틱
시인이다
실증
열쇠
예약
왔으나
정진
후추
##조사에
##토에
##그라운드
##각에
대회로
러시아에
사상에
32강
요청으로
결성되었다
오사카시
2세대
교향악
샌디에이고
생몰년
dig
gps
가졌으며
나간다
분별
상자
연도
장래
재외
전교
주성
책이
##rich
##보이는
##마니
##브란
##팀이다
문제점을
소속기관이다
기업은
##ival
사고의
내려와
정규리그
패배하여
real
종류이다
실행할
반발을
##상태에
끌어올
망원경
맞배지붕
키르기스
cell
강진
기온
마니
셀주
소아
슬하에
식을
약사
행사에
현이다
현장에
##ility
제공한
영토에
집합은
등록된
1858년
주어지는
세르비아의
2세기
경선
뉴올
대문
배는
번이나
법원의
신분을
작위는
전학
절충
주역
집단을
초음
해시
##했으므로
##컴퓨
##청소년
##림으로
##목사
##갔지만
아이오와
보고를
부산에서
반대했다
소련과
차량으로
번역한
제시했다
개편으로
island
계산할
신뢰를
힌두교
nasa
화강암
nm
넘치는
들지
땅이
물체를
믿음
범람
분단
불릴
서면
예산을
장병
재보
직렬
토성
##거리에
##gs
##∼16
##냈으며
16일부터
선수인
많은데
11월부터
아이들이
전투이다
구조적
등장하며
2003년에는
지배하고
불리던
위험에
금지하는
주인공인
배출하였다
자극을
george
이데올로
over
가역
고기를
국의
뉴턴
뉴잉글랜드
문학의
민물
바트
수군
유방
자갈
조정을
춘계
투니
폭은
하카타
##지였다
##바도르
##금속
##배로
##쳤지만
1981년에
이용하면
인도양
사업으로
##기술을
출마를
머물렀
스타디움에서
석방되었다
브레이브
내야수
2번의
고찰
교량
글렌
기밀
단결
두터
듯하다
물자
빠지게
성산
순식
스쿠
악성
오스카
한계가
##중이던
##사도
##보스
##유전
##세요
##찬성
##록에
##북면
활동하였으며
1950년에
가능성은
분류는
제공하기
시스템이다
제안하였다
##정보를
원자핵
commun
그만두고
고고학
의도적으로
대군을
염화
포스포
##자로부터
##도움을
##해로
##비노
##처벌
##처가
##둘러
여러해살이풀
출연해
생활의
##대학에서
아닌가
언급된
추진하고
선생이
모노이드
저렴한
hal
봉황
사설
앞바다
엘레
영락
장대
정정
지위가
코난
클릭
표출
핵융합
후자는
##로라
##버가
##구조를
##브리어
##격투
##1년에는
1963년에
결정할
##하려던
만들어졌으며
출시되었으며
마드리드의
타원형
희귀한
패키지
하이드록
8개월
dan
경원
끊어
당진
들의
모란
문의
부인이
쌍의
썼으며
아흐
유적이
자랐
토모
한산
홍성
휘하
##시카
##는지에
##ux
##36
##받기
##꽃차례
가장자리에
##atic
##하자마자
플레이를
소설은
환경이
출생하였다
직후인
인터뷰를
무승부를
시트콤
doc
되풀이
미칠
소를
쓰이며
아편
전자가
철학과
총기
##조부
##화도
##호인
##인권
##min
##행렬
##데일
##브러
##저가
##됐지만
##리아를
경제가
##eter
바뀌는
에드워
트랜스포
아인슈타
6회
고개
귀순
도르
되게
떠나는
셰이
수요일
식물을
요양
유선
육식
이별
전범
테헤
##기원
##들만
##라바
##정이다
##빈이
##었다는
##las
위치에서
한국프로
서울을
2월부터
게임과
2000년부터
that
투입되었다
소장하고
임무는
원로원
안티고
2남
vi
가가
격침
나르
내주
밴드가
주동
처한
통제를
##노마
##적이라는
##버린다
##타에서
##받았으나
##웨스트
배우고
##하자고
##운동은
상황이었다
##경기장
tv에서
동물이다
주민이
단체로
영토는
프로젝트에
제목을
##단체인
##사이클
논문에서
프톨레마이오스
뉴올리언
구장으로
기리는
기도를
반기를
시성
아들과
에두
외척
정권에
포천
##센티미터
##질량
##에게만
##주의자들은
이루게
##itz
1일까지
기능과
##르트는
반대하고
이동을
컴퓨터에
위원장을
dev
해결할
출생하였으며
노력했다
구체적
라이브러
개막전
유로파리그
만장일
그란
내몽골
묘소는
북반
아종이
예로부터
외환
요소는
초식
카니
##모양의
##청사
영국을
개발도상
영토의
유니콘
처형되었다
침략을
강렬한
깨어
배분
부제
불상의
아레
영역이
중공업
추세
코끼리
패스트
페레
##원칙
##정주어
##상공
##율의
##록은
##뉴얼
##리아와
사회적으로
대표이사
리그가
사실상의
이탈리아어
2021
승강장에
비롯되었다
포르노
페르미
히데요시
##노동자
사임하였다
어디까지
숨겨진
미야기현
어촌정주어
요하네스
db
국수
논산
뒤덮
불상은
샤이
서지
용맹
전선에서
##비한
##절은
##크리
##ico
대표작
설치류
진행한
출연을
표현한다
변경을
판매하고
바뀌게
종목이다
대립이
franc
포도주
##계획을
분노를
정체성을
로렌스
1호선의
ray
wom
김희
러닝
바이트
변하는
석권
옮겼
줄이는
표면의
##메니
##탄에
2010년까지
##들에게도
지구로
유지되었다
지도자이다
대중에게
남동부에
1839년
soul
사가미
붙잡혀
구스타프
대니얼
서스펜
alex
jun
sem
공세
과다
대담
문자가
배로
북중
상대를
신해
였던
자음
필두로
해주는
현실을
##부대가
19세
포함되는
연구하고
아이스크
##스터를
프로그램에서
전문적인
업무는
##노동당
사냥을
탄압을
명백한
vo
각성
데는
맞물
빨강
사하
시도가
없도록
유포
주제는
통솔
표창
하겠다
행성을
##운수
##xy
9월까지
감독인
제작되어
부분이다
##red
##ural
##ida
제3회
2019년에
공개한
절대적인
세월호
돌연변
계룡
능가
단면
되살
별개로
불사
불복
비의
사귀
세군다
시점에
어지
어웨이
에다
죽는다
진주시
테살
호가
호찌
##국립
##gen
##변수
##쿠마
국가적
1969년에
경기인
##isc
태어났고
##eder
발전한
우주선
세포는
구분한다
정규시즌
노력하였다
조정에서
어깨를
nato
가설을
권리가
동백
베테
벽에
봉인
사생
여자의
유능한
정세
정리는
치르게
파리로
##베스트
##배마
##형사
##2년에는
1989
도시이며
25일부터
##리오스
작곡을
500여
소유권을
불리한
등록되었다
대항해
비용은
사도세
어려움이
인터페이스를
캐서린
3에
거미
끼친
독도
무단
배양
버섯
시찰
은폐
작위
첩보
할인
확고
##교류
##언은
##ason
대학교로
이론이다
상징으로
세력과
범죄를
이뤄졌다
어디서
다이묘이다
대다수
포인트를
협주곡
champion
game
광주시
뉴기니
레즈
변한다
비석
익숙
제도로
종파
진리
픽셀
##천문
##골의
##타점을
##링이
##덩이
##리아스
연구한
개발자
개발은
21일부터
유럽연합
참가한다
고려에
##ada
판매가
유일하다
그림이
초반에는
건국훈장
간단하게
평평한
만화를
성분이
쓰이기도
의논
제창
친한
홍익
##자마자
##비츠
##미아의
들어서는
13일부터
임명되고
40분
도쿄의
조각을
보여주며
성직자
해협을
다항식
사이타마현
tor
대정
맡겨
무고
성경의
쌍성
오우
왕당
유생
점도
지선
흡사
##설의
##청장
대한민국이
기준은
대학이
270
펼쳐진
콘텐츠를
부에노스
7회
가닥
대상에
리모델
불경
브루스
성인이
커리
##중공업
##라며
##희와
##농민
##웠으며
있었으므로
사망하였고
돌아왔
제공된다
민주공화
내각총리
수비수로
그렇기
달아나
등장인물이다
메디치
아리스토텔레
www
순식간에
개개
내재
독살
박진
발로
쓰일
아스카
접합
치르
포에
##만명
##공개
##네프
##랑의
##운송
##처는
##5년에는
계속되고
노동자의
주도권을
입학하였다
후손으로
beat
훗날의
신성로마
다스리는
주최하는
함경도
마감했다
초신성
만드는데
1과
4는
cv
lin
것만
공대
광서
닛산
문양
방을
산은
세키
외무부
초에는
##우스를
##타에
##vin
이후로도
조선을
방송에서
대학으로
2012년부터
2015년에는
##olf
불가리아의
점령하였다
무렵부터
장애를
더블린
grand
행복한
리바운드
80년대
vic
다이라
디나
봉헌
붙이는
산재
색소
시대로
야행성
어의
완도
유태
짐바브
차트에
초원
피드
##품에
자신들을
제작하고
개발과
다르며
비정규
1세를
27년
om
공기를
기가
기마
도치기
둘을
복직
사물
생을
운명을
육군은
접두
줄을
직원이
체계가
타락
토양
판명
##원장
##가족
##오면서
##작업
##작전을
1978년에
17세
8월부터
##회의의
대표적이다
##부분이
영향은
기술이다
##ett
국립중앙
통과한다
1854년
부정적
이민을
보관되어
동작을
연관된
간접적으로
어촌정주어항으로
짐바브웨
8회
강이다
군으로
나나
단계의
두게
분파
사나
성지
앨리스
야마다
양극
위주의
집이
페드로
허블
##르카
##닌의
##00m
발매되었으며
2014년에는
연합국
피해는
있어서도
정신과
cons
아내를
전사하였다
show
총선부터
화장실
영등포구
first
과이다
기호는
나바
마나
말하기를
매디
머리와
볼록
비싸
사비
스드
쌍방울
안방
와타나베
이문
이형
##스텐
##li
##모음
##림에
18일부터
15일까지
들어선
기술에
건설에
ann
tvn
복귀를
유전적
재판에
##회사인
해결을
결성하여
내각에서
마리아의
승진하여
끝나면
##재판소
저술한
남아있지
아랍에미리트
708인
동창
로트
모던
몸통
비아
아킬
아핀
연료를
영상이
올렸고
진원
함수가
##진한
##실점을
##편성이
##6년에는
진행되었고
##리오는
학생들에게
드러냈다
한반도의
명확하지
갑작스럽게
jean
europe
걸고
공사는
공의회
단국
로타
멀어
버라이어
부대로
불만이
수퍼
옷주
지석
혈통
##ja
##레네
##해석
##학교는
중심부에
선거에서는
월드컵의
정당인
오른쪽에
황제에
1차전에서
삼성전
유로비전
mbc에서
전공을
파악할
몰아내고
최하위
홈구장으로
가환환
ns
과선
눈의
마늘
바스크
분자의
상세한
설교
성당의
없었으나
연안의
우월
원본
파리에
##소리를
##트맨
##이론
##게도
##보며
##포인트
##천리
##토키
##yr
205
출전하는
주변은
설명하였다
계급은
파생된
이순신
신시내티
하이브리드
mad
가면서
강우
거인
경보
궁내
낮게
대하
별자
센서
신익
알리고
유희
절친
정글
조언을
주둥
퇴위
피치
하류
##기동
##라르
17일부터
##ret
표현하고
서비스의
보내졌다
자동차의
국제공항이
전한의
이마가와
fer
hist
겸직
남조
내릴
노원
쓰던
유머
인류가
인생을
지명으로
청취
타자로
함대의
해피
화요일
횡령
##3의
##파운드
##백이
##났지만
##누스가
다르지만
병사들은
출범한
분위기
아미노산
girl
인테르나치오
8번째
간사
고성군
남반
땅의
리프
사내
서예
스어
신안
영어의
의병을
주식을
집은
##이시
##으러
##외교
##누아
##3년에는
선수다
전국에서
공부하였다
중반부터
타이완의
좌우에
주최한
대법원은
용산구
michael
light
가사는
개축
마테
백업
심어
어미
여왕의
운하
지적이
##코어
##현대
##활동에
##반으로
##립을
20세
선수와
만들어낸
수행하기
멤버이다
방문했다
미사일은
prot
완료되었다
추천으로
베스트셀
페르난도
지장보살
1이닝
1주일
non
west
같아
금정
노력이
다우
속을
수력
시크
실어
역에는
염두에
주이다
줄리
초나라
태도
파열
히브리어
##지스
##지검
##노조
##츠카
##련을
##립트
##8년에는
18세기에
수도는
생산한
분류할
그것이다
이때의
헌법은
시민들은
북쪽에서
사령관으로
최소한의
바람을
두드러진
고층
노르트
데미
마차
문맥
백운
병렬
북대서양
안철
안데스
위나라
일행은
장치의
총애
컨설
합하여
휘는
##조사에서
##지상
##모르
##설계
##림에서
##불은
##좌파
1987
현재에도
로마는
23일부터
배우는
결정이
제공하였다
표현된다
시리즈가
개최하고
개최하였다
그대로의
인터넷을
규정되어
제5회
근대적
##kg이다
빼앗아
부처의
아나키스트
플러그
부르주아
ju
니카라
덕에
데드
렌더
이들과
있음에도
청일
카와
펠로폰
흔적
##나드
##나무를
##렌스
##섬에
##됐으나
##득점을
프로에
프로축구
사람들도
##atus
관계의
등장하여
28일부터
보고했다
부족을
교통사
이하로
올리버
자리잡았다
비잔틴
깨닫고
기의
단양
대전에
믿을
별도
사치
생계를
시네마
않거나
줄리아
헬리
효력이
##경부터
##옥은
활동한다
일부에
##시키려는
소련에
초기부터
종교를
언어와
생성한다
보도되었다
행사할
음식이다
무게를
불안정한
프로이센의
cc
그라운드
날씨
남겼
르완
박찬
발가락
버진
버티
송진
시우
시미즈
연행
이도
이지만
정체를
착각
출혈
환산
##교인
##건에
12세
1976년에
방송은
발표하면서
생각은
지구는
2002년에는
##시간을
사무실
요시쓰
league
고정된
고속버스
페르시아의
예수회
생기게
무죄를
글래스
호모토피
gar
pp
계량
도부
루비
머릿
물체가
손해를
양념
월트
재구성
지명이
진나라의
추밀
흔하게
##때까지
##인지는
##31
##제곱
##유와
##1동
##격의
##탑은
되어서야
fc와
나무가
슈퍼컵
남북조
신설되었으며
게이초
##산업의
자살을
대대적으로
개명하였다
힘들다
선제골을
알폰소
칭기즈
7명의
ct
몸돌
생모
선대
시도는
안경
양자가
없어졌다
유계
적재
제가
지의
폭포
현에
##라크
##구니
지역구의
1960년에
사회는
지방에서는
유럽에서는
기업으로
2000년에는
지배권을
방향이
##나무가
설명한
언급된다
달러로
주도이다
침입을
싱가포
능력과
다수가
부조
순종
않음
유이
##버스의
일본서기
##erv
적용하여
작곡가이다
즉위했다
촬영을
전사한
확실하게
가든
감동
강변
곧이어
돈이
바라는
박사가
변속
성화
소크라
수년
이조판서
제철
조석
지우
진단을
타임스
##소녀
##지에는
##네스는
##임과
##틀을
##∼19
18개
##7년에는
사이먼
자유민주당
등장하지
생활하는
실시한다
도입을
##ations
연기자
참석하였다
다니며
nhl
부담을
골키퍼로
주한미
##륜구동
라쿠텐
구원을
구약성
넷플
따위의
산청
자비
형상을
##구미
##학습
##층과
##캐스트
##민들은
##값이
프로방
연구소의
연구소에서
태어날
280
가운데에는
필요할
구간에서
오늘날에도
공항을
배경이
신도비
폭탄을
자랑하는
농어촌
institute
리베르타도
ut
발리
아이다
아브라
안겨
알기
이호
질서를
통로
##츠에서
##팔렌
##즈마
##발트
##톤은
##orm
사건에서
남아시아
바이마르
##ope
공작의
유대교
윌리엄스
편입되어
나뉘며
참석했다
연대기
하얀색
##press
##스러워
고도의
극적인
남을
성체
세무
열도
영예를
예수가
예문관
원자가
자라고
형이상
##도마뱀붙이
##가며
##버섯
##상인
##영에서
1968년에
공격형
28일까지
요구한다
적용할
##raph
1999년부터
def
측정할
##로그램
예비역
안동시
피아노를
멀티미디어
ret
눈치
눈물
다윗
당신
상한
세울
양수
어사
죽일
쥐고
최북
##조류
##열차가
사회민주당
##회의원
아이들
대통령에게
선거로
지원하였다
기관지
스페인과
개편에
##사회주의
목적에
인종차별
부친은
제16대
후쿠시마현
줄기세포
쇼핑몰
north
3주
4인
근원
뇌물
대장군
서류
서아프리카
쓰성
좌천
캐치
태생
티에
휴가
##다스
프랑코
독일군이
사망한다
운동가
100명
표현하였다
생성하는
캐릭터의
허용하는
제9대
볼티모어
society
battle
앨라배마
dm
tn
고집
도구를
돼지고
매스
봉우
성실
쉽고
임금을
펠릭스
##정류
##온에서
##급이
텔레비
발달해
멸망한
삼각형의
전설의
##차례의
소장되어
국무총
클라크
16강에
보편적인
자카르타
but
van
모세
수심
줄기는
##신보
##것은
##먹는
##부분은
제국주의
##레스테
소설가이다
베트남에서
달성한
수입을
발발한
시상식에서
기동전사
단사
떠돌
로런
사와
서고
소울
일대는
중남
차오
학회
현은
##퍼센트
##짐을
##ister
26일까지
라이센
공화국에
성립되었다
살해하고
제도에서
produ
고전적
양자역
##문학상
방정식은
부친의
쓰러뜨
분데스리가의
홈경기장으로
a는
교수의
국공
글씨를
본초
오메가
월화
유우
이만
지점을
##대군의
##니즈
##골은
##여지
##x는
구성되며
개발되어
25일까지
돌아간
비교할
나타나며
제도이다
신성한
남양주시
허드슨
4m
가결
규명
목이
밝고
선우
정명
좋고
초중
치른다
파업
##도호
##중대
##호부터
##집에서
##hc
##란에
##걸이
##lay
1980
사이언
대표이
##이트는
235
필요에
자연스러운
바탕을
관측된다
본래는
2개를
삼국유사
개시하였다
정유재
고인돌
4세가
dou
kb
대주
됐고
매거진
벽을
아끼
업로드
오인
옥천
팬들이
환관
##기소
##ling
##금에
##fo
##반대
29일까지
야구단
컴퓨터가
수여하는
조선시대에는
일방적으로
어우러
낙엽
미수
셈이다
수백만
억울
운명
칼륨
혁명으로
##트레이
##기보다는
##적일
##교수로
##브나
##투르
##각과
##범이
##캠퍼스
coa
2013년부터
인정된다
실시하여
비판하고
부여하는
남편과
변형된
다음날인
소프트웨어는
강서구
32년
fac
뇌의
다치
무색
방호
생포
승부를
오게
음모를
이희
천태
총통
친환경
태블릿
파직
##기적인
##화경
##백의
##히며
##독일
##냐고
세계적
출전했고
##ily
정의하고
stre
부르봉
지지하였다
대체하기
데이터의
승강장과
750
이승만의
한때는
dire
볼셰비키
클라이언트
상파울루
경무
관내
권력이
면모를
서주
속하지
시호
양천
에히메
유카
음의
인자
잃어
전선을
진언
해전에서
##쥐속
결정은
통합된
올라와
1998년부터
변화하는
구분이
고등학교에
동생이다
3세와
누구도
특허를
한국방송공사
##공무원으로
미성년
버라이어티
듣는
마우스
배워
별명은
병원으로
부실
올릴
임정
퇴출
편성이
평형
##스프
##기본
##di
##위하
##록대부
13세
320
가르시아
알렉산데르
인수하여
전설적인
탈락하였다
득표율을
나폴레옹은
플로리다주
압록강
몬테네그로
5차
구루
문장을
북송
센티미터
소시
속편
스님
염증
오호
왕자의
원효
있기에
체제에
타마
헤엄
##법에서는
##바에
##카드를
##민속
##란과
##두더
##감염
##채로
##학교로
기록한다
영화와
지방산
교육부
발달하여
얼굴이
성우극
아이디는
상하이에서
소프트웨어의
프로모션
패럴림픽
기권
리어
릴리
입지를
중상
지위는
질병을
팔을
확충
##보존
##제도가
##미트리
##남의
##피탈
##갔는데
##era
이동했다
수행한
월드컵과
2차전에서
##고등학교와
일종인
해결하는
집중적으로
강점기에
체코의
합쳐져
성향이
관여하는
개국공신
##훈련을
모티브로
hu
높이고
당은
동두
머큐
모닝
신학을
안쪽에
앤서
영역으로
왔던
재가
한마
현으로
화염
##자동
##레앙
##커우
##ham
##일이다
##예비치
##체계를
##새는
##섬은
##균은
##4년에는
다시는
일부로서
대표되는
대학이다
계약에
사고는
런던에
pres
##ection
조카인
동성결혼
복음주의
선제후
온타리오주
가로지르는
2경기
김시
단어로
로드리게
마켓
바쳐
반항
식이
예부터
재검
재창
제리
총사령관
타율을
트레일
행하여
사용은
1977년에
존재한다는
이전했다
선거구로
시대와
등장하고
stand
부여받았다
폐지된
경쟁에서
추진하였다
특정도
만나고
가입했다
체계적으로
1789년
삼국지연의
열대폭풍으로
프롤레타리아
규합
김보
노드
달을
던진
도자
드나
모시는
모자이
버드
부문을
새뮤
순찰
에인
우문
인계
인식을
일체의
종말
추계
클럭
태화
토미
##평의회
##워스
##죄를
##거북
##바키아의
##빌리
##팅을
##으로서는
1984
제29
부분과
나라로
지휘했다
애니메이션의
명령어
제4차
수비형
준비가
촬영한
보이는데
플레이오프를
동원해
사우스캐롤라이나
쇼트트랙
5억
6명
걸었다
달리고
로컬
배재
변성
사각형
양국의
이철
장신
종5
지난다
치우
쿠로
##시장에서
##히사
사망자가
참여해
22일부터
민주당은
지도자가
교통국
##모토는
불리었다
출판사
내각은
마련하였다
부터는
오리엔
가담한
근본번뇌
나가노현
알렉산드로스
1에서
가령
광시
남지
넘지
대상은
로고
무을
묻는
보이기도
사교
세대의
숙박
온라
올레
처해
투병
##전서
##사단이
##데냐
##비르
##착륙
##뿐이다
##립의
##탄올
경기장을
참여했으며
27일까지
상황이다
예정되어
인천국제공항
후쿠이
강조하였다
##스럽고
고등교육
##키가하라
되돌려
줄무늬가
service
lib
면에
미요시
왔고
웨인
정변
집단으로
치유
폐교
##중량
##것이다
##분투
##값은
##헤드
방송에
인정한
헌법이
국왕은
출생으로
건강이
체계적인
취급하는
south
엔터프라이
쓰여져
헤라클레
서포터
나미비아
건전한
나름
네브
리포
명왕
바쿠
부피
성소수
소식
스레
의주
장소가
절을
절약
조동
지그
질문을
착취
체제는
학자들이
함대가
##질서
발견할
일어났고
##ental
증가한다
##ump
개념의
##지방의
전해졌다
살해당했다
묘사하고
천문단위
고전적인
보컬리스트
위키백
천도교
31년
jack
가모
귀가
내기
노론
두었고
매복
백혈
부전
산책
시발
온실
옹정
원조를
이강
죄로
추력
호른
##기시
##노트
##com
##구역에
##그림
##ych
##여행
##패스
20km
##onom
있어도
1935년에
생각하였다
확인하고
거주하던
5년간
인식하고
아르헨티
##여자중학교
4위에
6량
갑오
격상
관점을
궤도에
규장
그늘
당수
병마
상층
생리학
숲과
식물이
알마
직위
편의를
혼잡
##덕을
##루트
##측이
##봉이
##연과
##암동
이해하고
802
종목으로
교토부
party
도망쳐
무게가
암컷이
메모리얼
저널리스트
히데요시의
ai
걸렸다
군주의
단위의
묘역
보루시아
부진을
상금
손자인
에일
카보
##족한
##틀리
##향의
##달이
##빨리
사람들에
데뷔하여
건설한
귀족들은
태풍으로
일으켰고
높아졌다
##식품부
전년도
4명이
5세의
bet
que
끔찍
몰고
반납
방에
변해
현미
##아미
##산드로
##수면
##제1
##숙이
시즌으로
가능하고
공격적인
설치할
대학과
이것으로
정의하는
분야는
살해되었다
참전한
합쳐서
어깨에
3라운드
5로
just
np
가선
그도
루손
모잠
벗겨
볼넷
순서를
시켰다
식의
을사
장점을
페미
피니
하단
해지
호리
##34
##데스는
##딘의
1964년에
만들게
##리스와
운영에
연결을
##스와프
1857년
병사들을
라이브러리
지시했다
김해시
주축으로
이리하여
4단
7의
port
문이
버클리
법원에
사대
속씨
쓰네
캐나
포를
현이
##부에서는
##법원은
##네트
##zy
##건으로
선수단은
드러내
공급하는
남동쪽으로는
문서에
판단하여
roy
출토된
시그마
프톨레마이오
한가운데
구역이다
내구
누렸다
단위는
도구로
도자기
뜻에
물가
배경을
비하면
빨라
사중
신발
인노
일설
주름
총영
코퍼레이션
토로
후견
##책은
##주도
##개정
##볼을
##효율
##입을
##탑이
사람이었다
졸업생
수행을
제품이
파괴된
물론이고
레코드를
거느렸다
콘서트를
manag
연예인
green
1500m
코소보
1급
ks
곳도
균일
넓혀
높였다
비리
에치고
작전이
절감
처칠
##부사로
##2동
##메랄
##종공신
##드루
##모습
##있는데
##귀족
##9년에는
영국군의
중심핵
30일부터
출전하면서
인정받고
움직이지
만화이다
##ude
위반으로
white
mvp를
재발매
나눈다
gla
house
mtv
개구리
거리로
기종
기리고
당연
데일리
라울
러시
레몬
바치는
반동
버밍
상설
셔틀
시영
식사를
여자를
오트
윤원
전역의
조준
파파
팬들은
해군에
현립
##보자
##임으로
##구역은
##더와
##쇼에서
##5년부터
사회학
감독이었던
정부에서는
방송사
참가하게
방법과
요구하고
개통과
베르나르
확보하기
2명을
3번의
uc
끼워
농작
대본
메콩
봉기를
아내는
인제
전에서
전선에
체계의
팔린
##과장
##kw
##수스
##카드의
##암에
##능력이
##규가
##ita
이탈리아에
생산에
상대방의
차량에
참전했다
747
다스렸다
5는
강사
귀는
녹음을
느리게
다닐
등기
등에도
리비
문하시
박재
백조
블레이
신들의
예속
원유
윤곽
출자
타도
함부로
##명에서
##선사
##최고
1966년에
2007년까지
이탈리아로
인도와
프리큐
보통이다
레이크
열차로
물질로
오른손
##센터는
사례로
650
8강전
##해져서
분노한
싸움에서
박쥐로
메르세
농림수산
26년
hom
lim
기구를
끝내고
드로
방면의
변증
부자
사커
새우
순양함
저우
적힌
한옥
##자이기도
##록의
##에게로
##회의는
리그는
방송되었던
24일부터
2012년까지
추가하여
환경의
시설은
제한하는
발사할
합병하여
베이징에서
##영화제
취득한
승객이
자메이카
송파구
비단털쥐과에
3승
run
var
같지만
거치며
관해서
느슨
불렸으며
여는
역학
정령
지청
진상
토기
##지진
##부아르
##인터
##송이
##번호를
##타니아
한국어로
1946년에
아이디어
출전하였고
##idge
church
결성했다
sk텔레콤
그때까지
총선에서는
##홈런을
서재필
social
부파불교의
1골을
rc
관문
군림
까에
니케
덮개
무도
미친다
불의
브리지
손바닥
실체
외부에
이질
잎자
천명
청사
하구
##이은
##d는
##츠에
##코스는
##쳤다고
정치국
이용되었다
생각에
항공의
##ids
지나고
##기관에
분야이다
서식하며
아프리카에서
확장되었다
내각을
합의했다
호흡을
펠로폰네
결렬
국회에
깨한
명중
문신으로
박용
북벌
빈민
실사
에리
위배
의심을
읽기
적자
전류
철수를
탁구
학파
헬리터
홀리
후이
##2가
##나지
##가슴
##선택
##남면
##온과
##있을
##막에
들어갔고
생산된다
일제히
귀족들의
1801년
아내의
성격으로
나왔고
제20대
풀려났다
기자회견
새뮤얼
3시간
num
대입
대상의
리브
목동
바늘
부대에
수와
없는데
왕릉
정했다
준플레이오프
테리
텐서
포화
행해진
##제어
##거스
##토에서
##방면
##its
않는다면
그리스어로
육군사관학교
북쪽과
대륙에
표시하는
합병해
##전쟁이
사례를
파라과
강등되었다
방정식의
##mann
지칭한다
##마저도
법조인이다
피라미드
지극히
joseph
9세
ga
고개를
구가
많기
모형을
무가
올랭
원에
찍었다
친위대
화면을
##테가
##니카
##하기에는
##itch
배우이자
임명하여
시스템과
자동변속
레이디
##ster
초대칭
sky
쿠데타로
멸종위기
컴파일러
스텔스
5천만
publ
내에서도
높으며
묘비
방침을
배타
불만
샤오
수나라
알칼리
오르고
유틸
이덕
인식이
증원
창덕
책에
탑의
패퇴
피처
##시미
##중으로
##백은
##그와
##방식을
1948년에
공동체의
2001년에는
동물이
방영한
수준이다
처리할
로스쿨
수학하였다
개칭하였다
메소포타미아
1명을
4선의
국세
김은
내부는
리본
마포구
부름을
시키는
씨족
정재
진전
최전
타밀
티무
파주시
형은
환자는
##호이다
##38
##레에
##루로
##끼리의
##성공
##향이
##외국어
##섬과
##곡과
##룡의
##ora
활동하였고
1947년에
사망하여
256
스타트
지지했다
교통이
예술적
rep
재직하던
수학에서
박물관에
boy
프린스
조종사
태평천
8만
8번
cit
같으며
꽃받침
끝은
동위원
믿지
삶은
시니어
주황
출격
하려는
##일스
##너를
##실장
##쿠젠
##콘티
1954년에
##시키기도
이전까지는
선거구가
올라갔다
부족의
언급하고
거부하는
경계가
원칙으로
없어지고
브랜드를
##ense
안드로메다
나타내기
고립된
##플렉스
j2리그의
a와
mpeg
도하
미츠
세키가하라
우상
유서
이등
읽어
치아
탑은
##부족
##담이
##는지를
##라로
##노세키
##정부에
##한데
##zo
##후로
17개
계획하고
##cm로
올라갈
찾아와
이해하기
4년간
강원도의
4000
니시테쓰
저서로는
산스크리트어
국화
기체의
모임을
버클
악기를
재회
중후
찾았다
출항
카미
틀어
행위로
##스탕
##효과
1962년에
13개의
로마자
##ste
출시하였다
선발되었다
주민들을
상징적인
브랜드로
휴대용
마에다
log
낳고
덩굴
두뇌
매진
멘델
상연
색상
아람
와이드
의자
지대에서
창을
침수
탄약
통찰
##인사
##범의
##별한
1958년에
독일계
참가를
결정된
임명되었으나
표현으로
민족이
##적이지만
베이시스트
세포를
연기한
임진왜란이
강릉시
받아들이는
##슬라브
단종되었다
곳곳에서
경복궁
6m
fbi
kst
가했다
계양
무과
반민
역부터
옆면에서
중고
취했다
한꺼
허난성
협상이
##공로
##분리
##현동
##쿠는
##혁은
사회과학
시리즈에서는
인도유럽
형성하였다
들어가서
공작이
중단하고
좋아한다
sub
증거로
장식되어
무너져
일치하는
소멸하였다
우에노
스파이더
richard
gh
능력에
록히드
마틸
모조리
복싱
북조선
불계승
수마
시제
엔리케
열렸고
자사의
패하며
행한
헤겔
화면에
히스
##버리고
##렌은
##교구
##영상
##출장
##빈을
##습니까
##날을
4월까지
성공하여
조직한
나누고
자라며
가슴에
언덕에
휴대폰
셀주크
공기가
글씨
도약
듀오
많아서
바비
벤치
파출
하강
##lv
##렸기
##맨의
있는가
1965년에
기준으로는
설치해
설치되었고
결정한
##olution
형성되는
스트라
귀국하였다
북동쪽으로는
장착된
아테나
이즈미
할아버지는
카이사르는
실전배치
승부차기
헬레니즘
타지키스탄
유러피언컵
한꺼번에
fin
갔고
경고를
관성
도우
동급
막강한
몰타
반감을
생생
선에
섬세
어원은
역명은
쥐과에
지에
지다
코로
파문
퍼졌다
황산
##관측
##문화를
##보전
##해지면서
##위도
##직과
##엔진
##탈을
서울고등법원
제작하여
발생하지
국민이
조직과
표현되어
여성들이
자연과
기업인이다
300여
금지하고
소개되었다
1793년
상륙한
##관찰사
갑작스런
기자회견을
mach
간을
결여
구역을
김치
민요
민영화
배기
사보이
악화되어
애드
오슬로
의인
장소는
증축
확대를
##만원
##근무
##쿠의
##∼15
세계는
경기이다
만들며
5월까지
분류하기도
유일의
나오며
스페인에서
북한에
친구들과
무렵에는
leg
확보하고
장교로
종사하는
드물다
프로듀서이다
산티아고
4호
down
nl
객체
금전
박씨
성분을
아지
앨버트
양식이
중상을
출사
탈북
포격을
##근과
##바람
##참한
##반과
##길의
##눈에
10의
활동하기도
임명하고
발전이
바뀌었고
1856년
열대저기압
좌우로
받아들이고
이글스의
사르데냐
유격수
gm
nbc
rd
가변
고난
골로
국부
느이
대머리
마티
몬태
미생물
바디
반군
부인의
사에
소라
워낙
지식의
추후
화력
##도라
##호아
##행사
##수이
##운트
##쿠로
##황은
20일까지
독일로
구성하여
26일부터
ins
동일시
메이커
해안의
330
##센터에서
형식이다
몸길이
##eee
그레고리
매사추세츠주
how
견해도
공병
괴멸
맡겼다
모질
안락
여당
오릭스
좁아
종친
진실을
한복
홈페이
힘은
##과에서
##점도
##하느냐
##인물
##연대를
프로파
사이는
우승하는
역할에
산업을
국내에서는
기독교를
가문과
묘사되어
게이밍
받아들인
레코드에
##리우스의
사임했다
오다와라
프로그래머
복음서
제14대
glob
트란스
bad
게일
견고
공군은
과목
금천
단군
바투
서명을
스트로
시할
않기로
예선은
요리를
원료
이석
조니
종들은
카리
##점까지
##부사를
##i의
##화된다
##주이다
##토바
##연금
##녀로
1967년에
들어섰다
발견되었으며
방송의
##이스케
지휘자
결승전은
공화국과
갖추어
대비해
명단에도
중시하는
철저하게
블라디보
트위터
master
암모니아
성우극회
6위
가락
거병
경색
경덕왕
기지로
남궁
내에서의
루도비
리믹스
서신
신군
우쓰
유화
조연
지름은
##d의
##토지
##마타
##장교
##장치를
##피안타
##링거
대회와
inv
제35
전통의
언어에
상업적으로
오프라인
4강에
산둥성
중앙집권
2km
가혹한
결사
모이
미미
보도가
빛깔
삶과
색으로
수분
신지
어도비
얻었으며
운항을
위쪽
위태
이로부터
잉카
케르
폐차
##ien
##하신
##데스의
##66
##건과
204
영화감독
돌아올
사업가
내려온
##교육청
일어나게
시행되었다
1851년
기후를
위협이
바라보는
절반을
시나노
부진에
christian
감추
글씨는
기질
대인
대종
대제
던지는
도난
베드
부위
불문
실수를
오차
이그
인질
있지는
짧다
커져
컬렉션
##왕에게
##정비
##카게
##방어
##설로
##단체가
##플래
사용되기
문화예술
21일까지
진행할
진행되었으며
경제학자
소속사
인정하였다
판매되고
전국적인
예정이었지만
1997년부터
통과시켰다
출생하였고
계승하였다
탑재하고
등판하여
부진한
화성시
형사소송
아비달마
신속하게
##선수권대회
폭넓게
science
동점골을
ieee
sar
극작가
긴밀한
김두
남용
남성과
내지는
못하며
아그
열거
용기
인프라
일한
입찰
자식을
작전의
재구
조개
차종
피지
##리한
##파괴
##gar
##민들의
##순을
##젤로
조선이
covid
27일부터
29일부터
항공우주
평가되고
이루어질
dep
전차는
계급의
자리잡은
스케줄
화이트삭
대조적으로
노트북
특정도서로
28년
data
hpa
les
lcd
내게
대적
대우를
데포르
등각
북베트남
분명한
원주시
참배
천마
코스트
포섭
##전화
##노이
##오지
##burg
##yd
##밖에도
지원하지
진출하게
모습과
정당으로
패배로
유전자를
이주해
const
연맹이
받아들여지지
보건복지
펜실베이니아주
인플루엔
디자인의
증후군
was
건네
대책을
등단
무차별
박중
부회장
사정으로
작게
잡기
장은
총선에
측량
특성에
##정동
##적이었던
##방지
##장도
##후를
연구원
1930년대에
유럽을
차지했으며
형성된다
월드컵을
가족들은
출판하였다
발달되어
그림의
개혁에
북부에서
1850년
묘사된다
남서쪽으로는
인사들이
요코스카
국민의당
에스페란토
교동
근연
급수
급속도로
깃발
넘는다
딸은
미완
병과
부천시
소원
소탕
소켓
속초
야코
일자
죄수
질투
친히
폭력을
##티야
##동지
##gon
##속이
##yp
##났는데
##망원
사용자들이
선수단이다
1970
프랑스군
방송인
항공기의
되었기
해석하는
근무하는
space
남편을
k리그2
베토벤의
괴뢰
기묘
길은
로써
마디
목사가
미르
보트
소장으로
신구
아드
여주인
자수
전조선
제정한
지브
##부도
##no
##내로
##37
##열과
##너와
##쿠치
##언론
##답게
form
것으로도
사회적인
##시키려고
증가한
개념에
지상에
아시아에서
공화국에서
패배하였다
대응하기
상징한다
대륙에서
다루었다
방식과
만족하는
변호사로
1814년
대항하기
엄청나게
선전포
매킨토시
7개월
mal
국적의
내림
동산
땅으로
보리스
사정을
생원
알베르
월북
이요
자부
지킬
초점
총선을
회차
##가라
##츠부르크
##루즈
##공격을
##5m
##달을
##불계승
##풍은
##필레이션
##곳의
인정할
보고하였다
제38
작곡했다
뉴욕에
주인공은
네트워크의
주교가
건립되었다
무엇보다
파키스탄의
염색체
라그랑
html
자릿수
갖가지
구두
도화
딸린
말단
부리
스커
승상
않으면서
양양
적시
전완
절제
조문
지시에
휘두
##부대의
##다코타
##알데
##강으로
##ven
##불상
##렐라
17일까지
운영되는
선택을
1996년부터
엔진과
노력으로
평양에서
기다리고
수컷이
단행본
초록색
앙골라
2와
8천
같고
김주
명성이
버터
볼드
부지에
승을
시아
신분이
심상
에바
일당
입장이
최치
향하고
##부대로
##신정
##경사
##루이
##번지에
##큰롤
2015년까지
제공하며
2005년까지
인물이었다
정책과
올라온
페르세
방문객
인터넷에
외교적
황제인
인근에서
지내며
임금의
조용히
등재되었다
모서리
영등포
마구
변한
생년
쇠고기
수식
스즈
여자는
오사
옮기는
옮기고
이우
짧아
캔터
크지
##명령
##인들에
##회사는
##광고
##좌랑
##벤션
##짓는
사용하였으며
선출하였다
1995년부터
이듬해에는
배치하고
1945년에
혁명에
데이비스
클라리
유효한
이케다
세르게이
2종
nk
낮에는
내었다
때로
백지
사네
섬세한
세련된
순창
시조로
신문에
없음
외부에서
전과
캐롤
후로
##중계
##테로
##협회가
##타바
##왔다고
##났을
##팅겐
구분하는
대륙간
제기했다
출발한
문서의
저장성
what
대단한
총선거에서
dfb
네브래스카
3일까지
3경기
band
군인으로
끝에서
달콤
동향
물품
벨트
수렵
유해는
잎을
저조한
주권을
쿠페
한서
힘쓰
##폭격
##버스와
##베는
##매의
##났으나
##농구
##플리
조선에서
1950년대에
중국인민
작품들을
수용체
삼각주
1776년
상품의
번갈아
어디까지나
rain
가에
가창
군주가
단조
밀고
반대의
사생활
산에서
위축
지형을
푸틴
##기반
##전에서도
##대성
##들랜드
##노선
##토끼
##준과
##ford
##투어
##타인
##곳에
당시부터
후보자
제공되는
데이브
지지하고
발행되었다
1815년
조기어류
민족문제연구소가
글리제
코트디부아르
lab
x86
강타
기금
넣으며
보상을
성간
성수
수화
숭실
스터
유재
유물이
작년
장차
호화
##심리
##해준다
##yt
##택은
##움은
200년
##시키거나
중앙아프리카
2008년까지
2014년부터
필요는
선발되어
자치권을
북서쪽으로는
개정된
열매를
화장품
주기적으로
나왔으며
meth
서해안
세계대전이
감싸고
마르세유
헌액되었다
son
t1
국산
눈으로
더한
덮고
빅뱅
삼위
설리
수명은
쌓여
육군에
인하
증강
철로
호지
##되기에
##천에
##프셔
##약에
정치학
2월까지
로마가
과정으로
유지되고
완전하게
학생의
산업에
이루어졌으며
분야로
스테판
부임했다
##기간은
##무늬가
제이슨
엘리베이터
페르디난트
명성황후
공직선거법
다행히
해트트릭을
올랭피크
2일까지
경합
곡인
기민
김장
담양
발이
시멘트
앤디
유독
짝짓
컴필레이션
호몰
후미
히말라
##만화
##잡지
##총관
##귀를
제작자
##iter
우승컵을
형태에
##ree
야구선수
현대적
부모를
마이크로프로세
알아차
무장한
행성이다
##기간이
지리적으로
유치원
칠레의
가끔씩
브레이크
석가모니
객관적
양호한
일리노이주
원숭이
병자호란
4차원
김도
논의를
메일
바를
번호가
보였으나
삼는다
생김
외과
작위가
청각
초자연
충숙
타점
팬들에게
포러
한하여
행선
현생
흔적을
흡입
##부스
##하워
##들로는
##레로
##거와
##즈미
##배는
##bor
##탄과
주장하여
##이트의
진출하는
변경되어
발전된
운행된다
주도하는
부정하는
재직하였다
베르사유
카메라를
enter
team
승객을
발원하여
조선왕조실록
캄파니아
골라
곳에서는
과학과
몰랐
박경
방울
북상
삭감
성경을
이서
재빨리
종래
초계
팀들은
표적
##소시
##버드
##코리아
##암을
##받기도
한국영화
야구의
남쪽에는
도착하였다
배경은
하드웨
연고지를
감옥에서
young
bur
set
간파
관개
데니스
발상
사피
손수
수다
수있는
안된다
압수
용기를
잠비아
전술을
주소를
중신
컨디션
핵분열
홀수
힘에
##2를
##사단과
##예의
##연대가
##너드
##톤을
10m
##주의로
관리되고
내려다
파견하였다
회의가
금지되어
1846년
의견도
심각하게
아파치
의존하는
리스본
2층에
##조차도
##ittle
1주
4가
결장
고압
구도
달마
대결을
덕수
미켈
선명
선에서
옥수
테란
포틀랜드
하리
항생
##부대는
##평면
##ns
##들에는
##분이다
##투표를
##뛰기
15만
1956년에
사실과
차지하여
라이베리아
건물과
##호선에
표준을
통과할
마음대로
##지역은
방문하는
슈퍼스타
히로부
귀족의
산맥을
부인인
공헌했다
히틀러가
거짓말
이지스
그랑프
가면라이더
디렉터
human
아칸소
베테랑
감정이
구는
귀화
김우
더하여
독주
말소
미생
비야
사흘
선덕
아자
안다
압력이
억류
에나
열렬한
영위
오류를
인치
잇따
제지
진지를
치루
화석이
##평이
##ness
##런이
##g의
##모닉
##f는
##타노
시작했는데
제28
공격수로
이탈리아와
지원하며
모델인
나오기
선정했다
데이터는
이곳에는
북한군
가수이자
구분하여
확장된
종합격투
성격은
연맹은
증명할
베이징에
차별을
남아있었다
본질적으로
##formation
튀니지
3기
9개월
cas
mel
고로
구운
극소
니콘
도끼
로큰롤
리차
못하자
번으로
빌드
사단의
속주
아종으로
압송
장군을
조장
첫날
하얼
혼슈
화승
##04
##경보
##계통
모두에게
아이들은
##ush
아르테
##학과에서
접근하는
규정된
금지되었다
1849년
마리아는
나와서
입대하여
합리적인
맥스웰
익스플로러
아이젠하워
유틸리티
블라디보스토
6차
bb
hell
담임
뒤부터
막았다
매슈
바덴
배드
불로
불펜
비추어
수지
약을
원정에
이선
중량
천체가
타일러
현과
##대항
##문과에
##티엔
##1회
##댄스
20개의
1985
1961년에
정치와
가능하도록
전투와
부분에는
000명을
2009년까지
방법의
연결하여
자연적으로
개념과
부여군
드러난
소재를
자동차를
아시리아
조성한
노력하고
summ
정차하는
corpor
조조에게
아나톨리아
wc
개표
밤에는
수명이
외관
웅진
자르
조조의
친화
함을
합니다
##문고
##들였다
##아카
##라카와
##오기
##오스트
##공에
1986
15개의
사이트를
30km
생각하지
드라마의
단체에
오래전부터
개혁의
선수권에서
1855년
항복했다
##ally
하늘에
sound
##무늬를
올랐으나
이렇다
거머쥐
7천
pac
그대
따돌
먹으며
법규
비에
삼부
손자이다
스스
스은
안을
안중
영적
유무
집전
철기
출정
취해
표면을
하층
히트를
##지대에
##ny
##버려
##학술
##태의
##장비
##펠트
이용되는
주장하면서
공격하고
지정한다
사실로
이것들은
이미지가
상대방
머리장
거절하고
사항은
늘어나고
둥글게
만장일치로
60년
ef
ros
year
거치지
군단은
글은
대차
대방
동적
두었으며
런칭
만으로
매월
베가
베다
보면서
사산
새천년
알비
오피
임베
잠을
좋게
주기도
토리
폭주
학업을
협정에
##남으로
##름한
209
##inus
조선중앙
아니기
8월까지
##로서도
일부인
고려할
2006년까지
분류했다
왕국으로
방문하였다
작가인
시도한
남편인
건강을
은행의
요소이다
출간된
체제에서
마음작용이다
화살을
보니파
미카엘
델라웨어
맥락에서
가정을
곳에는
넘버
넬슨
동맥
라자
로만
메신
박헌
살다가
샤프
소령
소양
소선거구
쓰나미
지카
처방
총격
홍무
화북
회담을
##ira
##버터
##카테
##히기
##쳤는데
##균의
##icus
2014년까지
열린우리
변경된
노동자들이
##ady
과거를
교수와
계급을
company
테크놀
far
넘은
도의
도장
맡으며
면적을
비슈
서리
손쉽게
알베르트
우마
자원이
종실
측면에
해는
해치
화상
##담의
##55
##디스크
세계보건
들어가지
존재한
시절인
2016년에는
inde
마을이다
기본적
전통에
선출하는
후반기
패배하고
##시즌에
1852년
가입한
포항시
##주자사
비옥한
일설에는
겨냥
고종이
권투
급기
대진
도가
믿음을
바야
보너스
산인
승선
식년
안후이
우디
재조
종양
징계를
피카
한문
항구를
현청
현상으로
##out
##화한다
##상어
##수호
##포도
##제에게
##손이다
##분할
사용되었던
##3년까지
리그컵
프랑스인
##위원에
##use
참가했으며
2011년까지
위원회가
어려울
가문에
결성하였다
떠나고
##ander
마쓰모토
혼란이
급제자
만화가이다
민사소송
부에노스아이
과실
나인
당했고
덕양
방에서
아약
연대가
와해
유상
의례
지니는
집안은
체력
총살
추봉
케인
태안
통신을
팀내
핀다
##부전
##센은
##왕릉
##오밍
##익은
##판에는
##왔는데
##쿠사
1955년에
작품으로는
1914년에
조직하고
수상자
이야기로
발전해
비판적인
가까스로
제한적으로
파견했다
##이어야
행동으로
혁명적
1800년
마련되어
원작의
목적의
탄생하였다
예상된다
지식과
독립운동을
타이거즈의
대법관
갈아탈
##아파트
호찌민
1편
mir
가시마
가정의
강북
대뇌
도라
도나우
동티모
드미트리
로의
로베르토
명승
박테리아
밝히는
보나파
뽑혔다
에볼
예시
인체
인질로
정언
주나라
지식이
판단을
편성으로
포의
하려
히토
##정적으로
##병마
##개념
##그란
##외과
##춘추
선수단이
한국에는
아니냐는
theory
활약했던
표현된
개최하는
마을버스
특징적인
이곳으로
분리하여
마음으로
정착하였다
장애가
당초에는
근본적으로
통상적으로
동아프리카
일시적인
살인사건
말레이시아의
##이즈미
일조했다
발라드
토마토
해운대
니가타현
radio
온두라스
강사로
고노
내적
보았을
스턴
양국은
워커
원했다
일하던
주기를
##왕전
##심판
##레르
##쳤던
##충을
##엽수
##들이나
기록도
225
2013년까지
확인한
사상과
출판한
그림자
해안에서
전차의
한반도에
지식인
적절히
개설되어
work
예외적으로
##등록문화재
스틸러
model
캠페인
디나모
little
근교
남경
다자이
무거
보그
본사가
상사
수위
중학생
친위
한자를
흥덕
##철도가
##대인
##블릭
##즐랜드
위치와
알려주는
대학원에서
선거구에서
출전하며
활약하는
졸업했으며
##기관은
반응하여
1994년부터
오르지
채택한
제7대
고속철도
무엇보다도
국회부의
간행한
일원으로서
콜롬비아의
two
팔꿈치
메트로폴리탄
70년대
강호
구실을
기계를
뒤따
로우
명과
무수
어류
오른다
유위
이아
일었다
임대를
자리로
주살
착안
크라스
테니
페인
플뢰
황보
흑해
##내에는
##티우스
##47
##한정
##타야
##란한
대한축구
10일까지
한국계
작품들은
필요하다는
월드컵에서는
조각이
투표에
태풍의
동료인
중반까지
관광객이
발각되어
2등
420
군자
낙랑
마른
스베
슬퍼
심법
애매
여긴
일정을
장타
중령
태수
팔렸다
##2호
##나가와
##키로
##대행
##보에서
##업자
##펠러
##션이
사용에
사용되었고
프랑스군의
기술적인
출연하며
공산당에
강화군
법률이
파이프
550
장착되어
rob
반발하여
영혼을
투르크메
프로게이머로
일렉트릭
펠로폰네소스
camp
luc
독수리
속하고
술에
양산시
업체이다
엘살
원소로
유폐
유스티
점의
직류
치르고
탈수소
털어
트램
편제
협회는
##가이
##골에
##범은
##악산
##esa
운영된다
소련군의
통과하여
법률의
제40
조정에서는
강조하고
판결이
3세대
선보인
소규모의
엘리베이터가
jon
공사에
구비
국문
등에서도
묘지에
민중의
분쇄
사주
카다
합산
후베이성
##화되는
##포럼
##네와
시작하며
14개의
##리그로
생산의
결국에는
후반에는
불과했다
전후로
하늘에서
참전하였다
번주이다
모터사이클
어드밴
컴퍼니
ia
결탁
궁수
꼬마
남기
두번째로
법과
사자를
안톤
열렸으며
자리가
전기에
참패
태워
푸스
##전국
##호흡
##치아의
##상가
##작업을
##한지
##반트
일본과의
세계가
연구에서는
처음엔
아이들의
교육이
대체하는
under
표시한다
해외에서
겨울철
비밀을
편성되었다
건립한
잘못을
시각을
비난했다
##기간을
트로피를
독립운동가이다
초등학교이다
정교회의
전문가들은
peop
에스컬레이
um
고모
궤멸
기자로
로널드
마시는
발광
신부는
신정부
아말
용도
주선
중에도
지대한
형편
화석은
##명이었다
##리라고
##판이다
##연장
##민정
##으로만
12일까지
지역에서도
있었음을
없다며
여성주의
이야기에
물리적인
서비스이다
lee
adv
실질적
법칙에
아테네의
나타내며
이념을
옛날에는
##여래좌상
분광형
위안부
싱어송라이터이다
인노시오
cry
경종
구세
남우주연
무정부
문교
않겠다고
온화한
운임
유족
유창
자존
자체로
총학생
파피
한라
행해졌다
##가서
##메네스
##복과
##구락
##암과
미국과의
것으로는
1957년에
인정되지
기능의
변경하여
자동적으로
경찰청
1999년에는
제품에
1993년부터
드러난다
거부한
준비하고
나타나게
1840년
단계는
확정된
레코드에서
의무가
법정동
##종합운동장
교과서
교차로이다
신선한
와이번스
##케라톱스
langu
1tv
농성
뱅크
법으로
소사
의사의
입적
줄이
진천
체중은
클레오
현상에
흥분
##색슨
##관계의
##아들로
##c의
##협동
##헌은
##렉스
##iness
국가등록문화재
진행되며
24일까지
유지한다
부문의
##aff
파악하고
라이온즈의
영광을
재활용
캔자스시티
미래통합당
스테파노
투르크메니스탄
규정은
대왕의
딸의
문하에서
선로를
시리아의
신약
알리기
영도
잡힌
주상
지치
지체
후대의
##르나
##나비
##대에는
##line
##순서
시작해서
역사학
참여하게
2015년부터
과정과
역임하였고
##나무의
수준에서
공작을
등록명은
다카하시
활용할
제기한
1830년
판단된다
떨어지고
남아있던
약칭은
상호작용을
29년
3집
8m
nov
river
가파
그들과
내란
논서
떠났고
레퍼
매춘
사파
세리이
아연
없거나
연천
왜성
왼쪽에
우스
유역의
이을
저가
주루
철원
탄산
튜링
합장
핵실험
호스
흉내
##들에서는
##레에서
##바꿈
##ware
##브고로
##좌상은
프로게임
참여하였으며
유럽으로
code
조직인
표현했다
개최했다
계약으로
사상자가
소프트뱅크
시내의
전철역이다
무덤을
tele
기하학적
죽이려
집어넣
금환일식은
tal
괴팅겐
대선에서
망가
모여서
서구의
수상을
스완
아쉽게
앵커
오도
육박
은평
작가는
장항
진핵
퍼센
학력
호전
히스파
##어로는
##lor
##보라
##루브
##러시아
##학위
##흐는
##lat
선수들과
포함하지
제작이
참여한다
참여했고
사실이다
발전의
##adem
그룹인
##eck
노선과
바로잡
우주왕복
국가대표팀으로
통일된
북쪽에는
공항의
관측할
체결한
채택된
녹음한
트리니다
##박쥐과
선생은
테마로
아인슈타인
제퍼슨
##플레잉
가두
가치는
구석기
내로
동거
수족
습지
시체
신촌
열람
옥개
용문
의도를
차차
태조의
##소나
##이였다
##음보살
##능을
##arch
프랑스어로
30대
문제들을
지원으로
이동한다
남쪽에서
목록에서
제안된
오르기도
본선과
나폴레옹의
끌어들이
준결승전에서
제11대
##투쟁을
모으고
궁극적으로
백화점
시부야
수마트라
3은
mill
공조
광대
귀를
길어
나시오
날개가
내성
덕흥
레스
승단했다
오면
유다
유미
이설
이민족
정해졌다
직관
콘라트
토지의
향교
회부
##조약을
##자형
##결의
##루스와
##암사
##처에
##없다
7월까지
이어받아
참여하였고
돌아간다
제39
국내선
이라크의
네덜란드는
비행기를
##사업에
마련한
위협에
등급이
공통적으로
싸움이
다비드
가계
경산
고관
관리의
농도가
데다
독성
롤플레잉
마사카
박격
애프
업적
오미야
유비가
첨부
충신
피가
하워
##oul
##물도
##바타
##분간
##급에
##각류
##김씨
##콜로
발견되었고
중앙에는
23일까지
이론적으로
소련을
등으로도
도로로
개봉하였다
프레드
지진은
2세에
나타나기
나누었다
반영한
어디에
9번
ni
tbc
간도
꺼내
녹화
대고
말년
문장이
미인
부지를
산간
살이
상으로
숙주
순위는
신으로
쓰루
안창
앞을
양원
진위
푸에
플러스
휴식을
##사단을
##승람
##uck
##수상
##제도는
##마뉴
##절과
##봉과
##남은
##vi
##총을
##atch
1959년에
##ison
사망했고
상태다
##ury
만들어서
드라마에
판매량을
표준화
오른쪽으로
1792년
초반부터
나카노
명명했다
레오나르
syn
##트릭스
앤드류
압박을
아즈치
실시간으로
막시밀
글러브
##레스테롤
direct
1읍
kc
걸맞
골은
권의
당을
듣게
마리가
만력
말려
모피
부인과
상단
세가지
예전의
조우
존슨은
증상은
천지
취직
커졌다
콜드
파블로
판이
하산
흐루
##술과
##로키
##보조
##개소
들어있는
사회당
러시아인
인정되는
자연수
기관에
클럽이
불과한
인공위
알고리즘을
comput
불렀으며
패러다
제수되었다
fs
kw
lb
무주
배설
산마
산소를
식량을
싶다는
에든
장단
제르
제프리
좀처럼
중세의
초거
코나
후사
##공사를
##요시의
##그가
##그리스
##국도
##연대의
16개의
대통령인
##이드의
제3의
명칭인
경찰과
2020년에
사라진다
포지션을
합류한다
1844년
주인공의
갖추었다
채택했다
1795년
기둥을
법정동이다
대다수가
박물관이다
카이사르의
버려진
메르세데스
get
h2
hiv
공상
교의
닌자
다나
당한다
대파
블랑
상계
상투
상대의
서클
소음
수뇌
일과
정씨
차장
찾은
##담은
##책의
##토크
##토스는
##베를린
##프스키
##박람
있다며
사이트에서
1952년에
공격하기
설치류이다
22일까지
##urt
개최를
2003년까지
클럽을
데이터베이
제4회
합류하는
사령관이
묘사했다
갖추게
논쟁의
백성들이
크라운
탐험가
선호하는
한양대학교
일어났을
오하이오주
헌법재판소
꼭짓점
유벤투스
불완전
실리콘
1km
5칸
ae
gb
jac
test
고승
고해
길며
남자와
넣을
노던
달랐다
바보
범행
선별
습격을
오닐
의금
장면은
전갈
전일본
지켰
칠성
카오
켈리
패주
##지다
##je
##사우스
##가리
##노헤
##루스가
##천동
##쥐의
##돈은
14일까지
대부분이다
개최국
건축의
사무엘
성립하지
동쪽에는
표시된다
##세포는
그곳의
맞이한
##iii
edward
쓰러져
심장마
foot
스폰서
시직경이
서바이벌
aug
hp
mig
금색
단발
던졌다
둘로
모리오
수번뇌
승격을
신호가
오쓰
위도
유자
접목
조제
존엄
집회를
출루
침례
카드의
통로를
##uel
##집과
##축의
##현감
##링크
##톤급
1940년에
정보에
프리츠
버전이다
공작은
서쪽에는
탄생했다
임대되었다
알고리즘은
준공되었다
갈릴레이
영유권을
1무
4분의
고갈
교사가
대수를
사소한
섭씨
성찬
알브레
오랑
유산을
인솔
인가를
주화
패전투
##0명이다
##런트로
##들어가
##mi
##극의
##실업
##증후
##막은
##윤이
##lation
16일까지
알려졌으며
발생하자
지금까지의
철도와
제33
이동이
계열에서
1세에게
##은행의
늘어난
흐름에
테헤란
6의
bon
nav
광도
교대
다리의
당에
땅콩
리저
브렌
사명
삼도
상동
송병
시문
이었던
정여
정조의
천하
표는
헤로
홍건
##중이며
##르에서
##보우
##교섭
##력도
##효과를
##첩을
##8년부터
중앙부에
100km
만들어내는
기업을
부르는데
##시킨다는
선택하는
변화와
천황을
사라지게
접근이
2세에게
마련해
소개하는
출입구는
공유하고
직전까지
폭격기
오디션을
key
초고층
hi
tem
강하
노골
눈과
대사로
못하면
민선
방탄
설정을
속이
신곡
예조판서
인생의
임의로
접하는
짝수
청자
폴라
한참
허베이성
##소비
##통감
##향교
이후는
시작하게
구성이
영국군이
올림픽과
군사정
선출되었고
고등학교에서
1847년
1794년
전후에
원정에서
1623년
737
시상식
마찰을
개원함
클라이맥스
##직할시
앤서니
3배
cir
may
sin
나스
내쫓
도리어
루프
받으면
버리는
보어
부부가
암스트
원생
이브라
장경
재결
재계약을
차에
카잔
퍼트
포칼
헬기
##덕은
##정거
##외의
##외로
##격인
##순으로
사용자에게
한국으로
##ato
##row
이탈리아가
수상자이다
인도에
추가되어
500년
##르트가
앨범이
이루어지며
후반의
##센터를
관찰사
구별할
테이프
기소된
책봉되었다
부장판
장난감
제노바
지류인
records
키르기스스탄
3등
3호선
6세는
농사를
따랐
많았던
물류
물었다
사장을
시위에
안심
원자의
일인
잇따라
재선에
재무부
카터
포리스트
화물을
##어머니
##서면
##화합
##벌리
##데의
##거리와
##업무를
##ict
형성했다
##적이거나
대중음악
해석할
보존하고
1836년
가격에
8000
복합체
호텔에서
학문이다
peter
부분일식으로
디에고
street
5단
cu
kl
개월
그물
나면
덩어
랭크
명이었다
발목
병풍
생도
생제르
서문
쓰며
여겼
임실
좁고
충선
품종
하세
학대
활을
##기성
##2회
##오세
##입상
##튼은
##딩을
##alth
1930년에
발표한다
발생해
선거의
요구되는
공간과
모델과
실험실
투표로
행동의
회의는
1832년
관찰할
1796년
맞이했다
보르네오
낙선하였다
다녀왔다
누군가
시즈오카현
가장자리가
4억
7m
관용
교체로
마취
미겔
미망
박태
선로가
아코
연좌
전하지
조나
증오
한자로
행해지는
헤아
##키오
##인으로서
##정적
##리사
##동기
##드볼
##혼을
##향으로
##칙을
##혁신
24개
임명한
필요했다
노동자들의
인간에게
실패를
선정됐다
찾아온
공연이
분포를
여겨지며
##ther
이슬람의
구별되는
끝나자
frank
##velop
코호몰로
거점을
고종은
뇌졸
미첼
방면에서
부결
비하
새겼다
속에서도
송광
쇼난
스퍼드
쓰쿠
여긴다
이숙
접착
증류
출구는
칭한다
펜타
하였던
현지에서
##였기에
##보상
##고문
##44
##봉산
##형이며
##무지
##패가
##필의
선수로는
유지하면서
반대한
기업에
제외되었다
정신병
시도하였다
아내로
공급을
세운다
받아들일
브랜드이다
에어버스
향상된
질병의
carl
개장하였다
가시광
동영상을
disc
정유재란
녹아
데에서
등번호는
몰리
밤의
베를
불쾌
서둘러
세탁
소홀
스킬
심왕
안식
알현
알았다
원장
일하면서
잇는다
조나라
종족은
청진
쿠릴
향한다
##환과
##당하게
##차트
##게르
##인해
##덕이
##아메리칸
##보유
##으론
##면체
##식스
##텍스
1983
1938년에
배우기
후보와
추가한
연합을
적용한
유전자의
출마한
구별하기
단백질은
무덤이
사단법인
행렬의
##이닝을
남극을
news
한국독립당
리모델링
하얼빈
5명이
cle
kes
거스
다짐
드레이
밀워
번영을
법제
부역
뿌려
서신을
성층
수훈
안개
안산시
어워
오마
이었으나
임사
조례
찾는다
책정
탈피
투명한
하플로
##에스
##계사
##태자
##너스컵
11일까지
그리스와
17세기에
소속팀인
평가하는
적용하는
실험은
방문해
등록을
제시하고
계급이
도달한
노부나가의
우려를
스케이트
마감하였다
꾸준한
정류장
정류장이
제18대
초등학생
control
옥타비아
louis
9번째
가가와
교역을
기공
김연
달라이
두만
땅은
라벨
모식
반하여
삼한
색상은
순양
와중
의왕
인출
장르를
지뢰
총알
충주시
패하면서
패트리
펼치고
한시
히다
##전철
##호크
##인수
##간과
##렌의
##경연
##테일
##51
##강에서
##리아노
조선은
##회의가
프리랜
학교로
소설이
적용되어
가족들과
조사되었다
애니메이션으로
언어에서
그림과
파견한
해석이
종류를
사진은
채택하였다
보급을
나서서
##제국대학
합쳐진
##보병사단
급진적인
바나나
##부상서
호쿠리쿠
##평론가
equ
관례
꾸다
넘겼다
데르
본적은
세단
안은
양심
원나라의
인재를
절대로
직물
출력을
치사
파편
표트르
후회
후백
##oh
##화해
##버리는
##리거나
##티르
##통계
##8m
##검을
##혈을
##달은
##살인
##헨에서
##겐의
일부와
이상에
서로마
개인정보
바다와
자본의
애플의
도달할
제8대
내셔널리그
지켜야
토요타
##earch
lol
squ
광장에서
기구의
당상
두번
루즈
맡으면서
범위에
서태
세그
소프
소장은
스의
신에
신경을
알론
우이
의화
이므로
주기는
줄임
진격을
통감
##술에
##자료를
##송은
##공예
##면허
##제나
##식민
##모노
##규의
10회
##기에도
축구의
국제사
##시키게
설치를
대학교가
제34
받았을
대하여는
500명
강화하고
분열을
회전하는
코로나바이러스
줄어들고
백성들의
물려받았다
오를레앙
한국철도공사
이메일
people
fam
sac
가하는
공사로
군도
남짓
막지
매치
반유
보두
성장과
세상에서
완만한
왕이다
위계
자정
장식이
천궁
캠벨
키우
##보트
##카로
##더릭
##표에
##폴레
하나도
사회복지
구성되는
문제점이
생산과
개최된다
##선거에서
##사업으로
충돌로
문서가
전철의
1392년
디스커
코믹스
그만두
색깔은
일본국유
baby
데포르티
hard
mur
구타
글자가
나치의
당국에
도지
마포
박사의
발송
방한
북부를
비문
슈테
심문
양지
어부
어딘
업체인
에로
중첩
최순
템플
표면은
피사
피타고
##했는지
##화나
##아마
##39
##경보다
##상속
##hd
##줄을
##남동
##실점으로
##혈압
##날이
그러면서
활동할
30분에
관계에서
아버지이다
담당하게
선정되었으며
기념비
1998년에는
시설의
작용에
의원들은
대응하여
보수당
넘어가는
나뉘는데
##정책에
1597년
가나자와
고문으로
이르러서는
가이우스
##미술관
다이아몬
##other
콘크리
모나코
리베르타도레스
obs
가평
감축
고르바
극중
본디
사격을
산탄
상법
수문
약화되었다
잔인
잡지에
청렴
층의
항저우
##킨슨
##받으며
##갔을
##곤은
##탑의
206
영화상
시즌인
##라이스
이어갔다
출연하는
분류하는
이적하였고
인물인
전문적으로
브라질에서
승격하였다
##사업의
게이한
##고속도로와
갈라진
프로토스
중성미
수직으로
버지니아주
별칭으로
사천왕
갈릴레오
루키우스
코호몰로지
임베디드
4량
4위로
cra
gala
lat
관청
농지
단성
둘레를
막혀
센타우
스바
애버
야권
오류가
외상
이들에
인스턴
저서로
체중
출국
펼치는
하수
협약을
##o는
##로메
##보게
##리라는
##데오
##회사에
##법적
##여야
##맥이
##헌의
##녀와
##있다는
##돈을
19일까지
일본어로
생활이
2004년까지
수록한
멤버는
바뀌면서
공항에서
바람의
간주하고
귀국했다
프라하
사우디아라비아의
없애고
고다이고
박람회
우쓰노미야
pri
tar
가디언
귀의
나잎
마태
물로
미적
미추
볼륨
에트루
영흥
입었고
절의
제각
참된
축산
큐슈
퓨처
해와
호엔
히가
##도감
##다에
##워진
##해지기
##히어로
##율로
##렉트
##름에
##학교가
1월까지
이용하였다
존재하는데
대통령직을
독립하여
시절이던
stad
건설했다
50km
##cm에
자기장
분석하는
일어나면서
이집트에서
가입하여
제기되고
가로막
선고받고
약속했다
공통된
승려가
원시적인
##여지승람
vis
경사가
계기
굴을
리즈
무비
문고
반도를
신민당
유림
이부
조승
칼레
피스톤
함선
##부정
##라시
##88
##gg
##투스의
##향에
##돈이
10명
가능했다
설립되었고
##학자들이
개최되었으며
모양과
연기되었다
동쪽에서
##ograph
1개를
올리며
마법사
상원의원
자오선에서
무지개
백두산
하코다테
세비야
과달
닉슨
도핑
모형은
문학적
믹스
박수
범위의
상대가
안기
여유
여생을
연장은
입자를
자로
자외선
주인이
침식
탄화
특권을
##시트
##도선은
##지점
##레노
##레알
##데는
##wc
##운전
##블린
##밖의
동안은
발표를
고려해
프로그레
차지하면서
열차도
1년을
황제에게
기초하여
탑재된
요리이다
1600년
공부하고
##조판서에
장치에
창단되었다
princ
아우구스트
컴파일
승용차
콘스탄티누스
미합중국
주세페
고르바초
1경기
2에서
like
pass
급습
기간의
기지에서
김학
무역의
문학과
부두
불투
양주군
역무
열악한
용수
적에
출병
파장
학문에
함정
허물
협업
##들까지
##수있다
##던지기
##설립
##건강
##곡이다
##불로
##북부
##갔던
##이다가
작품상
선거구에
행정동이다
국회의사
표준적인
배치하였다
가르치고
평화의
##생활에
도달하는
해산되었다
공과대학교
8명의
계략
골격
군에서
까다
까마귀
다당
든다
마거
만경
박승
뿌리는
사과를
서인도
섰다
손오
스캐
없습니다
왕권을
요네
제자인
존경을
판별
폭동
휘하에
##ey
##퍼가
##바드
##임관
##예수교
##여의
##왔지만
##팽이
일부였다
러시아를
소속사는
1900년대
이끌던
und
통치하는
남편은
해체된
단백질이
##ious
##고속도로가
##시험을
새끼는
자랑한다
혁신적인
research
engine
홈페이지를
eff
ud
공기업
관리에
노리고
논문은
데루
뒤쪽
때만
랜덤
막판
말하기도
면의
바하
변혁
부는
상은
쓰이게
앨리
역동
오두
운전을
지대를
치킨
크라우
트러
할로
화약
화면의
##내면서
##데다
##여왕
##글린
##하고도
##3년부터
10월까지
##이었다가
처음이다
문제이다
교육은
분류되는
##운동과
cha
작곡은
동맹의
대응한다
규정하는
성격에
가담하여
시카고에서
무늬를
오가며
이에야스의
바실리
필사본
보헤미아의
부드럽고
무척추
european
9대
bal
jul
꼬리가
내다
동복
라미
마흐
배심
배리
부코
불순
불충
브리스
사미
사목
서장
설명이
승리의
율령
의장으로
준주
즈음에
찬탈
컨페
혈통을
##행위에
##송을
##욱은
##패드
##멜로
사용하는데
연구자들은
존재에
이전에도
##els
진출이
모델에
전국을
확인되지
존재한다고
45분
개통하였다
의원들이
정착했다
갖추어져
유엔의
att
수집한
발굴된
한정된
철수했다
돌아와서
복무했다
시상식이다
고안한
패턴을
korean
이화여자대학교
장학금을
##ield
아데노
히말라야
5층
aw
경멸
남자를
넘었다
마모
물자를
발자
사계
사신으로
성추
성형
속성
술라
스펜
액세스
외면
우랄
유실
즉흥
치르는
태종의
평했다
##말이다
##자다
##ule
##수학
##백여
##연하게
##단체를
1920년에
##대표로
##mm를
나오기도
뛰어났다
union
파일의
k리그1
반지름은
하시모토
이득을
미에현
생제르맹
남는
다고
만수
미끄러
박은
본문
부위에
부대와
북조
비긴
산신
섬멸
스톰
식료
않던
언젠
인도를
전류가
조시
특권
퍼스
학업
형광
휘트
##테라
##코스트
##광장
##올리
11세
다음에는
경기에서도
모두에서
이용했다
자유가
배우자
지원하여
##민주공화국
공개되었으며
민족향을
선택했다
주연의
식민지가
방어선을
투수로서
1837년
정복한
완공된
히로시마현
유배되었다
경유하여
무소속으로
내외의
업그레이
왕세자
알프레드
앵글로색슨
거룩한
셀레우코스
8명
거처를
군주로
기노
날의
로시
마저
무위
무과에
선조는
설명이다
슈뢰
실마
아에
양재
양정
열강
외동
원이
일환
장군으로
정실
지게
한니
호로
##2로
##내각
##대통령
##레슈
##초메
##추를
##열로
##강화
##틱스
10번째
자신에
존재하지만
로마와
발매되었고
타이탄
스타일로
인정되어
##mm로
공산당이
5000m
우리나라의
자녀가
샤를로
organ
국가보안법
일렉트로닉
od
간판
견습
과천
구아
군인들이
까지의
대용
도제
라벤
루크
반려
손가락을
수하
역에서는
왕비의
월경
정점을
충당
해동
호투
흑색
##전지
##화되면서
##키지
##재료
##티어
##4의
##교환
##더레이션
##속도는
##orts
##lam
지역까지
활동도
##이었기에
존재하였다
아이작
고려시대에
시대적
평가받는다
이론으로
도쿄에
활용하는
유니버스
전환되었다
알렉산드
공화정
규칙에
스미스는
폴리네시아
새벽에
중립을
제21대
아나키즘
상응하는
무작위
##장로회
일각에서는
cast
ll
갑상
개구
고운
구역에
대소
레스터
매번
몇가지
법원이
보카
빠뜨
수서
수학과
영종
일제가
재규
주유
진화의
팔로
필기
형조판서
화이
##01
##유공
##무대
##망과
##립은
##잠수
##윤리
이후부터는
18일까지
연구하였다
구성할
계속되어
해당하며
결국은
필요하지
fc가
제37
반대되는
교황을
싱글을
위원회에
전환을
후손인
가격으로
현실에
joh
테러리스트
코믹스의
남한산
놀라게
피오렌
1명의
9일까지
fest
hor
공경
구애
깃발을
낙향
남포
낮추
노무라
모라
스에
양전
예수를
은둔
이한
종주
지성
지름이
진의
친분이
콘월
피리
환자를
힘과
##도니아의
##오버
##범을
##악을
##살라
##플라이
##플라스
시작되면서
선수에
선수에게
##레이스
1953년에
전체에서
분류되어
##레스비히
기관인
추정한다
이루어졌고
싱글인
1997년에는
##세포가
수립된
블루어
##경찰청
지붕돌
이익이
psych
##ather
아우구스투
그랜트
득표율로
에이전트
post
묻자
벌였고
붙이고
선인
성리학
악화되었다
예금
유공
유흥
주심
측면이
콜레스테롤
##결에
##화재
##선도
##익의
##바트
##세트
##누이
##훈장을
16세기에
수도원에
결정적
##어져서
기타의
develop
반응의
변화의
가능하다는
계열사
신라에
소프트웨어이다
오리올
해양수산
폐쇄되었다
카이사르
게오르기
이바라키현
필하모닉
트리니다드
암스트롱
1항
6위를
sig
tro
wk
개정을
기호를
대면
도매
반일
버락
빅터
수치를
순치
스을
알자
엔트로
열성
오즈
이대
자취를
적정
조사가
주었으며
평방
학문의
##발에
##절차
##bus
##축제
##삼진을
##샤는
##ani
1937년에
사망하는
수도원의
없다면
##카이치
증가하여
최종적으로는
반응에
공화국으로
마르셀
분석한
추진하는
365
process
sup
한번에
샤를마뉴
학문과
무사시
왕위계승
평균자책점을
현저히
파푸아뉴기니
4선
간편
갑신정
국기를
네가
면직
바레
부당한
불렀고
숙고
에픽
옮기
접전
중점
##관계는
##변화
##악기
##볼트
##피와
##1년부터
현재와
일부에서는
구성한
##부분을
발견하여
##km를
##민주연합
##해야한다
확인하는
클럽에
컴퓨터와
공산당은
불구속
발사되었다
합병되었다
##세포를
시내에
생명체가
급제하였다
book
직전인
moon
멜로디
경희대학교
서귀포시
크리에이티브
8의
공은
구명
기량을
김석
남중국
마신
사본
사장이
수학자이다
스칼
알수가
에코
에리트
왔을
일생을
있음이
적에게
##시효
##이니
##2m
##아우
##레트
##책에
##었습니다
##포인
##터이다
##우도
##운드는
##롭다
##톤이
##털이
207
일본군을
##스트림
프로페
이어받았다
형성에
##oma
2000년까지
선정되기도
멕시코시티
오스트레일리아에서
계승했다
제출했다
조절하는
보컬을
선포하였다
논리적
콘스탄티노폴리
경부선
물고기를
k3리그
henry
파충류
반민특
1번째
3명을
hs
lpl
고타마
극적으로
너는
디펜
모션
반열에
안세이
예의
오슈
오타와
원형을
코민
포세이
한진
히바
##승과
##암리
##디우스
##섬을
##훈과
##필로
##탐정
공격수이다
항공은
피해자의
요시히
경쟁이
등록이
경계는
녹음된
노예로
투입된
head
브루크
##기능을
주축이
현저하게
초연되었다
관음보살
외삼촌
클라리넷
base
dar
가전
각운동
개요
겸하고
남해군
당신이
도독
동이다
보도를
본작
볼을
분개
상이다
선회
스콜
양구
오목
조항을
증식
집단은
청백
켈빈
티모
포위를
피우
핵폭탄
호국
##을수록
##평리
##p의
##3호
##산읍
##토스의
##구장
##동면
##카시
##벽은
##됨과
##삼아
##객이
##활동이
18m
시작됐다
모두의
##osp
상대적
지도자들은
사랑이
컴퓨터에서
위원장으로
버전인
경험한
4년제
1차원
녹음했다
사법연수
soft
로켓을
법칙은
사퇴하였다
쿠바의
##청년회
시직경보다
하반기
무서운
엔트리에
가사가
경관
곡선을
관공
교착
남부를
내면
당신의
도파
리키
리모
스모
신문을
앉은
업계
완투
조치가
조정이
판사로
호노
후대
흉노
흐름이
##시계
##시장을
##당이다
##m은
##아과에
##퍼의
##안타를
##저로
##입자
##성이라는
올림픽이
나라와
##ents
선정되는
이와는
평균적으로
위원회를
##ird
프로젝트가
바람직
탑재되어
제목이
강조한다
기사단
지금까지도
접촉을
밀접하게
이오니아
개관하였다
클러스터
리우데자네이루
인구밀도는
5세가
bill
sir
고취
교류가
구역의
농도
누워
독실한
로코
먹은
문학을
민감한
발음이
방안
부총리
선한
순천시
원추
자산을
최용
충실한
##소유
##이적
##도에는
##때부터
##커와
##테스의
##상수
##단체로
##숙은
가장자리
가능하지만
지금과
fire
상대성
인물들이
민족적
표기하는
사우디
간섭을
상세히
프론트
이와테현
르완다
프로그레시브
call
가독을
공기의
기네스
동시대
말년에
멜라
바치
받들어
범용
부응
비대
서보
쇼니
시안
앙상
여래
열렸던
외로
집현
폐지를
후난성
##자카
##에어
##대도
##해에서
##네이스
##매가
##섬에서
##려한
##탈리아
##플러스
사용해서
국가원
사회인
제1호
제1항
리그와
작품과
문화유산
제국에서
만들어냈다
##ider
선정되어
주민은
소재의
아우르는
의사표
침공에
출마해
전후의
명명된
이기지
내세운
철거되었다
성벽을
에인절
v6
가졌던
공과대학
과로
국정을
끊이지
나도
냉동
넓다
대흥
돌며
발터
병조판서
부품을
불상을
브릿
비핵
아츠
에이지
용량
유구
유역에
이더
인신
전선의
점화
파헤
판소리
퍼진
현도
홍천
##지명
##사라
##죄의
##카인
##무트
##벽이
##번과
##능이
##글을
##칼레
##됐다고
지역별
경우에만
사람이나
기록인
세계유
##ester
리그에서는
1936년에
설립에
받았다는
계속하였다
생활은
##cher
마이니치
anal
tv의
애니메이션을
캐릭터이다
그곳을
대립을
어렵다는
지내던
##oney
돌아온다
석회암
레버쿠젠
인테르나치오날레
보두앵
1심
old
간격
강구
공약
남의
대광
두었는데
드루
따위를
로망
모티
발차
산술
선물로
성원
소마
수단이
승리는
안무
액티브
오나라
인연을
접경
정시
정면으로
주류를
치하
토성의
파도
파드
##지라
##전설
##대기
##리츠
##복실
##4는
##유물
##협정을
##난으로
##축이
##타다
18대
자유한국당
소속이
##ros
생산은
이유에
자연을
오스트로
결혼식
평가하였다
역임하였으며
북한군의
외교부
대사관이
근무하던
국방부는
상업적인
주둔한
빼앗긴
신뢰할
개체수가
연습을
압도적으로
돌아오지
개기일식은
digital
1심에서
8량
bor
김문
당국
데쓰
라인을
미세한
박준
전조
정일
취미
털을
한탄
혼인을
##담으로
##nn
##가량
##본부는
##체험
##변경
##x의
##독재
사이트에
사회와
중심에서
중앙대학교
음악으로
아래쪽
프로그램과
출전할
연결한다
요구가
상당수
시설로
주연은
스테레오
이민자
count
##국민당
터널을
노출된
세월이
라운드에서
급속한
뒤집어
트래픽
마거릿
3을
9명의
aust
가세
고작
관을
귀신
금관
뉴스를
다채
버크
선상
선고를
슬럼
썼고
쓰가루
안았다
옆에서
완산
왔지만
울주군
윈터
이었고
잇달아
재단의
중이었다
중부의
체인지
치세에
톱니
##도시로
##레븐
##오염
##계수
##쓰기
##망으로
12명의
것으로부터
시즌2
발견한다
238
민주주의를
기능도
##이로쿠
1853년
전개하였다
방출되었다
합의하였다
무엇인
선박의
개명되었다
잠재적인
대합실
여우주연상을
농산물
##백화점
버밍엄
corporation
6식
7일까지
공정한
군수로
기린
납품
동호
동부와
몸과
버스터
봉작
산정
살피
시신
에치
우산
원리는
일행
작전으로
정맥
제타
채집
타점과
퍼플
##노라
##주며
##위반
##포병
##베쓰
##브에
##머리를
##곤의
경우로
개발의
사망했으며
건설하는
보고서에
브라더스
요구한
뛰어나다
발달로
의원과
동맹국
준비하는
태풍이
전차가
항복하였다
형식적
지내면서
##프리드
곤충을
백성들을
차남으로
##드라마이다
##엔터테인먼
볼프강
패전투수
az
sg
것들
김세
뉴사우스
리터
먹지
목사의
밤하늘
서던
서아시아
양위
왔다고
원전
음양
청교도
침대
편견
휘그
##어항으로
##사토
##주부
##ki
##줄이
##예방
##매는
##율에
##페라
##윤을
독일어로
프랑스군이
우승하여
영향력은
310
fc는
발전하여
물리쳤다
바뀌고
여름철
재판부는
증명하는
일치하지
7000
mont
##ological
회고록
시종착
휴대전화
##오스트레일리아
2급
v8
드니
들었고
비올
수정을
유익
입에
쪽을
치과
탐정
호수의
##가면서
##t의
##머의
##림사
##언의
##궁에서
##름과
##2년부터
가능해졌다
##hem
생산할
후보에게
표현이다
생활과
시리즈와
stage
상황과
열차와
1995년에는
캐릭터는
##시키고자
탑재했다
편입된
감소하고
기계적
제6회
1791년
원작이다
지붕돌은
후속작
사운드를
와이오밍
imp
고고학적
망원경을
무라카미
가리키며
무실점으로
앞세워
1는
가메
간격을
감성
감히
구룡
나서는
놓였다
돌핀
등에는
래리
로쿠
르노
마자
막부에
만기
만루
말라고
벨로
성적인
신부가
안시
약물을
어벤
였으며
영리
장강
창안
칸타
탈레
특성은
현장을
화친
##차인
##철을
##하긴
##식물의
##gu
##째로
##하였음을
포함해서
프랑스와의
활약했으며
그리스에서
브라더
학교와
최종전에서
##미터의
조성되었다
반영하고
분명하게
색깔이
시마네
아우구스티
용이하게
롬바르디아
종합격투기
gal
강압
개체가
남부는
남기지
백성을
법관
보신
볼가
숙명
스마
아이는
오징
이황
층을
학창
헌터
현상의
활주
##사항을
##버스로
##위이다
##프레이
##변으로
##균이
##맛이
##5년까지
##된다면
기록했지만
발표하였고
##ington
생활한다
자연과학
2002년까지
환경과
##ray
베이컨
명령이
중요성이
정신의
표시된
##센터와
건강에
exp
절대적
시에라리
바이에른의
기다리는
벗어나지
이웃한
베어스의
레닌그라드
바그다
스포르팅
불필요한
3골을
과격
김응
나기
단호
덩샤오
되기를
번을
상향
순정
안주
알프
애초에
야만
이기는
일화가
입게
저에
주시
칭호
##ied
##아에서
##버거
##니히
##니컬
##용품
##고양이
##거루
##예선
##빌에서
##모모
##처로
##엔젤
##궁으로
##묘는
##답을
##헨의
아니므로
공격의
방송통신
##ely
분류되었다
2017년에는
발전시켰다
연합은
네덜란드에서
결합되어
히로시
현실적인
오토바이
급제한
보관하고
##생물학
파크에
트윈스의
재단법인
해수욕
에든버러
덩샤오핑
9의
lt
raw
귀여
귀납
근세
금액을
기지가
리하르트
맺는
북진
신라는
앙드레
위성의
제반
캄포
하스
함안
##자위
##지느러
##och
##pn
##런을
##대사가
##간에는
##생태
##루프
##일라
##국가의
##협상
##양식을
있는지를
시즌까지
리그이다
21세
fc를
이적료
구간으로
##방송의
잉글랜드와
분석에
붕괴를
무기징
스탈린의
design
프로레슬링선수
아오모리현
미식축구
컨페더레이션
가한
경로는
권리와
그치지
기름을
당장
마타
문성
부안
수아
수구
신도시
쓰였던
아랑
앞쪽
에그
의약
인스
청탁
행방
##ios
##데를
##용에
##비어
##비히는
##빌의
##발라
##68
##성이나
##절에서
##get
##덜랜드
주장이다
학교법인
오늘의
시민이
과학적인
사무총장
##iph
다카마쓰
1843년
어렵고
유나이티드로
합격한
usa
그레이엄
파르티
에르난
입장에서는
동독의
편리한
서사시
아틀레틱
파스칼
내걸고
싱가포르의
2단계
4칸
4번째로
c는
mass
now
ze
광업
국기는
기분
누벨
당국의
모기업
밀러
반정
부이
사기를
성종의
승률
시신이
신영
양치
잠복
저스틴
족은
퇴치
표류
항우
해왔다
흐르
##스케이팅
##자격
##중독
##사촌
##심소
##공정
##액에
##배와
1919년에
참가하였고
고려한
기원이
아래서
기능이다
변경되었고
##대학에
건설되어
추가하였다
다이노스
나오는데
우주를
베이비
##ima
어려웠다
1992년부터
설계되어
나무에
엔진으로
동쪽과
출생이다
##ctv
근무하고
1806년
달성하기
전반기
국회의원이다
업무에
공산주의자
전파를
수술은
고위공무원
스탈린은
운항하고
비틀즈
전세계적으로
라트비아의
렌더링
강해
강습
구단을
군관
군인이
김부
되거나
뚜하게
모아서
못했으나
밤을
버로
본부가
불거
수류
야드
영조의
오던
있겠
잭슨은
직영
차이에
최경
테일
퍼뜨
해커
##시온
##자산
##티나이
##데시
##4m
##넬라
##높이
때문으로
11월까지
가능할
지방이
소속팀
지원할
건설하였다
전통이
증가로
##시대에는
승리하며
식민지로
그림으로
정신이
동맹에
가르치
spe
지적하였다
대규모로
방출되는
##정책의
트레이드로
의존하고
아리랑
장례식
tg
규제를
다닌다
명분으로
모을
불렸던
서적을
신기록
쓰면
유학자
이삭
입장은
장엄
조미
패스를
합천군
핵미사일
헤일
##공학과
##여진
##두스
##엔의
##페인
##갔다고
##길로
##쌍의
모습에
2017년까지
정의되는
전문으로
출시됐다
32비트
멤버인
자치체를
종료된
고구려를
저장된
지내기도
maj
물리학상을
입각한
https
충실히
엔터프라이즈
가시와
감탄
개간
근친
기체가
다쿠
대일
데다가
디바
무방
미워
반도에서
백남
병사가
사지
성이다
시판
여과
연간에
오데
일자리를
임을
치타
코치가
탄두
패권을
##시스의
##주민
##파트
##상담
##물에서
##퍼런
##분쟁
##렬히
1960
포함할
주장하기도
번째의
운영하던
소설로
구간이다
동물은
성장하는
엘리엇
후손들은
산맥과
형제인
개입을
싸우다
##ission
재능이
집필한
협동조합
열대폭풍
추서되었다
서대문구
cult
dw
가내
계곡을
기약
단어이다
담수
로제
번주를
사투
사세
안쪽으로
엄밀히
올해
완주
왕비가
왼쪽으로
임기가
종단
주게
지명이다
측도
행위의
허락을
##사거리
##관한
##화폐
##진에서
##니엄
##법원의
##검은
##랄라
10명의
13일까지
이어졌고
유명세를
##스타의
##스타는
연방이
규모이며
지상역으로
배치한
파괴하는
기여할
반란에
귀족들이
천문학자들은
북서쪽에
수립을
항복한
미야코
##ucle
##ible
조지아주
부담이
콘스탄티노플
마시고
줄어든
kespa
35년
pas
검을
등지의
비중
사야
새턴
서천
수치는
신장은
양파
인수한
자식이
전광
진다
질의
컬링
탄광
평가는
피스
행해지고
효과에
##트인
##심리학
##고개
##창작
##득이
대표의
다양하고
##스타운
정의하자
##대학이다
평가하고
이끌었으며
지배적인
공연은
멤버들이
자리한
시기인
수비수이다
340
오브젝
400만
신문은
##ights
노벨상
도모하고
적합하지
화려하게
크루즈
금강산
무의식
아이스크림
4부
4일까지
b형
kd
결집
교제
당이
대기의
동프랑
로이드
마라도
많다는
바바
배치를
백년
법적인
설을
세컨
세조의
수니
영일
의장이
지었다고
철제
청두
커먼
탈삼진
행적은
##문제에
##보레
##임금
##59
##예산
##7호
##난에
##린저
공격한
출신이
story
태양계의
사랑은
통과하고
구분하기
방어에
ther
위협하는
##리어스
6000
개조한
##부장관
지향하는
오염된
버튼을
지방자치단체
엄격히
언더그라운드
카스텔
성폭행
맞대고
모니터링
technology
막시밀리안
2호선의
5일까지
가극
괄호
광동
누락
대수는
라라
랭커
미러
배당
비방
사보
어든
연일
예견
우부
원리에
유승
진리를
킹스
판다
호평
홈에서
##조지
##트럭
##도마뱀
##ique
##가나
##주석
##수정
##본다
##gin
##처에서
##곡에
##총은
##혔으며
19대
시작될
대표한다
차지해
##시켰으나
발전하고
이적했고
이르며
이르렀고
##ips
파견해
시행하고
서쪽에서
중단하였다
제거할
비디오를
마련했다
방출된
레코딩
도망쳤다
한글로
수요를
보냈으며
안드레이
일컬어
엄격하게
드레스덴
나시오날
0을
5가
개폐
교우
국호를
노사
노획
단위를
롤러
미타
밝기는
벌을
부기
쌍둥
양식은
예카테
정은
정승
코넬
특화된
피쳐
형주
##호프
##대이다
##파에서
##수영
##공룡
##숙의
##외버스터미널
##잔디
##랭크
사용하였고
경기장의
만들지
조직이다
공식전
2년을
레이테
종교에
실패했고
선정되었고
챔피언이
상당수가
##ocal
지속된
강화하는
불리는데
여겨져
##지역이
공항이다
영어와
야마나시
발사했다
1841년
센터는
프로듀서로
합의에
편의상
cross
파이터즈
최성기를
bmw
베스트셀러
뉴사우스웨
4에
6일까지
dl
men
궤도는
선더
숲을
신빙
아노
옆에는
전소
주석을
청문
카마
패의
혼용
홀딩
후세에
##ua
##파스
##수준
##미카
##케가
##4년부터
##되었습니다
발견은
자유계약
발전시켜
서비스에
연방에
스페인에
획득하는
제한되어
스포츠의
일제에
개통된
박물관으로
인공위성
미나토
확산되었다
준결승전
남겨진
##월드컵
며느리
비둘기
앙상블
5인
7명
객차
것부터
기사에
놓이게
모드를
미스코
선장
시호가
싶지
아토
융희
인삼
임종
자원의
재적
적혈
전횡
정원은
지요
친동생
통증
파격
프라우
한상
행정을
헬렌
회장의
##기구의
##사노
##사슴
##역할
##보도
##손과
##61
##학에서는
##영양
##곡인
##려야
대회에는
##위원이
##acy
열린집합
유지하며
이동한
60여
실험에
북쪽을
1945년까지
멕시코에서
1809년
##ough
장악하였다
취급을
총독으로
장치이다
창단되었으며
지어졌으며
헤르베르트
무너지고
웨일스의
당사자의
일어났던
명백히
리얼리티
불편한
세바스티
1패
bay
mob
mind
간직하고
고스
국장은
돌렸다
못하다
반점이
비용으로
삼남
수륙
시해
없이는
우대
우니
위즈
음식은
장정
정하여
치중
카드는
타계
특전
평의회
해로
##색에
##오린
##버를
##테를
##일치
##발과
##연대와
##궁은
##8년까지
##학교와
정의가
이동하였다
태양은
25일에는
실험에서
들어가기
슈퍼리그
편성된
부임하여
대리석
선박을
내세웠다
saint
##소설이다
고시라카와
무리한
금메달리스트
왕족으로
선진국
갑작스러운
오가사와
밝혔고
우호적인
사범대학
성북구
순차적으로
가온
귀향
기피
대목
둘레는
불합
선물을
시기로
여권
여대
여순
영세
절멸
켄트
펜티
함자
호메
##결한
##i가
##법연
##더러
##브루
##찬이
##즐리
##4년까지
##00여
##itor
1923년에
1928년에
방송국에서
가운데서
진출해
건설은
##omb
40km
지휘자로
우주에서
사상자를
수용소
추진했다
계산하는
마쓰야마
폭발적인
seed
나이아가
다니고
##상태를
프라임
econom
메모리를
상반기
바빌로니아
백과사전
판의금
매리너
rot
고제
내시
능력으로
도호
도마
동군
루나
미우라
민원
시킨
않다가
앞당
원만
이끼
이점을
자그레
정3
채운
총체
최단
출세
태정
태종은
톱니가
패미
효소의
##센의
##ram
##사냥
##들러
##티카
##퍼를
##슬라우
##크트
##미도
##억원의
##페리
사용자들은
12만
##ona
1933년에
전투기를
운영하였다
야구부
연합군에
확인된다
가족들이
##고등학교의
자리에는
부모와
전사하고
마리아가
농업과
##하마드
장악했다
현실의
다니던
지리산
사다하
원내대표
사당이다
j1리그의
산마리노
6세의
bank
jan
곡에
꾸미
녹는
능통
다포
도어
많았고
보았고
부양
분의
비약
빈에서
수소를
숲의
스나이
얼터
엽록
유적이다
적인
조엘
춘천시
편도
호송
##지므로
##사상을
##상대
##공군
##발전에
##현상
##객을
##돈녕
##막염
경기였다
이어질
발생하며
형태인
배우가
##이라서
추가했다
이적해
서비스로
사고이다
시민단체
시설과
오스트리아와
브라질은
반란은
중단했다
대륙을
2개가
좋아하고
확보를
주교는
##지원청
##자들로부터
무한한
구입할
크레타
모노레일
골드컵
시모노세키
오버워
루스벨
라스베이
안티오키아
흥미로운
우두머리
직사각형
인플루엔자
2d
5백만
hr
가릴
객실
경마
그램
나한
도상
떨쳤다
리는
명하여
모함
방이
백자
법상
산사태
생화
숨은
실점
실로
악마의
야수
장진
재고
정년
중흥
지대로
청나라는
케이트
##당하면서
##들게
##레지
##으리라
##테아
##집론
##골과
##번역
##표와
##염색
10km
10개월
일본군에
한국군
계획된
변경이
이르면
사상적
입단하면서
발달에
andre
종목의
제기하였다
마련하고
저항이
다섯째
후손이
죽었다고
승인했다
프로토타입
파르티아
카롤링거
중생대
##변호사
끔찍한
mw
가혹
고바야
군단의
기는
내렸고
노을
놓는
덮어
됨으로써
레프트
로베르트
맡을
명도
삼별
생후
성인의
시야
식읍
악단
예장
옷은
우르바
위엄
절정에
커리어
토지와
##기금
##지지는
##아들이
##일간
##연극
##느라
##맨은
##폰을
시작하자
축구선수
개발할
생각되는
계획이었다
지원에
상대적인
15일에는
강화하기
1991년부터
평화와
##정보통신
만들었다고
전시하고
통제하는
전공했다
차이점은
제10대
대다수는
호흡기
결심한다
모험을
자회사인
royal
2tv에서
70년
feder
pv
걸릴
것들이다
고즈
관위는
니키
레가
빼고
사학
사정이
생전
세일
소대
순위가
신창
알이
울트라
이매
이효
인장
잃었고
제향
젤리
조던
좌완
총장을
취한다
편평
함의
항문
##자면
##보아
##노예
##주면
##예보
##벽에
##끝에
##쿠스의
##앞에
시작하기
것이었고
활동하기
주장했고
항공이
요구하며
전국체육
도로와
정당을
예정된
선택된
##ape
통치에
금지된
센터가
농업이
공공기관
강조한
불법으로
늘어나는
dna의
시위대
방해하는
싸움에
트라야
##오닝성
에두아르
m의
york
곳이며
교두
나주시
남로
노량
늘었다
다리로
더구나
막부는
말하면서
맡기고
반야
방으로
비대칭
신예
역명
왔는데
원하지
의원에
입는다
장식을
저자는
정말로
쪽에서
창문
청풍
키드
회남
##기온은
##화에서는
##티스는
##개선
##씩을
##마니아
##녀는
##틴의
했다가
##ality
이전과
계속하고
2016년까지
형성하여
민족해방
어느정도
베트남에
##모토가
치료가
연기하였다
##센터가
prof
부활을
합격하였다
트랜지
내놓은
등재되어
캠페인을
둥글고
집정관
his
vv
가독
개개의
계주
계산을
고질
끝에는
높이를
단판
동상
몰살
북부는
서강
설과
용감
임해
장지
주앙
지었고
짝을
키타
항을
호아
후시미
##제2
##씩의
##급한
##겠습니다
##립이
##날드
##컬럼비아
사이공
영화인
서울과
##esh
##이었으므로
1934년에
1912년에
타이밍
정의당
50분
계약금
모델링
종교와
전기적
국회의장
##모토의
필리포
크리스티나
들어가고
발사된
제시하는
합류한
포르투갈어
탑재되었다
농업에
연맹에
교토로
식물은
모스크바의
대성당의
sbs에서
트로피
싸우고
전염병
합법적인
##차량사업
급기야
37년
vf
water
가량이
공군이
교란
등지로
마피아
못했기
심부
아들에게
여류
잡게
접종
제물
칭하고
탑을
틀을
팔려
편향
화성의
##9호
##ji
##rum
##요원
##방해
##범으로
##블라
##필은
208
된다면
이용하기
제36
판매량
규모에
실패하여
파괴되어
하이델
개통되면서
다카우
중단된
직후부터
편성되어
멸망하고
##사건을
무너진
안드레
바이러스의
브로드웨이
히메지
맥아더
4층
5호
hall
pk
교전을
금고
낙양
도마뱀붙이
디랙
생기고
세베
소중한
속도와
시기와
약자
음절
잡지의
정희
종에
클로드
특혜
틀림
펼치
펼치며
필로
함평
##서리
##si
##수군
##빌은
##룡은
##있다고
사용하지만
국가안전
경기와
만들었는데
##ating
알려지고
##라이너
1929년에
국민들이
추정할
분포되어
버전과
제품이다
스스로가
가져오는
회의의
기후현
확보한
후손이다
트로트
편찬된
추천을
부친이
비공개
대지진
동국대학교
불러일으켰다
성폭력
이렇듯
다이라노
3이
3세를
8일까지
rf
sign
ym
계층의
나이를
넣었고
모반
무정
삼존
세종의
순위에
야로
역량을
열이
오자와
용어의
이공
장례를
졌다
한가지
허버트
화교
##시프
##도도
##지이기도
##벌이
##왕조의
##노스는
##견의
##ville
##린트
##효소는
세계관
##대로부터
30개
발생하게
참가했고
이르자
400년
확인하기
증가를
올라간
상당수는
다르기
##rie
1842년
회복을
권한은
합격하고
농민의
배출한
수컷의
again
고안된
아이슬란드의
모질라
가칭
곤살
높다고
다방
도코
도큐
뒤쪽에
마도
맺게
명상
반원
별명
보수를
분량의
성단
세로로
속은
아역
아프로
에글린
영수
자백
전과를
정중
칭하는
카스트
크세
퍼부
학파의
호놀
흡연
##가야
##계이다
##법원에
##손인
##미분
##형무
##양식
##났던
##클랜드
##웰은
##먼과
##윤은
200명
1941년에
대표작으로
출전권을
관리자
반대편
플레이어의
지상역
서울특별시에서
##초등학교는
신라가
오르며
추기경이
크리켓
잠재적
테오도
여수시
헤라클
##중추부사
리조트
브리티시컬럼비아
몬태나
##소시엄
1st
36년
fta
gun
개전
고야
고쿠라
광장에
근교의
덴분
도나
돈으로
명지
무루
법학과를
보문
살리
섭정을
소중
수급
수학의
액세
여왕이
의의가
이학
인체의
입시
있기는
자회사로
전부를
집게
차는
탐욕
투구를
폭격을
혼재
##였으므로
##해수
##집인
##hs
##임시
##비이다
##후쿠
##찬은
19개
10가지
17대
##ates
22개
출연하고
공동체를
기업가
비판의
방향과
통합진보
10일에는
경험은
3000m
기초적인
오사카에서
안정적으로
상업용
##ift
구축하고
반복되는
일으키자
아즈마
상영되었다
거제곱
mp3
아이템을
온대저기압
championship
4번의
iss
kim
uk
가부
걸그룹
경이
구한다
국무원
노다
뒤로는
목은
문수
분담
설비를
순서는
순간에
시복
아난
여호
연산을
요금을
위성을
유혈
일신
잭슨의
좋을
체계에
카레
토론을
향과
##지도록
##츠로
##상품
##쓰는
##마침
##yle
##누키
조선과
아이파크
전투에서는
1910년에
기원하는
여성에게
보고된
특징이며
##광역시에
부족이
승리투수
드러내는
가져올
인민의
conf
##iff
조선민주주의인민공화국이
대상이다
암살을
##교통공사
##ube
맞이하여
사임하고
소멸되었다
북극해
가설이
호응을
베른하르트
오와리
##두더지
3종
8세의
ff
low
공적으로
공습을
다이나
달래
동차
등등
메스
민자
비사
사멸
새만
서기관
섬식의
소르
시장으로
심소
양성을
열세
위기가
음식이
장전
전폭
주교의
트리오
판관
##조직을
##시도
##서구
##pd
##진화
##세력을
##케스
##궁이
##템베르크
##애의
있었음에도
구조물
아버지로
행정부의
만들어졌고
지도자인
비판도
2001년까지
선출되었으며
뉴욕으로
27일에는
존재한다면
영어로는
크리스탈
해석에
##으면서도
미사일의
수립했다
조선민주주의인민공화국에서
베를린의
검찰에
장소이다
오카다
옹호하는
found
조별리그에서
공양왕
martin
나름대로
language
센타우루스
코민테른
##모모야마
4를
5배
8세는
간성
간염
도루를
마법의
매운
사변
소정
슬롯
신학의
여흥
입단을
잔디
주원
첼로
칸국의
코크
획기적인
##시각
##육군
##아니라
##생과
##던스
##g는
##급에서
##저축
##피에르
사용해야
위치했던
##졌다고
독일에서는
제2공화국
1921년에
우승하고
영향에
##들에게서
정보와
보고서는
종교가
스트라스
##교육의
하이웨이
정신적인
대응을
베네치아의
유리하게
1593년
##슈타트
코미디언
파악하는
동해안
것이라며
추기경은
고체연료
플랑드르
교구장
앤더슨
global
8km
교대로
기체를
깔끔
논리학
마코
말기에는
모후
받자
보였지만
붙는
산수
순서에
일람
착한
최적의
칙령
친구의
커지고
키에
피닉스
항성을
허정
협회가
훈민정
##o의
##은사
##08
##3m
##노마루
##해결
##쓰키
##더로
##투스는
##캐나다
국가들과
계획으로
발전은
이때는
획득에
28일에는
못했다는
파괴하고
300m
스웨덴에서
임시정부의
동생은
프레더릭
옮겨져
의견에
저항하는
본선에는
##리우스가
도망치
주고쿠
확률은
인조반
개량한
비트겐
착수했다
최적화
독창적인
펜티엄
1달
구를
군국
남조선
내부를
달하며
대장으로
면도
미코
보였으며
사성
상시
상대는
서안
숭정
알로
양상
의도가
이구
재산의
지낸다
찬드라
채플
친구를
카렐
##소장
##소닉
##서에는
##파라
##87
##압을
##무와
##디안
##텐디
발표했고
중앙선
다양체의
이것의
성공은
운행되는
계약은
개인전
부르기
##나무와
##그룹은
지붕을
아라카와
한정되어
혼합된
루트비히는
청구할
정치인이자
서독의
머무는
컨트롤러
주위에는
리히텐
##아미타
컨페더레이션스컵
나이아가라
2항
tur
그린다
김한
너비는
도깨
두바이
뒤셀
목적이다
보츠와
산체
왕권
유적은
음을
의복
인피
일등
정토
조율
출진
카펠
크래
황실의
##하타
##라스의
##경에는
##분교
##든의
시작은
모두에
존재의
우승팀
게임플레이
방송되고
일어났으며
수상했고
활약하였으며
형성한
field
요구된다
현대에는
1990년부터
자치체
관측된
아무르
그렇다고
완성하였다
1798년
마드리드는
고향에
##박쥐는
exper
도달했다
예측할
타이거스
다운타운
드래건
##원숭이의
나가사키현
무승부로
바나흐
##ference
증조부
이용객이
알맞은
아즈치모모야마
33년
4호선
cctv
ple
개는
곡들을
구스
낙농
대자
문구가
민권
비시
선조가
설명은
신자가
요아
일의
자들이
정순
주도의
즐기
짓기
클랜
티저
협회에
홋스퍼
흡혈
##07
##신당
##3회
##회복
##군단은
##브에서
##드라이
##yth
##강원
##웨시
##9년부터
시작했지만
중심은
발표하는
않고도
국민에게
자연적인
이야기도
##mm의
2차대전
##크로스
연속적으로
합류해
게이머
150만
교체되어
이번에
공공의
만족시킨
부상자
높아지고
지시하였다
김일성의
구사론
억제하는
조용한
야마구치현
메신저
2천만
4남
cer
hill
끄는
나팔
날아가
레나
면담
모국
무제한
물품을
미화
미처
배울
버스로
뽑는
소시에
심사를
여고
와다
유비는
주미
진성
체사
충정
탈바꿈
##지향
##부원
##ias
##차크
##하스
##테러
##병합
##석사
##난히
##무효
##빈과
##두와
##누스와
시작되기
##esc
중심부
개발로
국제법
문화적으로
##ets
##위원회와
드라마를
유지한
적용되지
은퇴할
요시토
물질에
부여했다
시도하는
아키라
600만
1775년
로켓의
불안한
설득하여
##레인저
레지옹
힌두교의
한성부판
안테나
흥선대원군의
special
프로테스탄
에글린턴
town
날에는
도교
마젤
민다
방문을
속보
아퀴
안달
에스타
연해
연체
의문이
이의를
자성
자각
주박
즐거운
증여
지이
천주
체로키
특명
표기를
호치
화기
##자료로
##카노
##65
##분자
##영에
##킨은
지역이었다
일부분
하고자
등장하게
모양이며
레이건
규모이다
우리에게
강화도
달러가
370
에이즈
정상회담
sea
무덤은
거짓말을
손자이자
성균관대학교
표명했다
여우조연
4골을
den
dance
lam
개수가
공주의
국경에
넣어서
단념
답했다
당하며
대류
동이
로젠
박세
병용
부식
사죄
소위로
쇠약
시왕
신주
신숙
신안군
실력이
않는데
예명으로
요안
요리의
워킹
장관의
전권
조만
카로
퇴사
##어하는
##98
##진출
##국장을
##옥의
##완은
##톤으로
1950
1931년에
1932년에
2017년부터
항공기가
군사력을
명칭의
소련군은
이와키
나가시마
내려진
선택하여
집합이
관측을
완성한
타이틀로
소개하고
판단하고
갈등으로
영입되었다
출장하여
가담했다
아이디를
blu
남극해
개별적으로
식품의
시라카와
밝혔으며
평택시
아름다움을
파나티나이
반감기가
3인조
4연
개회
경화
구급
군위
기을
김택
낭비
놓는다
드롭
모건
밥을
범주의
법과대학
비닐
소장이
속도의
신과
알베르토
양궁
얼어
의의를
이로서
인프
정을
정현
제식
진안
진양
침착
행사는
현수
홍명
##시드
##이치로
##레미
##었기에
##병원에서
##4호
##슬레이
##bol
##블럼
한국형
1951년에
30m
진행될
000원
건물들이
노동을
방향에서
차량과
나가고
획득했고
때까지는
즉위년
고등학교의
제거하기
1831년
보여주지
채널의
재정비
##바르드
dna를
smith
작동하는
안양시
레지스터
바이러스가
현저한
돌연변이
second
떠올랐다
손꼽힌다
모자이크
오가사와라
4km
bell
고치고
과수
군소
군사가
권력은
그쳤고
내전을
년이
다르고
달랐
도를
라흐
말아
무력으로
변의
생육
속도에
수주
수험
실렸다
아과
악명
연정
원치
윤영
점포
정육
증언을
체임
추월
카톨릭
코끼
테드
통지
평산
항성이
호박
##스카이
##과정에
##ex
##dc
##동자
##앙은
공격한다
중앙일보
졸업하였고
관리와
특징인
km로
사상이다
찾아서
승리하면서
표준으로
목표가
##했을때
자치체로
결합하는
추진한
프레슬
기후에
정상적으로
행사하는
레코드와
반발이
절반은
남아프리카공화국
1인칭
경유하는
공룡의
초상화
매니지
조르주
한겨레
1골
9m
cyc
iec
공원으로
과제
관철
구자
궤도가
극심
노력은
당신은
도합
뒷날
리시
물의를
반하는
베티
빠지고
삼지
슈바
오존
이치로
인척
천체는
최정
탄성
파트리
항목을
##조원
##스투스
##환자
##어에서는
##대중
##mas
##버와
##군과의
##함이다
##표현
##돼지
연구하여
대표하여
개발되고
선거구를
수상하는
비판적
보호할
1998년까지
35분
세포에
요청하는
친구이자
활용되고
출발해
침공하여
##그룹이
물러나게
언제든지
교차하는
약탈을
맞추고
낙선했다
뉴저지주
하원의원
스트라이크아웃
gpu
function
program
감각을
강인
곡률
곧게
공장의
광릉
남이
달라는
만류
명단을
바지
박해를
방계
비무장
에베
재정을
죄가
죽지
청정
최충
칭했다
콘퍼런스
토대를
표면이
현에서
##어업
##2품
##르템베르크
##대회의
##커로
##day
##수석
##wood
##동맥
##던트
##학기
##bt
##무사
##돌로
##축산
##패에
##됐는데
15대
들어갔으며
##도로부터
발표하였으며
290
나라현
지하역이다
자동화
30일에는
멤버들은
제품으로
파일은
sports
기후가
묘사하는
최소화
간주한다
판단했다
교토의
헤이세이
흘러들어
환승이
친선경기에서
윤리적
train
ax
m1
yg
귀양
그쳐
남태평양
능선
답변을
막바
밀로
박기
범주를
부트
산소가
샤르
소자
속에는
와서는
은언
재출
저서를
주체가
태우고
퇴계
페트
해주었다
향로
##사슬
##야르
##대회가
##라비
##경제의
##었으므로
##안정
##쿠스는
##린에
##필드는
##맨이
##귀한
아이들에게
가능케
생각하면
제공해
활약하여
인정되었다
공동의
도입하는
우주비행
지지율이
나가오카
언어학
움직여
들어가면
만나서
훈련에
중화인민공화국이
해외로
투입되어
1821년
만큼의
##조정랑
성동구
테살로니
절친한
엘살바도르
1단계
abs
갖다
고도가
때나
면치
바다가
반지의
설화
설정이
소포
속임
수단의
순국
슈미
시장과
싶다고
암수
양분
용접
이내의
자재
적기
종점
천년
철근
통정
통증을
행적을
형성을
호적
확고한
환자에게
##원종공신
##버지니아
##수라
##포화
##퍼센
##토야마
##교회에서
##모리의
##투안
##bit
##튼의
시작되고
처음이자
이상이다
성공하지
2016년부터
##iae
설계는
유전자가
근무한
머리에는
##계획에
질병으로
서명했다
누군가가
부적절한
송시열
좌의정
지린성
지브롤
리차드
에치젠
38년
6가지
fall
hand
rca
self
검사가
고도로
골절
공백을
구보
궁을
기흥
까지는
납북
내비
다리에
도안
모멘트
민씨
발주
비활성
숲이
승마
원료로
음식으로
의장은
의식의
임차
진봉
짐승
참사
편성을
헬로
회견
##결이
##보컬
##선언을
##바겐
##우나
##배수
##세라
##영업
##번길
##1조
##킹을
##7년부터
하나이기도
사망으로
설치류로
경제와
분류를
나오면서
변화로
26일에는
##ulus
출판했다
차례대로
이사장을
가능하다고
에게서
확보할
실행하는
시청률을
장착할
채용하고
연산자
진보적인
예비군
요소들을
8강전에서
몰아넣
자원봉사
승부조작
퍼포먼스
1를
a조
고단
관리는
기독
김만
난입
능숙
박희
밝게
배웠고
빠지는
산성이다
삼진
서상
성범죄
였으나
영성
오거
이었으며
이조참판
점토
행사에서
호크스
##소총
##지였던
##oid
##사전에
##사회를
##해냈다
##공원으로
##hl
##면적은
##혁명의
1982
##주의자들이
제작되었으며
1939년에
발표하며
고려하지
조직에서
레이커
지배에
가까이에
확인하였다
베이커
유사하지만
17일에는
18일에는
브라질레이
작용이
슈퍼히어로
센터의
스토리를
변호사가
유도하는
요새는
헤이그
440
반발로
공통의
의존한다
재건축
도와주
적합하다
남극점에
이온화
이자겸
brown
라치오주
점진적으로
four
j3
구전
김씨의
다각
데인
러더
리마스터
만회
만국
매튜
벤츠
부정부
뷰티
슬픈
실록
아슈
위성은
인스타
일면
입안
재결합
풍요
함수로
현감
##소니
##자사
##당했으며
##산초등학교
##ges
##겨드
##란으로
##룡이
##황후의
지역적
한국어의
경기들에서
중국계
구성하였다
215
이름으로도
디자인으로
제시한다
사진과
제거한
평양에
판결에
acid
##쿠스틱
문신인
해제되었다
재단법인이다
범위에서
베네수엘라의
타입의
어항구역은
면허를
기숙사
제니퍼
이회창
두터운
management
3km
8식
card
fly
kf
nr
경선이다
광배
기르는
남만
눈부
돌고래
맨눈
명장
민첩
밀착
밴드로
버틀러
벤피
변동이
본따
비와
수산화
시어도
여론을
온전히
원인에
장비가
재귀
종자
진로를
질을
축을
큐브
투수를
하랄
##화되었고
##가치
##코파
##43
##너지
##너티브
##셔주
##탈리
##뮤직
사용했으며
##리아에
감독직에서
독립선언
가운데는
다이너
개인리그
분야에서는
국회의원은
대중들에게
전해진
남쪽과
근거는
촬영되었다
겨울을
소개된
보이저
사례이다
합의가
트레이드를
아사쿠라
검찰의
연출을
조절할
1636년
유용하다
마오리
기재되어
피렌체의
루스벨트
임용되었다
point
앞장서
지자체
심장마비로
1사
3를
ball
dark
강령
공평
구워
급사
도구이다
머스
면에서는
문장은
민진
병력으로
사키
사일
앙코르
엘람
연재를
우정을
응오
이두
입술
조공
종이를
철광
크누
킬러
탁발
하향
후두
##지배
##문트
##덕의
##메의
##버전
##공주의
##구단
##장조
##벽의
##료와
##됨을
##2년까지
11대
감독한
25개
방송하는
연결이
제공하여
information
500명의
애니메이션은
국회의원이
발달된
저장하는
추측하고
보장하는
페이지를
추대되었다
##보통학교를
자책점
##원자력
album
1천만
5에
pier
거센
거리와
것에는
담았다
독려
리소
리카
미그
발부
발열
빠진다
소문을
식은
실제의
외부로
우림
우세한
율곡
이비
일대가
전치
정국
정량
젠더
준하는
최규
코모
톰슨
한나라의
행군
호러
##95
##96
##nm
##대신을
##니에서
##면에서는
##네이션
##tic
##더니즘
##85
##극이
##옥시
##뿐인
##핑을
20m
##ering
기록했는데
알려지면서
독립군
지원해
이유에서
내용도
태양보다
인간에
1996년에는
런던으로
발사한
계승하여
부정하고
출발하는
죽음은
카이저
마드리드에서
1820년
##조판서가
반영된
##상태로
마이크로소프트는
그로텐디
남극점까지
2군에서
부장판사
바이러스는
교섭을
##hpa의
움직임에
어워드에서
우의정
매디슨
캔터베리
부에노스아이레스
##협동조합
34년
5를
720
person
vr
교상
끝낸
넘긴
당할
대사가
때마침
라바
리코
못했다고
문자와
벽화
보답
사역
사사키
시트르
이스턴
제석
제자로
좋다고
처치
쿠루
투과
투기
파사
항원
해군을
##이씨
##지대를
##전환
##차게
##문예
##정도의
##오피스
##티스트
##마루를
##촌에
11번째
경우엔
연구개발
정치가로
300년
1924년에
시간당
출전했지만
지원한
유명했다
공식적으로는
정도이고
철도역
달리기
가족들을
수록자
연속적
불교가
결성하고
타이틀은
오르간
필리핀에서
변호사를
인수했다
신인상을
참전하여
1000만
탈출한
국제공항을
생애를
스케치
가설은
일상적인
맞추기
어릴적
공무원의
헤르체고비
festival
새만금
0은
bj
b가
bit
kill
같다는
고이즈미
꽃의
듯이
뛰었던
로메
발데
분투
산조
성가
손이
수학을
엔젤
욕구
원한을
음역
정약
지시로
측정한
캐피
풀럼
하밤
현지의
##ole
##사쿠
##대장군
##가들의
##아져
##노베
##티로
##성면
##형식
##혼의
##글러
##멸의
##불화
##찬의
##탑에
##리아에서
일반인
개발되었으며
문제도
1926년에
##리스토
결과이다
타이어
성공으로
##acter
인정받지
##시켰다고
##운동으로
##대학은
기업들이
이르지
민족을
도입되어
적용될
국회의원으로
브라질과
알렉세이
마련된
게이세이
1835년
아나스타
64비트
창단된
academ
1763년
향토문화재
노출되어
서북서
전성기
이바노
조에쓰
얼터너티브
games
강탈
경력은
다량의
달았다
매겨
박동
안재
원형의
인도는
제비
줄었다
지형이
집단에
컨벤션
키예
태국에서
폐간
##ju
##로만
##데가
##유기
##연기
##vis
##갑을
##션으로
##하고는
국가보
운영되었다
행정의
활약하였고
여성에
아르카
계약의
##cm이며
획득하여
##km2이며
배치하여
분석하여
황제와
방어하는
살해된
1804년
1799년
식물이다
복잡하게
약속한
유학하여
디오니
압둘라
치렀으며
전국동시지방선거의
aud
계시
글씨로
느려
다이스케
디즈
따를
레프
말해서
모를
미일
바일
보도에
부관
북제
불륜
서부와
승단
아워
옮길
요리에
우메
유추
재건을
저축
축전
토바
팀들이
파리를
표절
한눈에
항거
##이어서
##sm
##dy
##코스의
##수나
##고기를
##유한
##1과
##왔다는
##슈트
##웨이는
기록하였으며
제1공화국
이미지는
##대학이
관리로
연속적인
스위프트
가입을
1813년
주교로
죽음과
멸망하였다
##조판서로
규칙이
규칙은
흘러내
장남인
질병에
brit
##달러를
각본가이다
레인저스
리투아니아의
에스토니아의
유니버시아
피에트로
실용적인
깨달은
media
모으는
다음해인
불명확
유식유가행파의
추세이다
모잠비크
속씨식물
결함이
교사를
도다
도맡
매력을
맺는다
메시에
무능
본선에서
북측
불화이다
사형이
사대부
속성을
슈바르
아일
압력에
어쿠스틱
얻으며
원제
최동
최강의
축제를
타파
포은
##익이
##교회는
##방법을
##체어
##세력의
##bn
##엔드
제작은
##위원장으로
선거결과를
성공시켰다
국민을
##ures
민주자유
운행하며
판매고를
부족과
공연에
유래가
지속되는
조각되어
##기술의
##작용을
400여
미사일이다
촬영은
탑재하여
세이브
acc
지키지
파라오
전형적으로
대법원에서
제휴를
다큐멘터
america
엔지니어링
하치만
떠오르는
프리큐어
밀워키
1이다
6명이
bud
og
pot
ye
가니
가우스
기로
니스
대령이
병력과
부어
빼어
사오
사민당
생장
슬라이
신명
엄지
에워
유원
이따
장점
장충
재기
조산
치를
피라
활기
##ao
##den
##정신을
##으라고
##리도
##복무
##종목
##네트워
##베크
##투라
##영역
##등에서
##옷을
2010년대
인정되고
5일에는
주의해야
움직인다
경험과
재판관
방어율
대사간
편입되면서
경향은
1598년
스피어
bea
개막전에서
기울였다
페이퍼
가와치
크리슈
일상생활
여론조사
이관되었다
아이다호
510
mos
nic
경구
국군의
김봉
꿈의
낭독
디스코
레저
말하는데
매장을
먹어
문묘
발진
변천
사제가
셀프
알토
압력으로
에리크
유즈
은하는
이륜
잃지
입자는
정황
진평
처단
총파
카토
팬아메리칸
행성으로
헤로도
호스팅
화학자
회사와
##어족의
##사이에
##벌의
##원에게
##보적인
##바우
##론적인
##카레
##쓰카
##학파
##남을
##형성
##하고있다
##7년까지
아니한
21개
2018년에는
수상하였고
##ident
40만
물리적으로
반응으로
가문에서
구분되는
드러내고
제45
치료는
경쟁에
가져갔다
활용해
대해서만
머물고
반복적으로
출범하였다
##조참의
남아메리카의
애칭은
아름답고
입헌군주
청량리
애기박쥐과에
구부러
앨버타
1권
4성
4시간
520
east
ill
rpg
간소
강판
경은
광화문
군비
권영
규율
비문은
사라고
상환
성장이
수명
수사에
아구
오사무
일선
재학생
정조는
추궁
출제
출퇴
컨소시엄
특색
평신도
해머
##만으로도
##지선
##i를
##원들을
##uch
##파티
##제도에
##물질을
##토기
##군단의
##킨스는
##씨에게
##짐이
##콘서
그리스는
아래쪽에
여성들은
직접적
조건에서
16일에는
1993년에는
오스트리아는
기여했고
주도하여
조각으로
바르톨
비디오는
공급이
체계에서
모스크바에
박물관은
서양식
플라톤
다이묘로
데려가
연설에서
거제시
0인
ide
uae
가측
고케
공여
교직
꾸려
답을
대월
바란다
병조
소피
솔트
수라
예천
오코
옮겼고
울음
적군
전초
전장에서
정운
지대의
지상의
총에
타키
페가수
헤딩
호라
##소서
##명령을
##문제가
##가루를
##았었다
##니츠
##네다
##교동
##디지
##콘텐츠
##턴이
때문이라는
시작되자
들어있다
이용을
사망에
##리스타
시간으로
차지할
하여야
라이더
수상했으며
변경할
연합에
열차에
데이터로
잉글랜드에서
대구에서
논란에
380
종목을
그해에
##ification
간주되었다
전개했다
sex
출입문
신앙고
광고에
분명하지
##왕후가
윤치호
##반응을
모셔져
명목상
2량
5호선
b로
dest
sand
각지를
강연을
견지
고도는
글에서
끼어
내통
내연
단역으로
도에이
로어
무패
민생
밤이
배치는
병인
북마케
솔라
아루
옆의
왕조에
요인으로
이색
이주를
일하게
자기를
저당
조제프
지느러
집사
통로가
폐막
허영
##조치를
##되곤
##내를
##보단
##생인
##상사
##hi
##통화
##거리로
##ws
##베트
##8호
##6m
##롭지
##몬의
##탈삼진
##듯한
1976
239
등장하기
모습의
개최되고
드러나고
1988년부터
움직임은
다르지
오스트레일리아와
제50
표기되어
미사일이
##전쟁을
대수기하
탈출하여
콩고민주공화국
관광객들이
백악관
석가모
7세는
lng
oec
그람
다뤄
단수
대전을
로리
리쿠
모태
미로
배아
배영
버몬트
사병
사악한
시르
쌍곡
어퍼
연회
왕성
외형
요직을
원형으로
윈드
윈스턴
음극
일들을
입회
점수가
진폭
타라
테트라
투사
파서
##옥을
##출신
##히기도
##민들을
##날개
##았다는
16세의
1925년에
지정하였다
진출입
부산의
공개되어
소련군이
관할이
기독교가
1999년까지
위원장은
주민들에게
소유권
자치주의
발달했다
부여한
언론은
국왕을
상징적
보존된
다루기
해외에
1845년
season
무기한
대표팀에서
1783년
백작의
명명하였다
##브리튼
테러를
프린세스
화합물을
모토로라
레닌은
이오시프
##산맥의
두드러지게
비례대표의원
정사각
fried
지역구의원
간척
계단을
광합
구시
궁전을
권리의
김순
뉴프셔
더운
망명한
먹기
면접
병원을
사단이
살았으며
시구르
애도
어원
열중
우메다
인원이
잎겨드
주면서
지었으며
특기
편성은
푸드
해리스
협회에서
##지수
##코이
##위생
##예는
##합이
##있지만
##름으로
##꽃이
##윤의
15km
감독하고
구성원이
발견되었는데
참가하였으며
출전에
기본권
기관에서
##연구회
선출한다
컴퓨터는
상당수의
불가사의
자치주
##지역과
공항에
스웨덴은
디자인과
성격과
판단한
케이크
고정되어
비난하는
8강에서
정체성
muse
사이클론
비공식적으로
하야시
만남을
프레임워크
국가정보원
여러해살이풀이다
아르헨티나는
농림수산식품부
브라질레이루
happ
som
via
검사로
공황
깊고
다메
담배를
데에도
리사
마고
명주
모자를
무오
민심을
바위가
보이나
볼트
비만
속했던
수강
어스
에이로쿠
예조
옥고를
완충
왼손은
인성
일족의
입혔다
전류를
절차에
지기
차종으로
처남
타나
타일
통행이
페터
하순
함재
항의를
후면
##oy
##신탁
##l은
##mon
##리니
##구역으로
##영웅
운영하며
월드시리즈
스페인이
21일에는
22일에는
방문하고
도착할
통치권을
취임하여
##사령부의
신문의
##aker
이스라엘은
타고난
제출하였다
승인하였다
빠져나가
이뤄져
자세로
대개는
다운로
부드러
자발적인
무쓰고
맞물려
뉴사우스웨일스
하이델베르크
a에
lar
pt
가압
감시를
견해는
기기를
나갔다가
내리게
녹훈
맨틀
목화
부혀
북북
빌럼
빛은
수사가
신재
아게
알데
야율
여가
온도에서
외조
위시한
질적
천체를
추앙
태상
포을
포상
##사회에
##라쿠
##75
##gi
##불과
##갈래
##촌이
12대
한국은행
하나였던
국가지원
경제성
기술자
시대까지
발매를
항공사인
##chan
건축을
사랑채
1년이
사고에
헌법소
아시아와
1989년부터
종류와
평화로운
##지도자
기계화
얼굴과
마사무네
수입이
형식적인
은행은
구체적으로는
예상되는
취급한다
트랙이
##국민회의
도와주는
선박이
구입한
논문으로
시사한다
강수량이
승차권
네이션스리그
하마마쓰
무실점
하동군
아랍에미리
공휴일
규장각
fn
gov
가석
가수가
국자
국회는
권익
늘어서
당연한
대지의
덴버
도성
독성이
동고
마당
모이는
묘가
문양이
바인
부쿠
부녀
분자가
삼천
성숙한
수선
에세이
연료로
오성
위성이
위나라의
익산시
인연이
일기도
입힌
쟁취
종용
칼데
터진
평소에
하카
홍백
##자리는
##차에서
##철과
##해지게
##cil
##니로
##광과
##추지
##함에도
##ful
##무라는
##창조
##촉진
##곳을
19는
##lad
기록할
아이소
부분군
시대인
000명으로
등장으로
마이어
여성들의
나가토
물질적
배치했다
부여된
들어가면서
의원직을
정착하여
##box
시내에서
1818년
장착되었다
근대화
모리타
##슈타인은
prin
사태에
행렬을
김일성이
학살을
익스프레
크로스컨
유성구
중순에
포괄적인
주차장
부의장
별세하였다
women
리저브
반유대
에트루리아
행방불
nucle
ova
극작
기자가
끝의
난부
넘나
니더
단과대학
도전을
맺었고
문관
보육
보현
본다면
성경에
수찬
신간
연혁
였고
요리는
우라와
유언을
이안
익사
입었으며
작사는
절연
천상
친밀
칼빈
포커
표기가
프릴
한민
한자의
혐의가
휴먼
##원소
##엘은
##쓰구
##마사의
##측에서
##zz
##타자
##섬으로
##량도
##헤르
##째인
1981
##anz
포함하였다
프랑스에서는
이전을
상황의
결혼은
결혼해
이끌며
20일에는
애니메이션이
9일에는
거두면서
차례차례
##회사이다
대응되는
친구들
1세에
유리수
범죄의
그곳은
산맥에서
방출하는
##케이프
지냈던
이성계
조선총독부의
이즈모
발간된
끊임없는
프렌치
도도부
우르바노
국가지원지방
3전
5집
dog
ham
nam
각룡
계좌
고바야시
군산시
끝마
끼치는
나며
라리가
로베스
리서
목의
브라이
상어
성인으로
수혈
스틱
온돌
유세
일산화
장군과
주기가
지면
지남에
카파
페테르
포스코
피하고
##보쿠
##치쿠
##욱의
##욱이
##구사
##러스는
##막으로
##6년부터
하였다는
정치경제
1927년에
이것도
스타드
나라에서는
부산시
비슷하며
지난해
대사관을
1805년
3개를
범죄에
공부하는
창단한
자살했다
이뤄지지
검찰이
무엇인가
과도하게
신칸센의
전향했다
취약한
홈페이지에
카롤루스
짐작할
몬테네그
크라스노
2사
m3
swe
결부
계정
구토
기뢰
내분
달은
대안으로
로라
무기와
문은
번이
사임을
사물의
성당은
소리로
손실이
수질
아톰
연기로
일자리
재야
전하를
퀴즈
퍼센트
행복을
형이다
후나
##차이
##키우스
##런던
##물이나
##본과
##6호
##세나
##돌고래
##총회
##달에
##받았지만
##텔은
10번
18개의
포함하며
대한민국으로
1922년에
사망자는
관계자
결과로서
민주당이
인터랙
변경하고
도쿄로
부르키
부르군
언급되는
70여
승격에
떨어질
##기념장을
##order
educ
개명했다
해리슨
지대이다
하사받았다
공용어로
꼭대기에
카지노
매력적인
조그마한
푸젠성
public
##아카데미
##브고로드
last
고졸
과제를
구역이
꾸민
당위원회
당국이
럭키
루드
밑의
뿌리가
생일을
않음을
애너
엘비스
온몸
온게임
유연한
윤석
일하다가
증인
지리학
질환의
최씨
카고
타자를
파커
판을
푸앵
호이
호와
환기
회장에
##대원군
##라야
##k의
##루스를
##법도
##베그
##방사
##속도가
##삼각
##탈의
##텐베르크
##멤버
##9년까지
##학교육
##iction
게임인
관련해서
##elle
000개
건설하고
##스코프
폐지되면서
관측한
성립하는
프로젝트로
개통한
남동쪽에
주었다고
식물성
전후하여
워싱턴주
청나라가
상륙하였다
끝나게
##사건에
활성화를
세웠으나
화합물이다
16강전
수소폭탄
석사학위를
미얀마의
신비한
슈트라우
우루과이의
온게임넷
6세가
기회로
김혜
노린
당하면서
대포를
동상이
마운드
목도
물체에
베트
병과로
비선형
살린
셰퍼드
수메르
스루가
안데르
양과
예수는
예산이
외젠
의창
의탁
이겼
입교
취역
크릭
태조가
표면에서
합금
화원
황하
##트론
##이글
##a를
##하진
##버스에서
##티지
##산소
##송의
##요시가
##동부
##례는
##f의
##세자
##새의
##쇼핑
##리아가
기록하기도
사이트의
아니었지만
관계된
중앙행정
필요하게
건설할
그것과
구분되어
1994년에는
분포는
광주군
시도했으나
제시된
기후로
##중학교를
maria
주교좌
확정지었다
phys
관심과
##버그는
prim
변환을
터미널은
철수하였다
고문서
연관성이
동북부
바둑을
격파했다
싸우게
##장애인
옛날부터
스마트폰이다
관객을
유니버시티
함유하고
draw
football
##예수교장로회
지요다
b1
bat
vers
동종
두른
뒷면에
몇년
몸으로
반가
번식을
베일
분양
브론
사장으로
실격
쌓인
씨와
아종
아산시
인왕
일년
장치로
적십자
정우
조상이
족보
좀비
줄의
지형은
캐슬
통계에
트롤
프루
하지는
형무
혼돈
휘하에서
##시대를
##인구는
##3조
##네스의
##동쪽
##극이다
##합병
##견은
##부분의
이어받은
25만
참가자
고려말
생각되고
행정관
국민들에게
31일부터
##경기장에서
차량이다
구간과
선발된
구분은
주도했다
스위트
내각에
행동과
suv
장기적인
형식적으로
##공업고등학교
병사들의
승인되었다
최다인
소방서
적절하게
가치와
웹사이트를
극복하기
끌려가
총괄하는
촉구했다
촉구하는
안치되었다
부드럽게
카슈미르
넷플릭
성소수자
궁수자리
데포르티보
1장
ny
uh
zone
고군
구약
궁전에서
문장의
믿어
바레인
분장
뿐이라고
속출
수공업
신작
여태
열광
영하
올빼
육군이
일하기
정태
지르
지대가
카츠
타쿠
판은
퍼거
폐허
피는
협정이
호주의
##코박쥐
##동포
##발표
##읍과
##킨의
##현상을
##악장
##른의
사용되던
13대
작품에서는
중앙을
돌아다
출연하면서
형성하게
##ote
대체하였다
구분을
폐지되어
법률상
실험적인
나무는
살해했다
conn
허용하지
요새의
유나이티드의
양자장
heav
출간했다
성적에
##개혁을
차이점이
기소되었다
관통하는
신속한
카자흐스탄의
##소방서
서임되었다
우아한
흐루쇼
side
계기를
국교
권역
금을
넣지
늘리는
닛코
뚜이
로스트
무굴
문부
본토의
비르
비효율
살볼
설계에
손권은
쓰이
아저
양주시
에탄올
영지로
유복
의문의
잘츠부르크
전보
제위에
진화를
탄탄
특공
항해를
##a와
##화될
##아오
##십시오
##구라
##500
##77
##성사
##판결을
##홍은
##셀라
그리핀
세계와
도시들을
##icle
연구했다
존재하던
참여했던
설립해
상태이며
국민당의
조직하였다
방법도
##스크의
표현하기
이미지로
자연적
연합군을
다이에
3일에는
예정이며
예정이었던
11일에는
이해가
유전체
일어나기도
근거지로
시기였다
31일을
근무하면서
신라와
재직하고
1787년
이혼을
영웅으로
선포했다
진학하여
아케메네스
해임되었다
라이선스를
business
미합중
순항미사일
##선발승
격렬하게
gam
mhz
갔으며
겐로쿠
고스트
깔려
나침
날씨가
논산시
대타
뒷면
뒷면에는
레기
못하다가
미아
박철
백석
버블
뽑은
사원의
석굴
세일러
속박
스무
슬라
시켰
신호의
아포
옥사
우리를
윤휴
융기
인목
인종의
일광
지워
킬로
포교
##지대로
##지원을
##2에
##벌은
##아라
##보인다
##정치를
##주었고
##모자
##외에
##틸렌
##항에서
##감시
세계문화
대해선
##니아는
데뷔했고
건설되었으며
여자친구
우주가
없이도
오른손은
전해지지
해안가
국왕과
스테이트
소개한
합병을
요새에
007
죽었다는
갈라진다
##동맹의
플래그
북아메리카의
사막의
소프트웨어가
오키나와현
이에야스
미시간주
더불어민주당의
동대문구
소작농
아킬레
6km
거기에서
경도
과세
극좌
기악
김좌
나츠
냈고
넣는다
다뉴
다낭
때였다
민의
본국
상감
성스러운
소스를
손목
스톨
승지
열의
오정
오시마
요건을
윈난성
일원이다
자외
작중
장방
제일의
주제의
지로
페데
학설
항아
혁명은
##a가
##내는데
##메는
##상한
##일수록
##줄로
##락과
##비에서
##출혈
##링과
##항쟁
##슈테
##별은
##페어
##감리
##블랑
사이이다
214
##asy
인정한다
운행하기
선출된다
점령하여
23일에는
거두었으며
묘사된
소개했다
k리그2의
문화재로
식물과
대수다양
네트워크에
흡수되었다
논쟁은
이성계의
펼쳐진다
유행한
집권한
blood
대변인
이복동생
사로잡혀
진영에
제약이
##하우젠
갈래로
부쿠레슈
410
a형
간청
거라고
경력의
고노에
교내
깨뜨
논리를
다키
당병
대연
동부에서
드와
만주로
무마
무스타
법학을
빈의
수있다
쌍용
알은
애스턴
연임
위아래
윤종
조씨
종4
지토
청양
코베
펼쳤고
피크
항성은
헬라
혹독한
환초
흐른
##ij
##p를
##사진
##신청
##나치
##행위의
##티니
##상륙
##복싱
##복으로
##고사
##5hpa
##질수록
##히면서
##불가
##친은
경기장이
##esis
일반직
기술한다
돌아왔고
운동량
차지하였고
남아공
##스크에서
만들어지고
항공과
여성으로
노래에
노래와
태양광
비교했을
입단하며
14일에는
분석하고
##지방법원에서
반란으로
초대형
베르더
확보했다
충분하지
설정된
공업이
단위이다
절반이
입사하여
밝히지
know
풀려나
사카모토
네모난
states
교통사고로
3량
bern
core
fat
k7
pen
고리를
구면
나게
냉장
놀란
놀랍
농장에서
못한다는
무예
무장이다
바스티
범인
블리자
세실
셀러
악영
얼스터
연대의
우사
이사로
인력을
제위를
초점이
취하여
카드가
퇴진
표제
흘려
##명사
##메이라
##위너스컵
##마어
##베리아의
##함수의
##분야의
##타시
##여대
대한독립
사용자를
사람들로
문제점
##action
분류에
##대표를
그리스인
우주로
적용을
나가서
##방송이
소유권이
국가대표팀을
드러나는
천황과
번역되어
의사결
평양의
만족하지
해방을
ent
구별이
대성전
철학에
재개되었다
포항제철
지중추
사다리
저택을
제조업체
카르타고
francis
6단
s의
노리는
도적
만났고
메로
묵시
미크로
밑바닥
벤저
본인도
부상이
빛에
사마의
생물이
소박한
스킨
악화로
앙주
완만
요소의
우여
유보
육상에서
인의
장면에서
재사용
정오
정밀한
조가
조교
지문
지멘
지점은
진구
진영의
컨퍼런스
키우는
표본을
함량이
##2조
##하듯
##테와
##고르
##각이다
##건물
##편과
##균을
##였다가
1943년에
독일과의
인구조사에
계획과
임명하는
정의와
그것도
공동묘
여자친
방향은
거주하며
소유자
강화되었다
거두는
그림에
대중적
확장하여
해석은
체결되었다
관광지로
공화당의
마르크스는
축소되었다
번뇌를
모방한
간선도로
보행자
맹활약을
니케아
프로레슬링선수다
파르티잔
4세대
dia
itv
liv
값으로
궁전의
금오
금주
기장군
내전에서
당하게
대대는
막부가
말엽
미혼
박현
발명한
방수
범주에
불렸고
사형에
선데이
수미
승전
왕자는
제약을
중부와
친분을
퍼블릭
##사실
##신호
##원들의
##인자
##경험
##협회에서
##출연
##저압
##홍의
##션은
##반승
14대
구성원은
하고있다
중앙에서
##대학교로
지원과
진출권을
##시켰는데
정의한
자연히
마을과
전통과
이동해
이끌었던
지휘권을
2020년까지
스페인어로
나가게
개혁은
제안한다
경영학
유니코드
충돌하여
공급하고
전략은
확대되어
지적하고
자본주의의
수학적으로
인수하였다
헤이장성
공부한
추측이
생겨나는
1824년
개시되었다
총리직을
이시다
기하학
색깔을
남양주
손꼽히는
아쿠아
부풀어
뉴클레오타이드
달콤한
lig
list
격돌
고요
고독
곡면
권력에
균형이
금은
기구이다
델리
동자
맞는다
먹이로
방랑
배웠
봉우리
부계
서명한
수생
신대륙
안에서는
애벌
어니스트
요세
위너
유관
이괄
인문학
주무
철의
콘도
화해를
회군
후생
##자매
##지엄
##가구
##메테
##리치
##해졌으며
##파일
##수행
##회담을
##물질의
##군데
##속과
##무공
##슈바이
##별의
##엽은
##쉬르
##되었었다
연구하기
우승하면서
방송된다
부분적인
소속이었던
행정안전
인정하여
이동통신
규모와
통합한
공연에서
잉글랜드는
인천광역시의
32개
상징인
이집트를
표시되어
라틴아메리카
저장할
출입을
모리셔
수송을
보아야
영입하였다
해산하였다
council
채용되었다
이벤트를
맞추는
트라키아
기생충
교도소
세미놀
동학농민
하이드록시
패트리어
서보장을
##법연화경
civ
dt
lond
간통
공덕
구레
구장에서
농협
다문화
대등한
등이었다
롬멜
만리
무장을
방조
번주가
변조
사당을
산후
손권
손은
심층
알린
애인
야심
왕위는
원나라에
위문
유충
접미사
정할
쿠알라
파벨
휴일
##문제로
##럽게
##곡사
##촌을
##쳤을
##왜성
20세기의
##1년까지
현재에는
선수들에게
활동중이다
##랜드는
정부로
대표자
제작사
작품이며
211
진행하여
국민적
보고가
상황으로
프리덤
소련에서
있을까
구간에서는
컴퓨터로
자료의
후반기에
death
단체전
세워졌으며
자치구의
크리스마
작업한
자동차가
##rix
행동하는
spir
센터를
연극을
에이브러
isil
1790년
원칙은
공유한다
높아져
box
풍부하고
후쿠오카시
마이크로소프트의
진학했다
사항에
성질은
중지되었다
히트곡
증언에
목포시
해수면
승부차기에서
1시진
사탕수수
동두천
number
모리오카
3천만
4경기
값이다
거액의
대저
매핑
모교인
목격한
베라
북해
사적인
수월
숨기고
시위는
시아파
오베르
윌슨은
유루
인권을
주면
주청
차우
카멜
탈선
투영
팬들을
폴로
한경
희소
##uct
##퍼트
##구경
##유격
##장이었던
##저널
##볼넷
##묘하게
##필이
##염의
##염은
##뉴클레오
##샘프턴
##곳이
##학교이다
기록에서
14세의
수도였던
관계와
생산량은
돌아다니며
조직했다
민주정의
##ado
공개되었고
anton
이동식
29일에는
패배하면서
근처에는
소재가
동맹이
동맹은
하루히
떠나자
천문대
채널에서
형식에
나카소
복잡하고
전철화
포기했다
health
다니면서
맞이하게
터미널을
사임한
##ender
통계청
개별적인
혼인하였다
개장했다
프라이부르크
동아시아의
연루된
함유되어
angel
은혜를
우체국
윤보선
에마누엘
computer
출퇴근
2이닝
3이닝
f1
ld
rfc
가봉
감사를
경비를
관행
김익
나토
늘렸다
대양
대홍
대제학
더듬
라테
말하지
미시마
발해의
밝기
버스의
비이
비웃
비문을
성분은
수열
숨진
안면
연개소
온도에
요가
원상
자들을
작물
정병
정하였다
정한다
진술을
초나라의
축약
출근
출몰
카리스
토이
피루브
합치면
홍진
황갈색
##lr
##행위가
##근대
##거리의
##네임
##우에서
##디노
##래는
##창으로
##활동의
시작했으나
중국과의
정치는
방송인이다
지정되었으며
중앙유럽
계속해
운영체제
도입해
부족하여
없었다는
##방송은
1997년까지
표준은
복귀해
이로이
가져와
투표가
시행하는
살해당한
체결하여
##over
경계선
제정하여
작성하였다
산맥에
이승만이
인사들을
박물관의
문자열
아메리카의
채용한
##ector
병합하여
개방형
명시되어
일제강점기의
다녀온
liber
로페스
민주공화당
프로게임단
ufc
vide
겪으면서
공원이다
구단에
궁금
김호
꺾었다
내수
녹지
대함
대사는
동결
됨에
마조
무당
반투
방과
사단을
살지
상과
성희
알스
알카
알타이
애초
양방향
오다가
요시마
우표
유물을
저상
진영을
코드의
타서
푸리에
피하는
흑기
##시장에
##부인과
##9조
##내기도
##하드
##재건
##선교
##칭을
##쥐속에
##택의
19의
일본인이
1942년에
이루기
1920년대에
의미와
##ette
민주적
학생들
피해자가
분석이
##지방에
예술과
기여하고
하이난
언론을
도착한다
프레드릭
보수적
베네벤
스코어
문서에서는
교토시
채널이다
플랫폼은
800만
전공으로
철학은
##만큼은
일정하게
완벽히
허락하지
소요된다
동치이며
황후가
별칭을
##공동체
프리메라리가
관악구
마땅히
과선교로
컨설팅
에볼라
ess
fut
가도를
강도를
거성
결론이
고혈압
구름이
군단을
너의
단을
달과
도발
돌기
로는
루피
번복
사나이
성대
숨졌다
야후
양동
연례
요도
웰링턴
장덕
직원을
출장을
탄원
포이
호에
회송
##부사가
##레코
##리스의
##공간을
##타기
##란도
##실론
##불탱
##헌대부
11에
활동하게
1944년에
포함될
도시들은
1908년에
국민은
임명한다
형성할
산업과
비판한
1990년까지
24일에는
개혁과
공작으로
방어하기
이집트와
밴드에
전반을
전시회
소개로
감소하는
간주되고
자체도
아들이었다
동작한다
실현을
위상수
서술한
사항이
아틀라스
근로자
무력화
프레데리크
단국대학교
소프라노
80년
gab
ice
가시가
골자로
공훈을
교감
구하고
길한
나로
나포
넓어
농장을
두르고
명실
반향을
밝기가
배럴
보위
분자를
상쇄
서드
스푸
에센
올렸으며
이극
입소
적으로
정상을
제자가
주님
출소
팔기
피부에
현도는
##시니
##의료
##평등
##ren
##사이의
##정권을
##퍼드는
##방식은
##검사를
##총의
##반경
##벤스
함께한
기술하고
결정전
연결하고
플레이오
기관차는
##나무로
강화된
물질이다
외국에서
체결하고
중화인민공화국과
1803년
제기된
757년
인식하는
확보하는
세종실록
##전쟁의
출입구가
조합을
탈출을
1614년
브라운슈바이
##등급에
재료가
제12대
필립스
엔터테인먼트의
소실되었다
재래식
기자회견에서
우여곡
ci
las
pu
개천
공주를
궁지에
그을
끈질
낳는
느티
돌진
로지
멘토
바하마
벌어져
복건
산지가
수치가
않겠다는
열기
왜구
원으로
윤씨
집무
철도로
캐스터
쿠라
팀들
페루의
편성의
##소리가
##지드
##원리
##문학과
##레스와
##오기도
##테스가
##고교
##유리
##련이
##세계의
##블을
구성원으로
2500
시대에서
운동에서
2018년까지
##대표팀에
스타일은
그리스도를
나라이다
비행기가
이사회의
영어권
규정하였다
##하이머
1807년
허용되지
입학한
수립되었다
##그룹에
참석하여
서버를
그래픽스
탐사선
밀라노의
생기기
역사가들은
구미시
##urnal
누르면
아름답게
모른다는
도르트문트
안후이성
4주
7위를
b조
los
개수는
경주에서
나하
다리우스
다람쥐
대천
대축
라면
로사
마름
마코토
맡았으나
물병
바위에
반다이
방면에
방언을
벌써
비변
쉬워
실정
아탈
안이
압류
양평군
연기가
오은
원성
의학적
인기는
잔인한
종일
청의
총리와
최선을
쿠르트
후부터
희미
##권자
##키르
##수신
##제공
##거에
##41
##5의
##분까지
##모임
##급과
##격에
fore
17개의
세계유산
개발해
발표에
##ions
이전인
대학교이다
anth
##기관과
##나무이다
위원회에서
##적이어서
##opter
아프리카tv
1992년에는
기여하는
작용은
시도했지만
완성했다
침공으로
열대저압
블루레이
산맥이
현실적으로
도달하였다
orig
베이스로
음식점
##조직의
단어인
바르셀로나의
보편적
입사했다
유발할
esc
신념을
분홍색
아리스토텔레스의
사이언스
standard
summer
circ
development
세컨드
5위에
6억
a가
겪었고
광택이
교서
김효
나사
네스토
다저스
로테르
밝아
베릴
부로
설정한
성씨는
소리의
신데
신유
신드
영창
오면서
윈난
이교
잇게
작지만
참새
창씨
총감독
칭하였다
팔각
풍경을
핑계로
하츠
할리
향하게
호나우
##부동
##승에
##리는데
##회계
##700
##field
##변은
##촬영
##웨이의
fort
##iny
아이러
##itive
공격과
기술되어
민주주의의
그것들을
지휘하였다
정당에
데이터에
이란은
부여하고
여름의
엔진에
안정화
##ogle
다루어
##oud
감소했다
480
에드먼드
남서쪽에
부활절
향상되었다
자이언트
진격했다
당사자가
살아남았다
벗어날
출토되었다
자바스크
즉각적인
무실점을
강대국
몽고메리
책록되었다
군마현
재외국민
라이센스
유스티니아
인스타그램
5mm
full
mol
tt
값의
금나라
단점을
도킹
보이자
비호
산문
숫자로
실을
악당
알렌
온양
우등
유수의
장유
장영
조성을
집안이
짓을
칭다오
포자
합세
호종
히나
히카
##했듯이
##ration
##화상
##대신이
##우정
##교원
##설비
##세력이
##곡리에
##푸라
##귀가
##턴에서
지역도
1600
##inae
우승자
시간적
생산되고
##스크는
항공기는
보여다
부르던
싱글이
오늘날에
소비자의
1991년까지
300명
안정성을
1808년
1817년
1777년
실질적으로는
##전문대학
##프레임
나폴레옹이
정교하게
구매할
당나라에
물려받은
본토에서
호칭을
미하엘
추상적인
2칸의
시바타
루터교
비정상적인
베오그라
술라웨시
5도
mun
기체는
뉴들랜드
다가가
라스트
모멘
묘를
바의
버나드
보우
부위를
빈센트
사춘
성문을
성당을
수표
숲이다
승천
역행
예산군
유감
이신
인원을
잉글
작전에서
전량
존의
종가
짝사랑
청천
최윤
타개
포고
피부를
행진을
혐의에
##권까지
##iro
##나간
##키요
##m를
##족들이
##줄의
##동물을
##그린
##빌로
##두리
##피로
##감치
##쇼를
##편성은
##펜의
다른데
당시로서는
1978
하나하나
##하면서부터
여러차례
주장하였고
문화에서
설립자
형태이며
##inger
자연사
기반하여
4일에는
12일에는
설계가
치료하는
구성되어있다
시행한
떠나기
##센터의
종합적으로
베르너
증명되었다
폭발로
초반까지
모스크바로
##iana
한반도에서
프로세서를
세웠다고
나고야시
생태계
부탁을
스트럼을
프로토콜을
마운틴
아닐까
평탄한
라그랑주
method
다채로운
##저축은행
민다나오
이따금
1와
4기
4배
got
ja
nca
russ
관입
김남
난폭
뇌터
다람
다수는
단계가
도저
레비
로크
루프트
묵살
미쳐
박테
반탁
반혁명
살인을
서광
서품
성삼
세인
스가
시조는
신궁
심취
양측의
연마
요인은
원형이
이면
읽는다
있느냐
자급
잘게
쟁탈
절지
절도사
정준
조상의
페티
피자
해체를
해럴드
##부치
##사들의
##대응
##가기
##었음을
##바니아
##win
##월의
##탄병
##깊은
##리아누스
함께하는
16대
알려준다
개발하기
러시아로
216
다양성을
정의하였다
노래하는
지휘관으로
지지한
지지자들은
사상가
8일에는
요시미쓰
##연합의
보이면서
동의하였다
진보적
출간한
효율성을
제12기
유용하게
가득한
안타까
다가오는
초창기에는
동성애자
secret
하코네
machine
피오렌티나
london
2조
mx
갔을
괴로
구문
군대에서
기지에
기구는
김덕
넘기고
높지
당도
대타로
데와
독소
라몬
로잔
무대가
박주
받쳐
법령을
성장에
소리는
소금을
수리를
오에
유예
이국
일했으며
장택
친박
친밀한
캐럴
한지
##가치가
##가사키
##워즈
##요소
##드니
##투의
##투는
##웰스
##페의
##들이며
1974
조선공산당
만들거나
전쟁이다
발표되었으며
의미했다
참여하기도
생각하게
##ili
졸업을
실시할
사업자
교황에게
##ota
지휘한
획득할
deut
7일에는
아프리카에
##선거를
제47
관측이
사례도
430
시각적
##만큼의
파르마
아르메니아의
되찾았다
외교관이다
필연적으로
##단백질
확고히
가선대부
삼위일체
벤저민
5골을
7km
ot
rap
과감
관저
기한
높일
늦어
도바
도금
먹이가
모드로
무모
문명이
미뤄
바는
병설
봉분
부록
상선
상당의
생명이
수완
억지로
에리히
영상은
외모
유물은
의열
일류
읽은
재물을
저온
조서를
진무
카노
퇴단
튀링겐
트라우
##시장의
##환경을
##대첩
##주게
##파르트
##수에게
##마인
##마토
##세계를
##축에
##실라
##케르
##슈는
##촌의
##올림
##뉴는
##뼈가
10량
기록에는
부분집합
소속이며
다양하며
1907년에
출전했으며
출연하기도
판매되는
기관과
지휘봉을
보내게
##ume
내려갔다
##rib
밴드인
달성하는
태평양에
장기적
동료들과
장애물
##단체이다
1819년
1816년
인수되었다
죽음이
운용하는
오른쪽에는
분쟁은
합격했다
공통적인
침입하여
법정에서
700만
연고지
암컷의
임무에
명단에서
알레산드로
계곡의
예전부터
central
재발견
막내로
트랜스젠
줄어드는
빈번하게
서귀포
자서전
##stein
jos
jav
가스를
값에
공천을
근거리
김철
깊어
뜨고
마법을
무령
반민족행위
색채
센서를
시공간
신에게
열리게
용액
의성군
주안
키리
트와
팔았다
히코
##조절
##할만한
##나이트
##하트
##l의
##재에
##라다
##라스는
##족들은
##베가
##협약
##량한
##촌면
##헌이
##편에는
##섰고
10배
##anna
세계유산으로
국가원수
제1기
기술한
민주노동당
인터콘티
자연에
야구에서
여자와
우주에
정당별
교통카드의
dead
2일에는
네덜란드령
이해하지
필리포스
반란의
디자인에
번역하여
후쿠다
위해서였다
구단과
수립하였다
수출을
붙여서
총독이
돌아가고
로켓은
##베르크는
구글의
싸우다가
영구적인
1층에
##글라트
업데이트를
법조인
수에즈
범유행
의사소통
##서비스를
보니파시오
지치부
레오나르도
more
가하여
검사는
게양
기려
길버트
난해
때보다
메흐
베텔
세도
세페
정역
정안
족과
중종의
증설
축복
카푸
통도사
포니
합하면
현내
형제를
힘써
##off
##오브
##주파
##리버
##계선
##그를
##출한
##놓는
##두르
##풍에
##움으로
##애는
##넷은
지역사회
##스트와
하나만
##랜드의
정부인
구성에
게임에서는
방송으로
중앙선거
000명에
##대학교가
국민들은
##oli
지나서
여기저
마음과
제조하는
즉위하여
스위스에서
생성할
하루카
헝가리는
허용한다
구단인
판단하는
요새로
##iano
시각이
비난하였다
대공국의
슬로바키아의
무덤으로
연재되었다
주최로
관직이
줄어들어
의정부시
성질에
성벽의
고지대
레지스탕
비스듬
모순을
무궁화호
electron
밀레니엄
노원구
6학년
a에서
ig
rub
가용
간택
간에이
곤도
근대에
근무를
기계가
내한
누설
다진
독을
듣는다
로동
로테이션
먹으면
반으로
뱀파이어
볼프스
불허
소부
아모
영연방
유임
유적으로
응하지
이교도
죽었을
척의
추석
태종이
특파
포는
하북
합당
행하고
혈연
홈경기에서
##조인
##말과
##어군
##바니
##터우
##마시
##련은
##볼로
##틴이
##귀의
##하였기에
지역에서의
##주의자들의
한국인의
제1부
연구소는
로마로부터
기원에
최고위원
100개
아르바
싱글의
##연구소의
캐나다와
과학적으로
1991년에는
드러낸
작용하여
사라지는
##rian
겨울이
journal
돌아가게
일으키며
성벽은
붙잡아
샌프란시스코에서
양키스
밝히며
보라색
레오폴트
니카라과
종5위하
미스코리아
2종의
roll
관립
구절
굴착
날이다
남성은
남대문
냉방
농노
농업을
닫혀
도조
몸집이
무기는
방황
백마
버금
병력의
상도
상비
석기
소급
습한
야자
재수
제천시
주문을
짐을
커트
특진
파멸
판서
판사를
팬터
핵산
회생
후렴
휴가를
##도우
##어파
##사라는
##신도시
##관제
##폭탄을
##브룩
##즈베리
##장으로서
##암면
##단체에
##타이어
##높은
##리아나
1979
경기들을
시즌과
우승의
문화유
독립하였다
고려가
교육자
생활에서
정의의
50개
평가한다
기간에는
##umb
부족은
변화한다
다카사키
대응할
국방장
허용하였다
창설하였다
##시설의
태어나서
분쟁의
1453년
거느린
에피소드를
벼슬이
피렌체에서
극단적으로
해운대구
불어넣
미주리주
조그만
다치바나
2백만
3g
4인조
wa
궤도의
기법은
데니
독수
라지
모형의
무기가
받거나
본질을
불발
생화학
서약
성녀
소관
시킬
육사
이키
이십
장구
정난
조치는
종이에
차려
초안
취하지
코팅
타로
포워드
포천시
##자전
##자리에서
##이동
##ror
##승인
##보증
##c를
##교위
##유수
##텔로
##∼14
##애니
##튼이
아니었고
##성이라고
운동이다
##ache
졸업했고
거쳐야
요구할
이곳이
단체에서
정규앨범
개혁이
개통으로
가르친
이야기한다
파일이
계산한다
시내를
시청자
박물관이
전용도로
애플은
동의했다
벌어지고
화합물의
마주보고
엑스선
순위에서
대승불교
불렀는데
과학자들이
어울리는
아미타불
오카야마현
해왕성
earth
저질렀
victor
로트링겐
추밀원
플뢰레
인터랙티브
고드
다면
댄서
들게
무에
복숭
부리는
부인을
분지의
서기로
세간의
씨름
어셈
엑스트라
열었고
왕성한
울진
유병
의종
의사에
일직
정계에서
제단
중선거구
직권
질이
차라리
천구
호수가
확산을
흔하다
##해병
##코프는
##공공
##바탕
##구조의
##락으로
##유치
##혈관
##케를
##입구
##탄으로
사용하거나
force
서울역
시즌1
1911년에
223
##urity
드라마에서
브라흐
인물로는
교황과
이때문에
아버지에게
출시되었고
어린이를
단체와
언급한다
13일에는
##선거에
카를은
관광지
2개로
유니온
나타나는데
1982년부터
건너온
건너갔다
촬영이
요새가
수여되었다
불가능하게
머물면서
취급하고
1788년
관심은
풍부하다
녹색당
무시할
코르넬
양쪽의
인지도를
일원이었다
요금소
##rome
반지름
common
깨닫게
가고시마현
샌드위치
인위적으로
##플래닛
세계보건기구
caf
ufo
감형
겪어
겸하였다
계림
고레
꼭두
동족
동으로
동점을
망명을
모에
모사
벌어들
벨리즈
상석
소주
송준
열리지
영주시
왜소
우는
이근
전역이
집시
최재
추는
친근
코먼
키즈
토후
투자가
판각
하양
하모니
학무
한역
헤이스
효소는
히비
##만도
##이상의
##전선의
##간에서
##레시아
##계급의
##종사
##물질이
##분배
##봉으로
##풍과
##섭은
##톤에
시작과
1969
대표인
프랑스군을
수도회
교육과정
결정하기
제3공화국
이론적인
다이요
시민들에게
북한에서
예술을
경험에
제안되었다
##199
아르헨티나와
대성당은
##사건이
갈라파
니시노미야
동양의
선포하고
적대적인
밀양시
구이저우
karl
캄파니아주
4세와
dor
rb
감로
강당
같을
기아나
깊다
높이로
리카르
무안군
보임
상단에는
새의
스물
스더
신승
쓰이던
악한
왕에
원광
이목
인조의
일정이
일례로
자고
제고
조너
조문이다
주방
지적을
총리에
타블
피력
함양군
##기다
##도인
##도입
##차고
##호까지
##팔로
##요원으로
##우체
##t는
##유식
##본이다
##장수
##급수
##홍이
##움에서
##션의
##홀에서
##옹주
##스트럭
감독으로서
가능성에
255
1906년에
대전광역시의
##edia
공간인
##연구에
챔피언스
도로교통
위원장이
더욱더
승리하고
수준은
처리되었다
노력하는
마련하여
##메이커
물러나고
1604년
출마하였으나
감염이
천연가스
출장하였다
트로츠키
매일신보
이끌어냈다
극복하고
초래할
급진적
좌절되었다
실린더
짐작된다
##데이터베이스
안철수
가파른
오스트로네시아
ymca
##해수욕
2n
2패
3층의
610
8cm
hn
간은
간격이
거물
격노
경주를
공납
금광
날렸다
달인
대금
딸이자
리아
맞선
먹거나
반기
반월
방어진
보일러
부원
석을
수모를
시선을
신호는
아픈
안트
안과
애정
영재
예테
왕자가
윈저
이분
전액
접어
정원을
주포
줄인
집약
집안에
천보
최진
카스피
탁월
통증이
파스타
파업을
파올로
항구에
화가이다
##서부
##거로
##태양
##미드
##투가
##달과
##활한
##혜의
##스트리트
자신들
우승은
공격하게
진행되면서
24개의
고려하면
결정되는
1000년
필요하며
발전하게
노동의
수행하여
자기장을
자기장이
요시타카
주도하였다
1987년부터
살아온
시기부터
주인공을
적극적
##pha
특수부대
에드윈
머리부터
우선적으로
세우게
수출은
기획재
장식된
beh
생존을
풍부하게
선보이며
google
전면적으로
구글은
발음한다
로드아일랜드
본질적인
유나이티드와의
emi
체험을
필라델피아에서
프로게이머이다
글리세
indust
구마모토현
본거지로
상록수
일진회
다뉴브
견고한
교지
굴욕
내면서
능히
데시
라임
로베
린다
만연
백련
병참
블러
삼일
성기
수납
순응
습작
시암
엔비
역습
원예
인연으로
조사는
조공을
중창
지점의
초가
초인
크리스트
폭을
학자인
향상에
황성
효력
##ient
##하오
##42
##동굴
##교회를
##규정
##피해
##엔을
##inary
1971
조선어
13세기에
대한민국에서도
존재하여
기술적으로
생산하기
이르기
1990년에는
발행하고
동쪽을
상호간의
귀족원
묘사하였다
허용하고
확보하였다
next
1797년
전차와
##시설로
근대적인
정복을
공포의
대공황
갈등은
##버그의
높아진다
트랙을
고속도로가
잠수함을
탈퇴하고
오다큐
요코하마시
상실한
color
사퇴하고
모터쇼에서
발간한
관현악단
중산층
천연기념물로
재미있는
기인한다
불완전한
single
요시아키
노르트라인
충숙왕
국회부의장
hon
p2
겨루는
겸한
기대에
길드
꼽히는
나시
남면
동형이다
디어
리마
린드
만과
매료
명소
무분
바친
방의
배트맨
봉천
분과
사구
소론
시동
싱크
안젤
암으로
에우리
열리기
위력을
유색
줄였다
지킨
지어져
참관
총사
추징
칭하이
카드로
타자로서
판사에
폭동이
프록
피하여
해군과
##원정
##진에게
##대지
##대왕의
##가정
##코비치
##7m
##체제의
##왔을
##직하게
##친의
##엽의
##밥을
때문인지
16비트
##anth
조선으로
중국식
1905년에
성공에
연결되었다
##urs
변경에
프리드
분야가
동물원
우리들의
19일에는
경쟁력
표시할
유대인의
never
marie
터미널이
국제공항으로
아오야마
삭제되었다
테크니컬
양키스의
##형태로
창시자
대관식을
모친은
꼭대기에는
후세인
확진자가
area
스파이더맨
테크놀로지
비슈누
시트르산
6으로
bn
dyn
ky
가정에
결함
공원의
금방
기르
기사는
기법으로
논평
당부
데도
뛰었으며
레베
멜론
무리의
묻어
반주
붙는다
사적으로
새해
소각
오층석탑
의사로
의식에
입선
자치를
장관에
전원을
제재를
조항이
중이
짓게
콘클라
피침
한영
항아리
허들
##치산
##성우
##세인
##디온
##글루
##총국
##블던
##꽃은
##귀는
당시에도
사이에서도
1968
포함하면
이어지게
212
연결되고
##시켰다는
변경한
보고는
실시해
선정하였다
찾아내
60만
네덜란드와
폴란드를
반란군
도착해
도착하자
재판이
보존상태가
건너는
배경에
아우토
해체되고
창립된
분쟁에
##사건으로
세부적인
팔레르
보편적으로
유발하는
배급한
영의정에
기아자동차
통영시
미소녀
girls
대역폭
##호르몬
에레디
레즈비언
로런츠
6주
rat
vl
고부
공해
괴로워
김화
높기
덕을
도노
말했다고
머레이
반대에
백이
비료
설사
신병
신자유
엔드
임산
정강
조치에
준군사
중장으로
직전의
천호
팔라우
폐번
흑사
##술한
##도까지
##ple
##03
##화되지
##레스가
##db
##상승
##her
##요크
##56
##한과
##예비
##76
##받던
##편에서
일본계
것이니
사이코
제2조
진행됐다
지정하고
성공했고
연결할
그리스도가
승강장에서
군사적으로
반대파
기념해
폴란드와
시설에
멤버들의
성장해
크리스틴
프레디
보존하는
1834년
감소하였다
북동쪽에
부상당한
1778년
##연맹의
##kg의
##스케는
동아리
추기경에
대칭을
토착종으로
상하이에
황후로
매달려
##ska
불평등
각색한
office
키르케
맹활약
탄수화물
queen
5백
ku
건원
결의를
계란
고생물
과격한
군기
기틀을
노년
높다는
뉴턴의
늘고
니조
동시대의
뛰었고
루르
무인도
반구
반도와
버스와
법령에
북키
비올라
사노
세브란
송금
시비
아달
아밀
악용
용량을
우참찬
위원에
위트레
정에
준다는
코요
코미
푸르
하토야마
형벌을
홍가
희박
##스라는
##don
##코에
##바토
##well
##7의
##후사
##저리
##헌을
##월은
##접촉
하는지
발생하기
결과의
##스터가
발전시킨
그룹과
교황청의
추정했다
세포에서
실험이
요청한
소재지이다
만나기
경영을
아랍어로
브랜드의
1825년
탈락한
진입했다
달라질
##동맹을
사유로
emp
애플리케이션을
나이지리아의
아세트
계절에
미즈노
break
콜라보
세라믹
페니키아
심포니
아르테미
일본국유철도
크로스컨트리
gw
ly
ox
sql
개체는
검교
게스트로
공식을
구실로
기점
김안
꺼려
노먼
니제르
당대표
도운
뒤쫓
명기
모면
문명을
미용
복부
브리즈
뿐이며
상주시
색상을
성령
승문
신고를
연평
영은
온전한
옮기면서
이점이
잃는
잉태
저비용
초급
최인
충적
측정을
칭호는
카가
크립
탄력
파급
폴리스
협조를
홍문
황룡
##이드는
##했었던
##부사에
##차관
##대상에서
##노래
##정도로
##드에게
##세에서
##bon
##숙을
##매기
##삼거리
##불좌상
있는지에
존재이다
작품들이
사망했다고
게임보이
선거와
자유로
결정적으로
지원은
제공을
민주통합
##시켰지만
육군사관
인천시
대구광역시의
분석은
스웨덴과
성장하고
즉위하면서
조각가
당선되었고
계승하고
전개하고
##ellow
1810년
세우기
자체적인
브리타니아
동작하는
무엇인지
주관적
시에라
장교가
일으키게
시나가와
다리이다
psp
에피소드가
기병대
부처가
유튜버
영혼이
들어와서
선거인단
무언가를
경건왕
수페르리가
페미니즘
1백
2관
9천
공원은
교구의
그간
끊었다
나리
단바
라플라스
로랑
모계
바니
박명
베로나
벨레
별들은
복고
불출
세제
슬라이더
안남
약점을
언양
의의
의사와
장으로
재빠
지롱
채우
철자
키케
태도로
포메이션
하디
한대
형질
##했거나
##부수
##rd
##인력
##리프
##공사에서
##복사
##포리
##5호
##마당
##연승을
##v의
##저항
##창과
##됐다는
##애가
##순과
##든은
##휴게
일본에서도
일본군과
지역이며
사이키
구성과
발표했으며
설립하는
부분도
발매하고
##face
하여도
100대
관리할
##문화예술
다이렉트
2년에
경찰을
보내며
선택에
사무실을
이들도
1988년에는
바뀌었으며
1989년에는
아일랜드에서
부정확
arts
재직하면서
요리토모
카운터
보도하였다
협력한
##연맹은
교환을
정비되어
통상적인
##ize
계곡에
로렌초
일대일
웨이크
박탈되었다
친정팀인
외무성
해인사
할리우드에서
구스타브
휘말려
튼튼한
캐치프레이
드나들
프로페셔널
도저히
4집
5부
cad
h의
nfl
가며
고루
공장은
구심
국토의
당간지
돌리는
랑고
마누
무연
배합
백제가
빠르
산토
살롱
서라
서부에서
선덜랜드
성조
소장의
신체에
아그리
올랜
외치며
유람
이춘
일할
자형
장점은
적과
조모
조치로
조항에
주둥이
준수한
초도
추도
카밀
하러
항체
해금
협상에
##스도
##술로
##르니아
##왕국의
##수출
##공사는
##복야
##교과
##카즈
##즈네
##단체는
##옥이
##묘를
##날에
##염이
##앵글
축구단으로
고려를
등장했으며
수상하며
지도적인
계약했다
anim
에너지로
제한하고
집합으로
도착했을
발사하는
활용하고
묘사되었다
제정되어
아우렐
1838년
mary
카운트
##자치단체
1603년
개선된
예상치
adam
진압에
1624년
그레이스
김일성은
##혁명당
북아메리카에서
사퇴를
소집된
체육관
첫째로
두려워하여
2루수
##그래피
종결되었다
레논은
카나리아
카네기
트랜스포머
돼지고기
피니쉬는
알브레히트
1녀를
7차
face
sus
ven
갑과
개경
거치
경감
계정을
계주에서
고기압
공생
군량
난바
네임
높이에
뉴런
다리와
당산
대불
대상에서
되나
띠게
모치
발음을
벤자
본능
부룬
불그
사에서
쇼가쿠
앞쪽에
연천군
유지에
일개
장비의
재산은
줄기가
지루
진남
천일
청중
층으로
컨트
콘라
품에
허난
협의를
혜성이
홍대
히치
히젠
##자브
##야드
##mer
##해준
##족론
##49
##광복
##연에
##1m
##뿐이었다
##검의
##량이다
##효소의
##패는
##겼던
##닌이
##맛을
1972
세계관을
일부에서
알려졌고
대회부터
발생을
100주년
유지해
이적하며
그룹에서
정당성을
거주지
##198
1833년
1983년부터
##anger
녹음되었다
반발한
통해서만
사법시험에
포기한
의존하지
법칙이
도요타
콘스탄티노스
쓰러진
입사했으며
초상화를
플루오린
돌아오게
오렌지색
세미나
애틀랜틱
베니토
칼리지에서
마츠모토
오디세
꿈꾸는
아뢰야
##엔터테인먼트
시민권자
시크릿
7명이
9만
din
겸했다
경위
곧장
광천
글자로
김소
너희
노름
늘리고
동포
루가
마리를
망설
몰린
백상
백양
부끄
북두
빙하
속칭
숙종의
신오
신자들이
아덴
앞다
애용
양준
열역학
우시
원군을
위쪽에
유괴
인체에
인류는
잔혹
장사지
전경
제논
증직
증가와
지진을
차내
채팅
철원군
취지로
코페르
편곡은
프롬
한두
회로를
##관념
##나며
##원조
##류인
##lish
##상부
##근에
##령에서
##읍을
##단장
##귀에
10에
한국사
아니한다
결과와
000개의
##인민대표
##une
만들어낸다
지도자의
동물과
1996년까지
제품과
차례나
##프로이센
주도인
성장하여
상징이
친구와
친구로
부정적으로
근무했고
기후의
명예손
세종대왕
실행에
의회와
상륙했다
1826년
add
##차례에
함락되었다
망명했다
only
직원들이
코스닥
주파수를
임신한
하우스도르프
스승인
##형태의
연호로는
시나리오를
봉안되어
탄도미사일
페널티을
아와지
tcp
memory
동등하게
군복무를
장시성
entertain
덕양구
johann
볼프스부르크
ddr
gec
ry
각국에서
감속
경국
고지를
공원에서
공조판서
그에게는
기기의
노려
농도를
누명을
더더
데브
무로
무기의
베르트
복장을
사시
서역
소박
신부의
안정한
영해
옆구
용감한
위클리
임오
입출력
잇고
장령
장본
정조가
조원
준주의
중핵
지으며
처해졌다
체르노
코우
타석
편에서
폐허가
필살
하이에
향이
홍주
훈6
힘들어
##나방
##경궁
##바사
##람은
##랑과
##함수는
##처와
##클렌
##멘토
##델라
기록의
사건이었다
1918년에
변경하는
도입하고
관할구역
증가에
결승전을
에너지와
언급되었다
폐지되었고
때까지의
제46
언론에서
야마자키
1986년부터
친구들이
남북국
연장되었다
mbc게임
스토리지
기억이
활발하다
지붕이
국경에서
소년의
구속영
도모하기
##에이터
착용하고
무관한
장갑차
아프가니스탄의
바이러스에
##그래프
수치이다
회담에서
이남의
폭스바겐
불규칙한
김규식
끌어들여
friend
견디지
전완장은
속보치
2달
6시간
8분
eth
hm
고전을
군무
다원
막론
명하였다
묘소가
무진
베레
변수를
별과
보러
비구
산투스
송나라의
수유
심야에
아크로
알케
업체가
영안
용량이
윤봉
은밀히
중력에
출력이
쿠프
터빈
트롬
홍준
##mph
##그루
##유키가
##본부의
##크롬
##삼은
##증명
##샤가
##살이를
##순양함
##잠을
20억
##되었으므로
한국과학기술
발견을
1913년에
21대
기술했다
275
인정받은
##대학과
군사들을
요구했고
전문의
작곡가로
고대부터
세포로
연주했다
목표물을
일어나며
중화인민공화국은
서쪽과
지진이다
만화의
달성군
종목이
겨울은
작성하여
연맹에서
개선하기
정복하고
고향에서
대비되는
##경찰청이
512
동의하지
press
마케도니아의
망명하였다
정벌에
연락이
시달렸다
사이클로
김영삼은
개원하였다
##플렉틱
팔작지붕이다
서프랑크
내각총리대신
하플로그룹
부코바르
7위
mom
py
sag
구청
그걸
나자
남문
두통
루카스
목사는
미흡
반파
법안은
변종
봉기가
상피
서산시
성과는
세련
순화
순서가
심판을
애스트로
얻어진
열었으며
예기
외화
임업
제법
조양
총액
칸을
키웠다
판문
포클랜드
픽업
한수
허베이
황자
훈구
##만히
##자루
##oe
##거든
##읍으로
##푸드
##애플
1977
서울고등
도시로서
이루면서
##부분에는
이상과
게임기
발생하기도
##대학교와
수상자로
운행하였다
기본이
##리오의
연방은
지배하였다
학생회
비판과
사랑하고
chil
결승전에서는
조건들이
서식지에서
조사하는
선택하였다
선택되었다
분석했다
인터넷에서
번역된
떠나면서
자본을
떨어졌고
lg전
장착했다
등급으로
반영하는
프로세서는
챔피언십을
##토니오
사퇴했다
그리스도교
보인다고
리치먼드
gdp는
리프트를
수페르코파
창덕궁
파격적인
3면
a를
c의
mys
rx
거둘
겪는다
고영
네우
데이트
릴리즈
머리의
문어
미케
밀턴
별시
불화를
붙인다
선체
선풍
소백
송영
쇼토쿠
아스트
영지가
예레
와이어
왜구의
장승
중기에
초승
통째로
트리스
평생을
허무
##트러
##나리의
##원주
##키노
##노총
##행위로
##코인
##선진
##개토
##비상
##유정
##fr
##매니아
##여명이
##림동
##텔레스
19세기의
대한불교
사용하도록
##ines
중심인
상태에서는
1900년에
전체로
추가할
ofc
부산진
사업과
다이오
마을인
##인으로서는
##iple
에스메랄
alt
가져야
침공해
충분하다
통신사
프란시스
독립운동에
시에나
망명하여
통계적
관직은
텍사스주에
혼인하여
고베시
거둔다
결심했다
스파르타의
이에야스는
꼭대기
상세하게
과테말
소용돌이
##베스트팔렌
prince
0이다
1순위로
ris
wall
가지만
가치의
고착
고품
곡선의
관서
극찬
기전이다
꼽았다
넓혔다
막판에
못하면서
무형문화재
법원에서
부마
비참한
사면을
산개
소원을
안채
업적은
에린
엘레오
열전
열정을
왕관을
유랑
육아
이계
일하며
자객
자들은
장명
접할
존스는
주소는
줄거리
지망
처리가
초안을
티탄
파비아
표시를
하리마
합한
황화
##르로
##르겐
##가로서
##코마
##었음에도
##회에서는
##동화
##동국
##국수
##여단은
##졌었다
##규를
##몬테
##곳에서
1961
1945
지방어항으로
주장과
음악가이다
상태인
##aster
2018년부터
##민주당의
기업과
민족이다
지배하던
조사에서는
국회의원에
마음은
언론에서는
남쪽을
야마시타
##디아는
홍콩에
노력에
구단주
##생활의
수정된
인공적으로
저서에서
네이티브
문신이자
에피소드에서
연습생
습격하여
영혼의
합리적
근접한
유년기를
하비에르
배터리를
포터블
비토리오
목욕탕
비정규직
1순위
gard
mnet
pra
wood
가할
건다
금이
급한
낳게
내리지
논설
당역
매너
무제는
묻힌
박인
부제학
북으로
분자는
뽑혀
송정
스팀
신춘
신사의
아을
여부가
영예
완주군
왕비로
정점에
차체를
철갑
최첨
침전
커브
코칭
코드가
포로를
현역으로
화소
##ni
##less
##메시
##경인
##릭은
##유에
##속도를
##장에는
##값의
##잎은
##밀도
##흐의
사용함으로써
##anus
중국공산
발견되기도
##itte
##가지가
교육기관
등장해
##도가와
공식적
인물들의
40대
이동하고
선택의
방영했다
방영하였다
발달과
발달을
kbs2
이슬람교의
관찰된다
대립하는
폭발을
은행이
express
양성하는
백작이
스크립
크기이다
실현되지
저서인
##브라더스
오카자키
지대공
구로다
##시스템을
##프스키는
##으려면
히데요시가
히타이트
트루먼
포츠담
##soft
로드리게스
stadium
슈바벤
1패로
kv
rod
wes
x의
개정에
걸로
그뒤
남군
낳아
다대
다해
덤불
도식
리퍼
맞섰다
번개
변론
빌바
사양이
사브르
석좌
선착
소현
소망
아누
애들
없었는데
응집
이백
이단으로
익명
임영
전력은
전역으로
창이
총재를
축제가
페인트
혜성의
확장에
##과학의
##차일
##신고
##내륙
##dvd
##cal
##공수
##53
##교리
##절차를
##캐피탈
##압이
##탱크
##묘의
##혁이
##0년에서
사용했고
기술하는
계속적으로
분류군의
운행에
레이아웃
산업에서
차량기
뛰어들어
과학에
언어인
육군과
잉글랜드로
이래의
390
감소한다
구축했다
떨어지게
에드먼
노예를
##레이션을
상륙하여
스피커
스피릿
##경찰서는
자살한
페르시아어
950
850
재건되었다
비상사태
호소하는
1519년
전동차가
브라운은
재료는
파크에서
기용되었다
무관하게
결심하고
저택에서
##코프스키
대답했다
항소심
잡아먹는다
빈번히
##공립보통학교
불필요
적당히
교향악단
머큐리
온라인으로
피쳐링
7세의
gon
oc
take
강도가
개체의
고우
과자
구식
권리는
기시
기꺼
기사로
끝내는
대강
도고
듣기
뛰며
말고도
미지
반미
반체제
발은
벌레
벌인다
불화로
생중계
선정을
아님
아기를
아드리
약화되어
얼티
와타
용두
이보
이기도
일찌
장시간
정광
정리의
지대와
추격을
태클
페미니
##소문
##도나
##대부로
##간부
##ken
##파트라
##거성
##쓰네
##8조
##1에
##강하
##창에
##녀인
##묘가
##플루
##냈지만
일본제국
##스트에
독립의
이야기와
반대하며
기본적으로는
판매한다
##시대부터
표준이
통과되었다
부여한다
밝혀냈다
개봉했다
spr
아카데미의
신앙과
##스케의
사태로
사태는
성능은
보컬로
후계자가
1부리그
##발전소
일관된
hyd
일방적인
이창호
글로브상
갑오개혁
센타우루스자리
5승
5경기
5번째로
aqu
감사의
견과
고금
광개토
내밀
대군
대본을
덮인
데어
도플러
도승지
마리노
바으로
비고
생겼고
세차
수잔
숲에
에비
오드
의지가
인수를
재촉
재확인
정체가
즐게
찍는
탑신의
태스크
피폐
혼수
후천
##이끼
##했었고
##담보
##내용
##문헌
##하듯이
##손가락
##4회
##동리
##비평
##러기
##모아
##항과
##겠는가
##샤와
대한제
지역마다
프랑스어를
공격했고
중앙당
23개
아래를
최고로
최고위
조직적인
수상작이다
##una
현대화
##연구소에서
tv를
챔피언쉽
##ocr
3일간
물리학에서
6일에는
통과했다
기여하기
경쟁력을
스테로이드
승격한
연장전
전달되는
고구려가
건국한
국경과
바라보고
우려하여
침략에
가담하였다
조작을
유한한
터널이
김종필
##왕후는
근육의
보냈는데
후퇴했다
없애는
손상된
뮤직비디오는
3루수
제주특별자치도의
민병대
kof
상이한
와카야마현
apple
캐나다는
식료품
안달루시아
govern
2군으로
fal
hans
lor
vfl
고증
기금을
내전으로
들며
로미
리버스
마데
맡기
목축
무장으로
법안이
본국으로
부쳐
빠르다
산리쿠
상량
셋쓰
손상이
숲으로
싸여
아로
아고
야오
엄밀한
엑셀
여유가
와도
왕자를
요리가
유치를
유형을
음각
일축
잡혔다
종지
질환을
체리
팬들
편지에서
폐업
풀고
한기
함안군
##중간
##왕이다
##포에서
##동계
##tim
##쓰나
##함인
##운용
##프리트
##히로가
##vir
##실히
##혀진
##막한
##캠프
일본어의
위치의
하나라고
##ito
생각하며
생각했던
타이난
내용이었다
##원의원
기능으로
stx
관리하기
인물들을
가수분해
사무국
식민지에
##지방에서
불교는
alf
##thur
옮겨갔다
포르투갈은
교토에
교토에서
대표팀을
출입이
창립한
1781년
##ysis
베를린에
무덤이다
장관과
asc
처형당했다
브루노
브루나이
간행되었다
탈퇴한
종사하고
착용하는
알레르기
장갑을
파트너십
카탈로그
추모하기
지폐는
유죄를
엔지니
오쿠보
터뜨리며
산시성
티켓을
원활한
육체적
이례적으로
불분명하다
셰익스피어의
투니버스
사생아
##증후군
패미컴
video
bir
cw
dam
mix
por
각광
내슈
대국
덴노
명동
목성과
몰라
무역이
법흥
변함
불길
성상
수없이
시리
없어져
용골
일했고
자에
조희
증산
창세기
추이
톤의
행차
협의회
후기에는
##당선
##대신으로
##치사
##요스
##론자
##본부가
##7조
##여를
##vf
##헤임
##벨의
##패닉
##블러
##혁의
2000년대에
사회에서는
구성했다
존재하기
관계도
역할과
제공되었다
##스타일
노동운동
기관차를
관할로
주민을
방영을
경험했다
##ista
##나가고
1506년
##산업이
##개발을
형식과
계급으로
플랫폼에서
제8회
##슈타인의
플라즈마
1758년
개설되었다
쿠데타가
멸종된
레닌의
폭력적인
입문했다
분광형은
수평으로
대관구
입각하여
마우리아
다이노스의
카보베르
로망스
다람쥐과에
1초
6촌
say
viv
가부장
갈비
강세
개와
귀인
글과
논증
놓쳤다
누릴
도기
라부아
리뉴얼
마두
명탐정
몸소
미개
베스
뿐만이
셔먼
심정
영사관
오수
오야마
오해를
올린다
왕명으로
원망
입장이다
잡지이다
진시
진심으로
학년
행보를
##트라는
##자금을
##부이다
##2와
##게니
##대어
##공원이
##러시
##후보로
##입된
##날의
것이었으며
1975
포함시켰다
으로써
25m
관계이다
221
##이스터
타이중
국민총
제공하지
표현되었다
부산에
##연구원은
기념으로
##방송국
언어적
육군참모
60km
폴란드는
회사들이
##시즌에는
외교를
근무하다가
1985년부터
1802년
표기한
전달한다
소개하였다
태풍은
고구려는
유엔군
4개를
하면서도
1605년
1828년
영입했다
구속되었다
bob
asia
강등을
개찰구가
티베트의
질량과
방언으로
구로구
인기가요
박정희의
자전거를
한국방송공사의
샘플링
문무왕
무솔리니는
이례적인
##컴퓨터
미켈란
family
불투명
시어도어
44년
60년대
fish
tas
군수를
기병을
난사
남명
내전에
내부로
대보
도선
등으로부터
말했고
바예
백성의
병의
볼수
부군
비몸
빌미로
산발
선주
썼다고
연접
완행
웃음을
웨어
율리오
이카
이응
일행이
재는
적장
조류의
차수
총명
총재로
추장
킬로그램
토오
투척
페라리
포팅
효령
후원으로
##지은
##부윤
##평장사
##mbc
##s를
##레토
##커뮤니
##주기도
##법상의
##우드는
##령인
##읍이
##합은
##특수
##넷의
선수였던
연구하는데
작품도
##km이며
생산량이
돌아다니
성공적
수상하기도
변경되었으며
개최국인
군사적인
지도자는
방향족
캐나다로
거주한
점령하는
1994년까지
언급되어
소재하고
바르바로
사령관을
겨울의
부문과
점차적으로
지적한다
정리하여
1811년
알아냈다
1592
은하가
공포를
플랫폼의
도망가
분쟁으로
1774년
지키게
달려가
수호이
mvp로
피고인
순조롭게
과학기술정보통신
쫓겨났다
들어오면서
분당구
파이어폭
안성시
아키타현
성전환
싸웠으나
피처링
에리트레아
심소법
체임벌
j3리그의
노르트라인베스트팔렌
폐번치
2패로
h를
m7
tf
갖기
공장과
기묘한
길거리
내선
당하자
대유
대가를
망라
맞다
명단과
미군에
미치게
법치
변했다
사부
삼진을
석방을
신증
아도
암술
앙투아
없자
연어
영상의
오레
왜구를
용매
유난히
응모
의사는
일련
잎의
장비는
조중
치켜
터져
통달
하단에는
해역에서
헨드릭
홀에서
홍보를
화양
##지하
##pu
##res
##인식
##워크
##컴퍼
##카베
##함수를
##장치가
##합동
##디시
##애국
##취가
##턴과
10cm
##ination
한국전력
정치권
이어가고
유럽인
대신해서
발전으로
상대인
km에
적용해
올라왔다
헌법상
획득하고
조건들을
주의회
연주한다
발달하고
결합으로
야마노
국왕인
제안에
제5공화국
부근에는
##은행은
출발을
신문사
판단할
이스라엘과
##세이브를
수정되었다
알아야
트리니티
단일한
고향을
장식한
paris
영입을
빼앗기고
소녀의
1582년
격파하였다
거짓으로
구사하는
##awa
예루살렘의
전당대회
교외의
깨달음을
나섰고
노바스코
서위되어
모하메드
히스파니아
애프터
에스타디오
dh
kiss
lord
각의
각인
갑을
게코
견해에
구단으로
글의
김구의
덩어리
링크를
만주에서
많을
미숙
미달
변하게
봉해지고
부끄러
사정에
서한
선산
수프
수혜
수년간
승소
시체가
신평
실베
심은
악몽
안상
알수
에타
왔다는
외출
운문
워리어
일행을
전선이
정미
초본
총격을
파평
편은
필적
향하던
현관
혈청
황주
##조건을
##전동
##사부
##게의
##야전
##레스를
##cy
##우병
##빌에
##장기
##께서는
##힘을
일본인의
1973
국제연합
##osph
제국대학
##iger
내려가는
연주가
##고등학교에
부여하였다
##apt
접근하여
1984년부터
핀란드는
leon
조선민주주의인민공화국에
초반의
1975년부터
대비한
거리이다
총독부가
어렵다고
1000m
등판했다
효율이
진주만
이기며
기다렸다
생애와
아오이
대법원의
크라쿠
수반하는
##관찰사로
폐기물
시칠리아의
날짜는
1루수
상처가
cnn
신입생
daniel
도치기현
beaut
갈라파고스
더더욱
2기의
final
sla
간간
경전을
내서
능력의
다라
대령은
마한
베아
분구
살리기
상단에
샌타
설은
성씨를
쇼크
시럽
시조가
신대
옹진
요인에
원세
원거리
의욕
의식은
이무
절차가
정묘
증보
직각
청하는
칙령을
택지
특색을
하기에
할지라도
해산을
험준
##지대의
##라코
##보냈다
##매체
##매장
##촌으로
##갔다는
##막과
##혁명을
##턴을
그리워
축구팀이다
이용자
프랑스계
공격하자
232
아들들
표현에
인정된
발전하는
그것들은
그래프의
국내로
지상에서
그림에서
제조한
작가이자
당선되었으며
sport
종목에서는
갖추지
그해의
마련하는
개편하여
1개씩
마쓰마에
반영되어
민주당계
학습을
1960년대부터
pse
발음은
개국하였다
우에다
레이다를
호르헤
ngo
아즈텍
엔터테인먼트가
부패한
외곽에
쫓겨난
대교구
자생하는
곤란한
이산화탄소
근래에
이니셜
불경이다
서고트
성추행
entertainment
7인
lte
m8
pit
sant
공주는
과부
기구가
난방
넘기
당분간
돌기가
동기를
랜디
런닝
먹었다
모반을
미치고
박제
살았고
성당에
소진
손권이
스퍼
양자의
연세대
옹진군
저마다
정산
징발
짜고
총장으로
춘향
켈러
코를
텍스
판단에
팔리
페메니
푸는
합이
해탈
효율을
##나바
##치노
##티프
##데스가
##산대
##수립
##마리를
##프도
##처리를
##저와
##규와
##벨라
##품이다
12번째
시작하였으나
것이지
독일군을
##이었음을
지방도이다
연결해
##하려다
졸업하였으며
2019년까지
상대방이
플레이할
학생들과
실패하였고
평균을
베트남을
##방송에서
북한을
효과로
##되기까지
인터넷의
수용하는
그렇다
##교회와
베르디
국방군
##스토리
구단에서
붕괴된
간주되는
세이브를
나카가와
포위하고
사법시험
문헌에서
서버에
흘러나
올랐지만
무너졌다
확률을
관여한
전동차의
편의점
##원숭이는
설탕을
포괄하는
칭찬을
와이번스의
wild
software
kespa컵
부르키나파
3백
bac
gpl
oz
가치에
각도
경춘
고리가
공장에
구라
꿈에
나셈
낙타
넘쳐
노히트
대지를
댄포스
도농
람보
머니
모러
몰입
물체는
미묘한
박혀
벌금을
비누
사유가
삼을
성분의
수어
수배
실었다
아님을
액정
앵무
양쪽으로
양질의
얻기도
오펜
원가
의대
인연
자명한
잡는다
정구
즐기고
진동을
취하였다
통보를
허구
##uro
##재해
##보내
##구조가
##국방
##절제
##장이었다
##프에게
##목에서
##됐을
##블레
##ée
##0년경에
1800
미국식
위해선
프로필
이름만
사회보장
제2기
25km
23세
계속되었고
활약했고
stra
건설로
제32
증가할
부족에
폴란드에
추진하여
통치하였다
슈퍼리그의
붕괴되었다
##전쟁에서
##기업의
애플렉
운용을
5개년
대기권
목소리는
드래프트를
단편소설
세웠던
가슴을
클레어
상하이로
무인역이다
수감되었다
중심지이며
internet
핵무기를
시키고
변광성
film
재검토
한국영화데이터베이스
클레오파트라
고위공무원단
코페르니
기꺼이
pm
well
걸어서
골수
공정을
나에게
동질
동전을
듀크
뜻이며
리나
맹렬한
바벨
바치고
박병
배송
본작의
비관
사천시
성관계를
손톱
시멘
실외
없으니
여당인
오경
오동
이달
재입
죽으니
차드
파장을
페더
평이
표본은
한남
히포
##시우스
##되기는
##와디
##오다가
##파니
##팔라
##바에서
##57
##tn
##봉에
##읍의
##장갑
##매시
##범과
##텔의
##편집
##폰은
사용하면서
##들이는
##isa
유명하고
분류가
지하로
소설에
기독교인
실패한다
대구시
아직까지도
천황에게
연기하는
중간생성
허용했다
북동부의
##산업은
##정책은
건국대학교
1786년
##협회와
동남쪽
만주족
음식과
동작구
기둥이
뉴질랜드에서
트랜잭
생애에
본토에
무라야마
에티오피아의
날짜를
시초이다
broad
전세계에
화순군
메콩강
해양수산부
education
##글라트바흐
fad
lay
mls
rp
turn
건드
광부
그친
기득
남학생
답습
막은
명절
무더
물적
백의
버전에
불연속
브람
삼엽
서간
서훈
섬인
소도
어음
예니
예민
우연
유길
이일
정과
정릉
제우스
조훈
존은
차후
찾게
코마
태자로
태생으로
한밤
허나
##도부터
##사였다
##재정
##티에서
##분위
##봉수
##v는
##총부
그러는
1964
서울지방
30cm
영향도
설립하였고
선거이다
가운데서도
아르고
지도에
##ots
확인되어
입단해
뛰어나고
북한산
언급하며
나무와
발행했다
디자인한
제안으로
처리하기
오후에
사령부는
탑재할
작성했다
편입되었고
고구려와
폭발이
태어나고
단일화
대표팀으로
1784년
운용하고
통제할
달라붙
제어하는
펼쳐지는
기울여
1680년
근육이
진격하여
시인이자
칼리파
저널리즘
흥행에
들어오게
제독은
강동구
매카트니는
트란실
아브라함
고케닌
페가수스
museum
북키프로
sav
겨루
경조
구소
끊고
네번째
단언
달력
만찬
박사를
반대가
백호
상회
생쥐
수레
스털
승탑
신일
양각
왕건
욕구를
이연
입구를
정무를
죽인다
중문
중경
증가는
진로
창당한
충동
클라인
타석에서
한해서
헬스
흔적은
##9m
##메네
##리에게
##손이며
##예르
##비니
##즈와의
##드래
##gan
##태와
##남매
##남북
##억원으로
##텔라
##있기
##탄생
##ature
알려졌으나
##ices
감독이자
구성으로
일반에
문화대
설치가
데뷔작
운영했다
##이지의
등장하는데
표현되는
##chen
변경백
특별행정
3년을
명령어를
승리해
1995년까지
마르티노
결합은
불교에서
대사성
달성할
비밀결
장기적으로
부인했다
워싱턴은
보장하고
웨스트버지니아
주최하고
테이프를
한자어
올스타전에
block
추방되었다
천안함
바르셀로나에서
웹사이트에
생기면서
사촌인
마틴은
입대하였다
가야금
정벌을
선두를
연계하여
공용어
의병장
강경한
개화파
갑옷을
공방전
studio
스플릿
도네츠크
개개인의
history
##알데하이드
한성부판윤
국가지원지방도
악영향을
2중
2단으로
b에
ker
pur
ti
wolf
갔던
같으나
걸음
경직
과일을
관아
교훈
급감
기법이
난쟁이
노섬
논문에
대국민
더러
던전
들과
따냈다
리의
릴리스
묘법연화경
반송
산물
서점
서동
소장을
슬레이
신무
아라이
여단은
연이은
오귀
완패
유향
일요
임성
입으로
조조를
중증
즉위를
차의
차갑
케네스
타츠
폐선
폐비
표결
##이스트
##지청
##런드
##였음을
##수단의
##회사와
##제트
##측정
##던지
##타일
##란타
##삼성
##목이다
##률과
##헨글라트바흐
##귀비
##숨에
지역별로
자신감을
##ales
정치자금
중심적인
##시키기로
방법으로는
보여줄
지나며
전국인민대표
연방을
도로에
##odon
선언한다
세워졌고
마찬가지이다
움직이고
멕시코와
계승을
지명되어
전환하는
##aka
스토어
삼국시대의
설정하고
강점기와
카운티의
거래가
분열이
사마르
화합물은
프리드리히는
사찰의
사립학교
정통성을
테오도시
아제르바이잔의
정사각형
##ski
##ences
애덤스
반공주의
없었기에
스트레스를
##수염박쥐
주한미군
에히메현
정3품
45년
dmb
e3
h로
name
oem
가로로
경로의
광합성
근대의
낙점
데메트
로서의
매체를
목초
묘사가
발기인
방지를
봉해졌고
브롱
비즈니
사철
사방
사명으로
서장은
세대를
수난
습관
시나이
약소
양식과
얼음이
엔도
오니
이쿠
일약
저조
조망
족이
축으로
터에
투고
튀김
평온
##시랑
##자로서의
##pi
##ria
##사로서
##신부
##대우
##버라
##k는
##람을
##장소
##별이
##샤를
##탄소
##곤이
##덩이를
1100
15세의
하나와
도시였다
1920
태어나는
의미하고
생각으로
생산했다
1909년에
스페인을
##스타인
제국으로
만들어질
그리스에
figh
노선인
##연구소는
##ters
결승에서는
전기철도
국가대표팀이
불교에
서쪽을
근무했으며
디지몬
충돌하는
만들었다는
오르면서
득점왕에
입학해
marc
k리그1의
나폴리의
회원국이
노예가
어떻게든
무덤에
기둥은
침입한
알파인
목소리로
무한히
사찰이다
4대강
재료의
캠퍼스는
회색빛
##ulation
참모총
입대했다
배열되어
히어로즈의
돌파했다
바이러스를
##anced
내야수이다
로빈슨
파운드의
ern
히데요시는
hero
이내로
환상적인
메릴랜드주
조로아
양서류
오징어
빼어난
ncaa
2척
nec
가경
검사의
경로가
공보
교실
기전
기단은
나그
담양군
덴무
동명이
명품
모가미
미제
박문
반짝
발판을
버트
보천
불타는
비축
사각형의
살레
서베를린
석의
세조가
송강
수중에
수개월
숙련된
신관
야노
에프
용담
우유를
운하를
원환
유주
자에게
전기가
전용으로
제나라의
조는
조운
좌초
주자가
채찍
초명은
충격으로
카트리
통학
품질을
피닉
하겠다고
학자이다
행해진다
##만치
##신사
##호선을
##키치
##류족론
##정벌레
##근으로
##포항
##줄기가
##광주
##브레이
##6월
##읍에서
##vb
##én
##랐고
사람에게는
조선족
국가별
대통령이다
독립과
##usion
타이타
264
방법론
stan
부산국제
연합국의
이동은
##otis
어린시절
통과하였다
제조된
1989년까지
언론과
80만
발행되는
통치했다
재판의
제정하였다
subs
편성하여
마드리드에
공유할
1590년
1822년
##스럽다
끝나지
로스앤젤레스의
반영하여
골든이글
교차로를
세월을
아리마
잠재적으로
두려워한
비로자나
프리미어리그에
베토벤은
macos
전압을
사모아
불태워
시간대에는
애리조나주
자유민주연합
##아비달마
왕당파
모닝구
여주인공
august
안트베르
1척
3선의
43년
5위로
mim
rel
right
word
갑은
겸손
낳았고
동부는
보성군
분실
사표를
색채가
생겼으며
서얼
성내
성현
수명을
시무
실명
실물
썼는데
쓰이기
아스타
엘리스
울창한
자판
점심
정사를
정자를
제구
제미니
죽으면
집과
참의를
친하게
크다고
티아
하라는
항전
현대로
형조
호시
호의를
홍길
화신
##이전
##되기를
##nes
##차오
##역학적
##보좌
##다노
##허는
##해주었다
##kb
##파베이
##복시
##52
##마리가
##본기
##모리는
##돌의
##후와
##피드
##atory
대통령비서
##리그는
수도원을
상태와
스타로
활약에
결혼했고
2019년에는
전통은
조약에서
폴란드에서
단순하게
준비했다
제시카
충돌은
640
마드리드가
건립하였다
개선되었다
일으켰으나
시티의
동계올림픽
도망친
아시안게임
인디언의
편찬에
도와준다
관직에서
신의주
2020시즌을
어두워
상하이의
고객의
전승에
증언했다
나선다
소실된
최하위로
국어국
앞장섰다
주계열성
탄수화
비지니스
열린우리당
집현전
major
oecd
열대저압부로
6는
갔으나
경선에서
공자의
구인
군집
권리에
그치고
기종을
당명을
대시
대일본
만능
많았지만
말레
맞서는
먼로
명료
몬티
반론
밤낮
백합
부정한
불상으로
비합
비중은
사원이
서품을
세입
소하
숙련
스맥
식스토
써야
앞으로도
어필
열혈
열강의
왕중
외무장
위니
자일
저소득
접견
정혜
진이
총신
치앙
캐러
크렘
탈옥
탑이
통하지
포물
행사로
헤더
황토
회양
##서성
##r은
##사회에서
##사실을
##신청을
##내렸다
##메이드
##니얼
##병원으로
##우먼
##군관
##마디
##발전을
##∼18
18개월
역사이다
의미도
음악에서
받아왔다
발매가
성공하고
출전하였으나
##대학원에서
상황에서도
평가도
이적이
판매된
지배했다
확인됐다
기독교로
자기장의
가리기
과학을
##호선으로
통과해
결합이
##교육과
요청이
##시즌부터
아카시
혁명과
표시한
떠나지
표기법
전반의
계산한
평양을
전개되었다
운용이
채용했다
보관하는
출간하였다
느끼지
탐사선은
제이미
드래그
놓여있다
요금구역
소득이
명시된
대승아비달마
운반하는
gui
캄보디아의
편리하다
거행되었다
감마선
조광조
히스패닉
호몰로지
달마티아
귀여운
foundation
pseud
4라운드
7분
das
sab
xml
거품
겐나
경관을
계명
곡들이
공집합
괴산
군세를
극에
극도의
깊이는
내기도
눈길을
도보
뜨거
렌즈를
로보
롤리
마실
말갈
바르게
방해를
별들이
부상과
분화가
비엘
삼장
세상이
수량
스켈
신격
심하다
여왕은
왕씨
우분투
이과
일상을
중지를
진화에
콜론
키라
킬리
편년
품질이
협곡
홈이
회중
회로의
흐르면서
히파르
##시위
##지점에
##찰을
##인증
##kin
##니코스
##공영
##구아
##동물로
##협조
##협회에
##프니
##zer
##타사
##타석
##vo
##탈레
##orum
국가안보
1965
활동하다
연구소를
1917년에
운영이
등장하면서
26개
계획되어
대전으로
기능적
개인과
지휘하여
확인되고
cho
환경적
아시아나
분리하는
집합에
패배해
파괴했다
확장하는
활용되었다
세력인
three
오르자
정리하고
sk플래닛
하늘이
route
경성부에서
왼쪽에는
빠져나와
##ques
심리학자
나타내었다
요금이
동반한
유입된
비서실
충격적인
객관적인
순교한
비평가들은
카리브해
남원시
market
랜드마크
treat
##박람회
언젠가
막론하고
3단으로
3백만
42년
4명을
9는
각하
갖진
거사
겪으며
곳인
광교
교파
구치
기단의
기쿠치
김나지
노팅
누출
다승
단숨에
도카
독이
두었으나
뜨게
리자
명맥을
바쪽으로
방안이
볼츠
북방의
서원이다
선명한
섬에는
소량의
시진
신채
심슨
암각
어수
엔트리
연남
오보에
요건
울타
워런
위시
위원이
응축
이왕
일회
임시의
자폐
장화
주자로
창춘
첫사랑
통상의
포경
풍산
한결
함축
확인이
회자
회전을
흰색의
##이용
##육을
##par
##05
##할지
##키스타
##진법
##리에는
##포장
##작에
##십육
##안면
##우에게
##카페
##국악
##남이
##무에
##무형문화재
##딘이
##침에
20명
1400
##라이즈
우승하며
고려대
##인이라
임명된다
개최하여
추가하는
##르트헤
지나간
2차례
선출하기
언어들은
소유스
deep
단체들이
통일한
크로노
법률은
이사회는
##ipt
엔진이다
대륙성
준비한
서비스업
##tv의
##롭게도
불러들여
만족시킨다
수입은
유도할
카메라가
3차전
흡수하여
위반한
계통이
관여한다
의학상을
재개하였다
그만두었다
시모쓰
대변인은
테크노
신속히
진도군
반박했다
연극배우로
조병옥
사쿠라이
피드백
창씨개
5급
rose
군현
당파
대세
대기를
동전은
뒤틀
띠를
람다
밀직
반이
발권
번역을
변주
부사관
불상이
비정부
사기가
세거
쇼를
쇼팽
스벤
실적을
양현
올렸으나
우암
원수를
원리로
유프라
임수
전출
주술
찬반
최승
추진을
태권
태즈
포카
한랭
##만세
##소프
##나물
##들만이
##리보
##코지
##공사로
##마사가
##비례
##연예
##디스트
##누스를
##엔은
##반에는
##딩은
##춘다
따라잡
연구원으로
대표곡
방송국으로
213
아니라면
공식은
드라마가
유지된다
아르타
평가할
공개됐다
학교이다
최근까지
조사하고
가수인
배치하는
80여
크리스천
1차전은
의원인
자동차도
도착하기
정신분석
시행되고
해결책을
귀족과
동생이
몇몇은
전환하였다
묘사한다
오르기
이스라엘이
장착하고
목적과
금속의
브랜드인
1823년
pci
포기하지
변환하는
챔피언십에서
흘러드는
후계자인
받아들여지고
전신이다
백성들에게
혈액을
peace
게시판
아우구스투스
장편소설
김포시
선구자
아리스토텔레스
하치노헤
씨앗을
어시스트를
봉해졌으며
마스코트
갈리시아
##구락부
베릴륨
인터콘티털
sen
x선
가나의
간과
계투
골이
공원이
공석이
대모
도굴
명창
문집
미안
방파
방해가
벼농
변수의
병영
불우
빈도가
서른
소지가
시메
열정
영적인
이게
일절
있더라도
잡식
장손
전업
조력
지낼
처한다
커스
태사
포수로
행성에
회합
휴고
##환원
##이아
##관리를
##인쇄
##간섭
##오며
##족에게
##천왕
##유통
##모양으로
##너리
##번호가
##1로
##여름
##후인
##달래
##록이
##편모
국가들을
영화다
활동가
제작의
25세
의미로는
발생하였고
기원으로
발매되고
가운데땅
명칭에
유일종이다
노선도
증가하면서
조사하여
##ago
언급하지
크로스를
실험의
다르다는
살해당
인근에는
처리된
경영에
하루는
사회주의자
핀란드에서
태평양의
체계로
1609년
출마했으나
인접하고
득표를
기대할
후원하는
기소되어
희망의
영구적으로
세월에
라이온스
하천의
1413년
mvp에
공전하는
내장된
글루코
days
수동변속
메커니즘을
삼층석탑이다
tnt
배드민
눈부신
friedrich
3관
aff
bul
dy
ten
감바
갖은
광종
괴산군
구어
기거
나설
논스
논문이
놓을
둥지
드릴
리간
리바이
문장으로
반지를
번안
본체
사누키
실적
실습
아방
안구
않더라도
여주시
옆면이
용납
우발
웃음
이간
이행을
입출
자장
주산
죽거나
직역
축에
코치는
크론
토지가
패밀
페레스
평지
함대에
활기를
효모
##도전
##nh
##호에게
##진영
##다라
##정서
##렌즈
##츠키는
##해주고
##동초등학교
##러미
##6의
##체제가
##디니
##잎을
##6년까지
##되었음에도
프로펠러
사이에도
사이트는
조선조
도시이자
##iti
##위원장이
227
출연했고
출연했으며
##osis
민주노동
시리즈인
과거와
나오면
평균기온은
1993년까지
지하철을
1986년에는
혁명가
1980년부터
수립한
창설한
중화민국은
떨어지지
마사토
대상인
확정되어
투입하여
1780년
통해서도
콘스탄틴
우려한
연관성을
많아졌다
코르도바
프린터
일으키기도
##부대사
##달러의
베네치아는
프라이드
소득의
양산박
그라나다
법무법인
일조하였다
입성했다
거북이
표방하는
죽이려고
이닝에서
제퍼슨은
감안하여
준동형
인테리어
서프랑크의
프로방스
수다메리카
##동국여지승람
2시즌
3계
3층에
5촌
6경기
8위를
abo
js
가사로
건무
관점에
국지
낮에
넓이
네발
노는
노트르
달렸다
대행을
대검찰청
마사키
마산시
막는다
많으나
말기인
매클
미상이다
백범
변하고
부득이
북군
성교
신식
신체를
심플렉틱
애착
엄밀하게
에번
에덴
연기에
유유
윤지
윤정
음란
음식의
음성군
이천시
잉크
주필
줄기를
진은
체스터
최명
커스터
특례
파장이
핵연료
행주
활성을
후난
##어내
##어족에
##pend
##대사로
##들간의
##족이다
##죄에
##식인
##베의
##채권
국가적인
1962
만들면서
존재와
30개의
전투기가
##위원과
222
##이스와
활약하면서
개최될
inn
건설과
노동자들은
학생은
건축물로
보내기
2차전은
파괴를
스포츠를
외교관계를
주도적인
여름은
종합적인
원칙이
대항할
enc
애플이
플랫폼으로
##사건의
유형문화재로
왕조와
구입하여
열매가
중성자를
살아남아
남겨두고
공무원이다
배제하고
일제강점기에
내보내
poly
염기서
##클래스
무찌르고
##kyo
불문하고
오랑캐
맨눈으로
3패
5세대
7억
8위
bh
link
강계
거문
금산군
기구에
김이
끝났고
남기는
니치
대선에
두부
뒤떨
레몽
멀지
문맹
문양을
미녀
반증
반환을
변장
별들
부위원장
사극
사나다
산동
선적
슬하
야망
에선
외무장관
저속
전극
전장에
조기에
중이었던
지상으로
출고
취지의
치며
키로
태아
퓨전
피폭
하일
함에
후아
휘문
희미한
##시고
##of
##대사를
##덕면
##dle
##정하고
##경주
##제품을
##w의
##요와
##개이다
##열차는
##투코
##단지가
##풍군
##효소에
##ér
##좋은
그러하다
가지기
제1의
발견될
문화적인
참여하면서
결정되어
최고령
조직되었다
서로에게
이적하게
작곡하고
##정부와
아프리카와
나머지를
확장하였다
조각은
승격되면서
평화적
전달했다
문학에
마리아를
귀국을
함수에
노예제
네트워크에서
생겨나
보장하기
자세하게
군인이자
시위대가
777
잠수함은
받아들여졌다
검토하고
시조인
##계열의
series
공무원으로
전세계에서
slbm
객관적으로
줄어든다
케냐의
올바르게
이케부
궁극적인
없었으므로
중퇴하고
해남군
이코마
이누야
스테인리스
뉴올리언스
대표작으로는
미추홀
7로
hk
money
ton
yu
가수의
가면을
감명을
과소
길이로
나바라
루앙
리무
마티아
말하기
매크로
미사를
방위를
벌일
범행을
부상에
분분
불선
사타케
새기고
셜록
수장인
시네
아리안
암반
양손
양성에
에런
올버
원당
원곡
육십
음서로
일일이
자문을
지네
초보
취입
친필
코니
쿠니
페퍼
포레스트
풀을
합치
호감을
회색을
##시장이
##기초
##럭스
##키나
##인이자
##메인
##con
##공급
##무용
##양현
##님은
##블록
##편찬
##길과
##탐사
##혐의로
그리스를
것이었지만
아니하고
처음의
지방소방
결정으로
연결한
마지막까지
##시켰을
브라만
노동자가
반대쪽
어린이의
캐나다에
스트림
이란과
치료의
중요하다고
##스티스
가톨릭의
조각의
시행하였다
##문화재로
이루어져있다
##가로도
길이와
조선민주주의인민공화국에서는
단계적으로
아메리카에서
주어야
지니게
후계자를
질병이
유행하던
누구든지
세웠는데
끌어당
인용한
작동한다
곤충의
올라가면
캠퍼스를
에스파냐의
물고기의
security
맞붙었다
마다가스카
연상시키는
진지하게
크라이스트
글리코젠
##스프링
은평구
academy
벤자민
모닝구무스
39년
6에
ech
ict
nac
xx
가만히
개조를
결단
공리를
구이다
국회가
기습을
남우
노엘
농사
다을
도자이
됐으며
르베그
많았으며
말버러
면으로
무공
미지의
미움을
바에서
발화
백불계승
비추
상부에
섬진
수정이
신디
아군
온도와
용도에
우성
인현
일라이
잔혹한
저주를
전신은
정반
차관을
천인
크다는
탐라
판독
패터
페름
한용
환생
히우
##시스는
##이기에
##기타
##기주쿠
##부장을
##사단으로
##차카
##차장
##호군
##음반
##do
##니트
##데다가
##교황
##개국에서
##방식이
##써의
##받으면서
##살로
##헨은
사이고
##itan
대회에서도
설치되었으며
발표되었고
자유는
소속팀은
따르게
분류군이다
진출하고
결혼하고
1896년에
이적하면서
은퇴하고
시설관리
강화에
법률로
##아가며
##스테이트
1987년에는
##ogen
제도적
3개가
임명되었다가
출발했다
작성하는
세종은
수출입
창립하였다
나치당
600여
orch
##베르크의
후속으로
1627년
완료된
1757년
희생자
방지하는
발언이
입문한
불렀던
약화되었고
이슈가
mini
##자본주의
초과하는
gsl
배속되어
graph
테네시주
중국인민지원
실마릴
미크로네시아
2백
3국
5번의
7은
kre
강박
공국은
국채
남도
대위로
라인의
레미
마유
몰디
무학
밀도를
반년
받도록
백령
법화
본떠
부탄
사장은
소토
시편
신화를
엄호
연정을
예배를
오의
운남
울주
원고를
유린
재산이
준장
천만
청하였다
치다
타란
타인에게
팔달
팽팽
표의
항속
향상과
화천
후송
##부트
##전리
##철폐
##레드
##행동을
##리프트
##추가
##마땅
##함대는
##8회
##크루
##번에서
##머리에
##ves
##칼로
##웰의
##늄은
일본에서의
때문이며
국가나
고려해야
상태였고
계획한
스타니
##이드를
반대에도
통합되면서
명령하였다
잉글랜드를
요시타
방문한다
하이젠
해석된다
바꾸기
후쿠치
신라를
제60
카메라는
멸망시키고
##iance
관심대상
진압을
달라진
1615년
대리청
시카고의
양쪽에서
액체연료
별칭이
테일러는
임용되어
신탁통치
취항하고
접어들면서
카세트
하타모토
불균형
완도군
파라과이의
보건복지부
인스턴트
코먼웰스
신증동국여지승람
han
lan
ui
가다가
강정
거기에는
걸림
경의를
곡식을
관대
교관
교사의
군단이
기사에서
김중
낙후
독단
많다고
백암
범어사
불안을
삼형
상좌
상임이
서게
성탄
시인으로
십육
썼던
앙카라
양명
운명의
위민
이베
입이
입궁
장사를
적립
제롬
진왕
초토
코타
콘트라
털로
한계에
##중주
##노선을
##병들이
##팔이
##요금
##안데르
##우파
##추얼
##유니
##방식으로
##국가를
##분에서
##fm에서
##장구
##롭스크
##섬이
##입되어
##∼17
##좌석
##침이
##닝은
##웠기
##또한
기록하지
1966
301
사건들을
##들과도
233
스타인
않았으므로
발전한다
공개되지
현대식
담당했던
뛰어들
표준궤
제한적인
물질과
작업으로
##스키와
1985년에는
미사일로
lead
level
##관리위원회
나이토
금속으로
조합한
조합으로
특이하다
기대하고
행렬은
그때부터
##사우루스의
저술하였다
원주민의
재개했다
1회전
감시하는
가쓰라
예언자
resp
영동군
글루타
두께는
##주머니쥐
재해석
데카르트
몸무게가
주둥이는
double
effect
갑상선
sweet
조너선
1시즌
1tv에서
2위의
2nd
7에
map
oct
some
공지
과반을
군입
궁전은
극찬을
니시오
던지고
등지를
뛰면서
로디
몸까지
못마땅
반사회
받침을
방학
보광
보국
보렐
색채를
샌안
서한을
선화
악보
얻었으나
옮겼으며
요리로
을은
의도로
재조직
적성
젊고
차륜
참정권
채식
체의
축일은
태도는
퇴거
포용
포으로
폭동을
픽션
필리스
##과일
##오면
##행사를
##버렸고
##리지만
##산도
##교차로
##설치
##층에는
##건조
##val
##졌음을
##딘을
##촌동
##탑과
##랭킹
##oria
12명
17세의
프랑켄
발견으로
발견되면서
##0년대부터
방송하고
독립에
이탈리아인
성공시키며
시절과
평가되었다
판매량은
부족하다
3년에
예정이라고
시민들을
강화하였다
1992년까지
파괴되고
언론사
작용할
주도하고
직후의
나타나기도
가입되어
노력의
넘어간
이번이
scr
예선전에서
알아볼
설정할
등급의
플라톤의
라인란트
와이파이
동굴에서
일단락
대한제국과
겸임하였다
되찾기
중심지였다
벨라루스의
개업하였다
미네랄
미네르바
추증된
반지름이
사헌부대사
우즈베크
수성구
자생한다
니코니코
거머쥐었다
사법연수원
매니지먼트
슈바르츠
k7리그
2장
3호선의
911
9000
pag
sas
개울
것까지
공국을
교명을
교체를
군부의
기계의
남겼고
녀석
년의
덴진
돌보는
딸이며
로을
무수한
묵인
문구를
문서로
사드
새크라
수능
수이다
숫자의
스택
어진
에콜
열등
웅장한
원폭
은색
이충
인더스
일레븐
재조합
절이
절로
점수는
조국의
종전의
주현
지온
직원으로
참판
천부
톨레
특성으로
팔고
포브스
학계
행할
행적이
화의
##트리아
##자재
##9회
##중부
##집반승
##요시는
##드라는
##모인
##프티
##셔의
##참의
##하여서
활동적인
고려는
돌아가지
출연하였으며
형성하며
지도자들이
지나갈
##mm인
인간으로
실패하자
뛰어들었다
애니메이션에서
구분하고
70만
##베르그
통치한
체포되었고
체결을
친구였던
arc
알렉산드라
##사령부가
넘어선
화학적으로
중화민국이
제7차
트리폴리
스튜디오의
1591년
예상하고
order
sbs의
구속된
##iki
개신교의
병합되었다
실현하기
무시한
1644년
스카버러
복무하였다
수술이
약칭으로
진격해
연안에서
보르도
실내악
통칭하는
인텔리
착수하였다
합법적으로
교외에
종착역
아다치
microsoft
토크쇼
유망주
division
색소폰
1도
1녀
2인조
6위에
b를
fx
ped
가꾸
개수를
고르게
공석
군악
금액은
기만
길이에
내건
네르
노토
녹말
돈의
동체
리빙
물방울
백일
보물을
사탄
살상
석패
수제
애쉬
어선
어면
위기의
유시
유비를
유타카
작으며
전립
제패
초라
카누
코사
키움
타자가
트립
피부가
형과
확인을
##시위를
##때의
##사장
##야에서
##진입
##대군이
##대상이
##mond
##보던
##거부
##비엔
##비치가
##미츠
##운행
##민국
##1000
##삼국
##겐은
1900
##inn
국가지정
포함되며
감독상
발생하면서
시간동안
발매될
지금에
추가되었고
결혼하였고
제3기
민족은
반응하는
파괴되었고
유전자에
바꾸게
교수인
이야기다
전략적으로
##은행이
유형으로
prop
tokyo
자본가
이번에도
핵심은
병사들에게
머물며
1829년
절대적으로
##스케가
함락시키고
1759년
국민의힘
베스트팔렌
정기적인
1637년
쓰여졌다
16강에서
항의하는
##달러에
##느냐에
넘겨주었다
바이러스성
간접적인
들이닥
disp
전념하였다
commission
나열한
간호사
신시사이
부적합
터뜨렸다
합창단
이르렀으며
조계종
피타고라스
고스란히
행방불명
2편
ara
eb
eos
gc
mess
각급
거치는
광경을
귀한
금의
기세를
논문의
농담
당과
대사의
라르
레티
로저스
몸에서
반은
밝힌다
백금
벌이기도
부와
빠졌고
사상으로
서부로
설법
소치
소성
수소와
술과
스님이
시주
시온
신년
신태
아만
액면
야당의
약학
양적
옷자
응고
인내
정대
중력이
지경에
측과
커맨
컵대회
케로로
터키는
판사는
팬클럽
포진
표했다
피르
하구에
헌장
혼마루
활화산
효용
후한의
흐름은
##지다가
##대대가
##보시
##다리를
##허의
##해제
##car
##khz
##공연을
##비치의
##료에
##축으로
##돈과
##혐의
사용되는데
자신보다
1967
축구단이다
우승하였고
주장했지만
217
지정했다
등장했고
##etic
100억
철도에
태양에
받았기
기독교에서
선택적
육군에서
바뀌지
개혁주의
센터로
집중하고
합병되어
화학상을
체계이다
책임자로
은행에
주교를
트랙으로
향상시키는
연출한
노스웨스트
서술한다
##도서관은
신고전
complex
모로코의
라운드에
없애기
엔터테인먼트에서
스핀오프
차가타이
쫓겨나
바그너
처녀자리
감안하면
우즈베키스탄의
이규완
재선되었다
간략하게
비엔나
무서워
완봉승을
alexander
어우러져
랭커스터
요아힘
2이다
6호
6인
jud
건전
기구로
기운이
깨어나
다임
단점
레너드
리허
망막
면은
명랑
몸체
무역에
문구
바누아
버니
살포
서는
설정은
성당에서
세트를
스며
슬리
쓰리
안평
앵글
업적으로
여야
영릉
우타
우주는
이발
이스타
이밖에도
익혀
일깨
입혀
자랄
점근
직장을
촉탁
커진다
코메
판시
패권
하한
한류
홍수가
후사가
휴지
##찰사
##센이
##관음보살
##주에게
##렌이
##상황을
##카드는
##싱은
##실천
##피나
##패와
##혁명이
일본항공
일본화물
11의
13만
253
25개의
설치되면서
설립했으며
시간대를
교육적
돌아서
돌아갔고
cop
100명의
대전과
건물에서
판매한
나오자
##raft
베이직
조약이다
발달하지
유전자는
결성해
처리한다
친구들은
평화유지
센터에
나뉘게
ener
전공하였다
자살하였다
출장해
발굴되었다
자리잡게
이혼했다
16강전에서
화폐의
화폐를
##onder
친일인명사전에
비공식적인
systems
pdf
지혜를
평창군
하시바
term
##여우원숭이
kaist
세바스토
화엄경
머리카락을
hotel
factor
기리고자
프리랜서
슈뢰딩
만족시킨다면
불그스레
스맥다운
1점을
1군으로
4와
5살
made
our
가위
감소를
강진군
계를
고배를
국고
군인의
기슈
김의
담을
동력을
들러
따위
로터
로고를
매트릭스
면에는
모였다
못하였으나
못했을
본편
볼턴
빌레
빙그레
사돈
산성으로
산소와
살균
서부를
서부는
소동
쇄도
순흥
슈트라
식재
신학과
야채
어획
예시로
의자에
이각
이찬
장동
종말을
중단을
토드
토지에
포탈
하단에
항성에
홈을
화산은
힌덴부르크
##소생
##기서
##부흥
##u는
##책임을
##리움
##계산
##종류의
##법인으로
##교차
##발레
##zi
##새와
##bre
##쳤다는
##되었거나
1963
1300
만들었던
서울시장
서울교통공사
제작할
25분
설치되고
이전하여
지정하는
##lect
자유에
100에서
스타일이
결혼할
이동하면서
주변으로
사무소를
제한된다
비행장
대중화
작용으로
승격되었고
계승되었다
경영하는
좋아하지
전달된다
개편되면서
마리아나
북서부의
스토크
변호인
원칙이다
경향신문
이승만을
스튜디오가
1978년부터
무기력
형제와
전설을
병사하였다
요한의
이민자들이
한번은
둘째로
##플레이어
장남이다
나아가서
임무가
호소했다
상실하였다
백성들은
프로듀서인
남녀의
요금은
사양은
점성술의
##helm
스태프
해명했다
재결성
이더넷
##미카리브
온대저기압으로
솔트레이크
베텔게
620
710
ban
hem
lie
ren
rest
계보
고대에
공교
구르
귀부
꼽히고
남측
남는다
높았던
누마
당직
대내
데릭
마더
문중
반의
백제를
별들의
보디
복음을
불능
불황
불쌍
삼가
상공업
서두
선무
소리와
속하였다
엘튼
연골
영조는
요소와
월등
웹이다
유송
의상을
이휘
이여
인도로
인사가
자그
죽산
진화한
처인구
카일
캄브리아
커티스
타슈
타점을
태운
핵을
##기부터
##권이다
##다에서
##다이스
##해협
##고도는
##십리
##네세
##핀은
##동사
##89
##열차의
##민에게
##1품
##후원
##래를
##켓을
대한예수교장로회
11번
것이었으나
사회로
##hed
주장할
주장했으나
##round
운영은
수상하였으며
하였을
1895년에
역시도
특징과
비슷하나
서비스와
특별법
비판하며
담당하며
우주선을
##ocol
동생으로
아일랜드계
##ove
지진과
유대류의
연장하는
촬영된
몽골에
문서에서
침공한
편집자
##사회당
불가능하다고
무장친
토론토의
무덤의
전파되었다
행위이다
위원회이다
1018년
이념으로
시게루
말라위
입문하였다
수천명의
보좌관
밝히면서
실종된
헌법재판소는
##방위군
3부작
그레이트브리튼
가장자리는
무작위로
위함이다
재편성되었다
북중미카리브
하워드는
5학년
9세는
dip
mak
pack
rog
sor
가곡
각계
고니시
고에너지
관점은
근교에
금과
까은
넣기도
다는
대추
대기가
대원군
망루
맡았는데
매드
반출
백신을
봄이
부자가
빛과
석등
수탈
육조
이력
일고
일제는
있긴
잡지를
잡았고
장에
재소
접하게
정창
정원이
주영
지점이
짓는다
참나무
철십자
초평
추수
카불
탐페
팔랑
하타케
한방
해상에
헤지
환영을
회령
##시기에
##스름한
##레마
##주체
##츠코
##해보
##경화
##공포
##공원에
##죄는
##일보는
##바디
##4조
##마키
##준다는
##모양을
##남과
##영에게
##놓을
##현면
##vs
##샤르
##잔을
19개의
선수단을
##anch
305
진행하며
지정할
배우인
건물들은
inte
50개의
file
레이놀
학생과
비교해서
시민사회
선택이
발달하였고
부여되었다
하이데
발행을
교수직을
1800년대
미사일과
제기되어
신문이다
scott
측정하기
캘리포니아의
체계에서는
확정했다
신앙에
재배치
갈색이고
개설된
바닥을
일으키지
클라우스
psv
밀라노에서
탑승한
성과가
크로스오버
##rict
패턴이
편리하게
국립공원으로
추산된다
저기압으로
위그노
몽고메
아키텐의
times
도파민
가석방
무스타파
matt
감비아
개인은
결실
고메
군포
권선
기나
기라
기주
기회는
남평
레그
밀리언
박노
번데
벽은
병리
본선이
블러드
비견
빌바오
사담
생성을
설교를
쓰였으며
연장을
예명을
예천군
오가와
울란
유부
유토
직원의
처마를
천정
최창
층은
통치가
판교
피노
해바라
험한
호성
혼동을
후카
흔치
##기적으로
##도독
##부산
##부대에
##신문은
##sung
##간이다
##300
##행위는
##퍼와
##토론
##wer
##추게
##함대의
##국가로
##싱을
##쥐과
##엑스
##애슬
##못해
##붙여서
12는
따라가
프로비
서울지방법원
대표와
아이패드
우승했고
진행되지
자유지상
조직되어
야구장에서
anti
지휘하고
기독교와
점령을
물리학과
이곳에서는
마르가
실제적인
연기자로
공작과
제주도에
당선됐다
직후에는
주인공이다
신경전달
책임자
1973년부터
나서지
구별하는
540
플랫폼이
미드웨이
999
변환은
빼앗겼다
함락시켰다
##afta
brand
##사무관
확립되었다
1455년
중추신경
장비와
차단하는
사우스다코타
개장한
배정되었다
평소에는
있으면서도
magn
학부모
경신했다
중서부
부작용이
프로듀싱을
revolution
dragon
안드레아스
다마스쿠
핵탄두
재보선거
대한축구협회
디스커버리
일찌감치
조로아스터
2권
fant
가노
간격은
경관이
국에
금석
금지를
김신
김천시
내일
내년
다산
대만의
두었던
떠났으며
만년에
망상
메클렌
목장
무량
미소를
받다가
보나
보직을
분동
분리를
사물을
상식
상승을
생동
생물을
선로는
세스
실비아
어빙
오븐
용품
원소와
유로의
유로를
유비의
인기에
접미
좋았다
직위에
찬송
처하게
초선
총경으로
침팬
컵을
코디
코스를
터를
토막
퇴학
튜브
팀에게
파비
플롯
핀치
한씨
항로를
홍씨
후학
흡사한
##조선의
##트나
##부장으로
##중랑
##백색
##것에
##퍼드의
##바이를
##교양
##발톱
##성서
##판결
##축은
##직인
##려던
##특급
##엄경
##lace
그리며
때문인
이상에서
30세
지방관
문화관광
22개의
기술하였다
계획되었다
임명됐다
군사와
우주선의
환경은
나가이
가리킬
연주한
요시오
논란은
에스테
등록금
규정했다
표시가
해외의
스코트
침공했다
고구려에
보여주기
1979년부터
저지하기
단백질과
##축구대회
진입할
board
##마을에
미드필더였다
1648년
개체군
언덕을
노스다코타
모터스
소프트웨어로
해협에
발휘할
선두에
flow
내장되어
깨달았다
재혼하였다
아부다
고창군
아라곤의
마천루이다
배향되었다
등지느러
위함이었다
어리석
형용사
간결한
초음속
로타링
동위원소
조훈현
유프라테스
6가
auth
hur
갑각류
고비
고인의
군법
궤도로
낙태
납득
동면
동중국
모드가
무적
묻고
박순
배웠으며
버림
변형이
비키
색슨
성분으로
소학교
시집을
연성
영지는
오언
요소에
원자를
인화
인산화
입건
장연
장벽을
재정의
적벽
정비를
종과
주에서는
토륨
펠레
한왕
합은
합방
해면
행성과
헤모
호두
혼계
홍천군
화자
화면이
##과정의
##이크
##지우
##부지
##2000
##야로
##들로서
##워터
##리다가
##코바
##그미
##모리가
##급행
##목록
##빛의
##둔다
##홀드
##홀딩
##és
11명의
15세기에
들어온다
##esco
일부만
##리에르
사망하였으며
설치될
설립하였으며
226
조직적으로
##스크를
명칭도
40개
지배한
정당화
물리학의
인천에서
정확하지
만나지
시험은
##사업이
바람직한
##tex
##스포드
460
공포에
하드코어
조합하여
1610년
1618년
고속도로를
김정일의
것이라면
원소이다
1580년
기울어
코치이다
1689년
탈퇴를
edition
마무리되었다
전작인
링컨은
코무네이다
부적절
english
차출되었다
게이오기주쿠
불신임
영암군
어디서나
이브라힘
오버워치
##뉴클레오타이드
1백만
8비트
blan
born
fel
lc
tna
공주가
공약으로
권유를
기즈
꽃과
남겼으며
단련
도지사
따위가
레러
메츠
무반
반그림
벌이
빈혈
빌어
샤먼
선다
스로
슬래
신일본
심하여
쓰면서
연승
열병
유물이다
재심
적들을
제스
조속
좋다는
주종
주선으로
치기
크나
토속
페네
향하였다
호수이다
홍성군
후로는
흰색으로
##기구는
##신학교
##로나는
##나야
##레스로
##열차로
##형에서
##무타
##규제
##활동은
미국인의
국가사회주의
228
계속할
배우다
성공할
이유도
스타디오
##ides
노동당의
##연구를
증가시키는
물리학자이다
교통을
연주할
70km
외국에
않아야
소재지
##aya
크리스털
##미터에
이집트는
처리하였다
교회로
취임하면서
마리아와
농업의
조정하는
atm
세우며
세우면서
시각도
갈등과
##리우드
1967년부터
fair
6년간
공통점이
서버는
올리면서
에어컨
의무적으로
대리인
두려움을
화장실은
1군에서
수십만
해설가
레닌주의
블록을
고고학자
웨이브
카이사르가
늘어나면서
barb
무승부
진흥왕
장학금
광명시
rail
tree
아유타야
재계약에
every
산청군
말년에는
과달카
람보르기
1책
3에서
det
kid
mgm
각지
개성을
공판
공원에
귀에
기미
내주고
레슬리
로자
로즈는
리놀
매화
모르게
미트
바크
박창
변형을
북양
비기
비폭력
섬기는
성채
슬라이드
신호로
알카에
암트랙
양에
없었을
오이라
의식과
익명의
익숙한
재방송
전곡
조연으로
죽이지
죽어서
증상으로
지식은
진천군
청화
초조
취하면
친다
코에
태도가
파시
팔에
할지
횡성
##부진
##부대와
##사면
##와르
##06
##신한
##집단의
##구조는
##무이
##처장
##처분을
##촌은
##않고
##텐의
##뉴의
##뼈의
한국명
한국판
한국일보
한국기독교
제작해
지정이
데뷔전에서
따르며
##장으로부터
진출했고
후에야
노동자를
요구로
401
달리며
지휘로
비판은
증가시킨다
거주했다
5000만
승강장에는
##인데도
거부할
처리하고
사령관은
문학상
##전쟁에
울산광역시의
출마했다
00에
레코드의
아카데미에서
참석하지
프로듀스
1782년
##버그가
빼앗은
군인들을
소녀가
고속도로의
해상도
자극에
확립된
차이점
광복군
폭탄이
##프라데시
날개는
마스터스
친척인
시흥시
슬로베니아의
지쿠젠
돌출된
뒷받침하는
방침에
낭만주의
낙하산
플리머스
후유증으로
종업원
인민해방군
아프로디
pierre
3과
4급
결투
고른
국력을
궁에
남진
단역
대당
덴지
도보로
돈은
돌리고
되기로
등반
말하여
맥라
모다
문장에
부지는
살림
실정이다
심의를
외가
요지
읍내
인형을
자포
작별
장안으로
적갈색
정체는
제과
지었는데
진관
최상의
커지는
특성과
합체
호수를
황후의
효성
##e는
##문학의
##들지
##제동
##베어
##방재
##학원을
##모드
##푸는
##갈로
##즘의
##겸의
10살
##들이고
미국산
한국에서도
정치범
사망을
자유로이
행정부는
진출하지
수상이
개최한다
아르키
제31
km이며
출시되어
공산당을
공산당과
베트남은
3년이
북한과
후반까지
승리할
기여했으며
바탕이
접근하기
##인트호
38도
##그룹을
집단이다
에드거
단계에서는
행정구역은
appl
업무가
하늘과
끝나기
농민들이
3세에게
이성계가
빼앗았다
배출했다
포도주를
##음악을
마르크스의
가이아나
구현하는
나왔는데
고안되었다
대변하는
총재는
인텔의
##진흥원
귀환했다
최신형
머무르
몰락한
도심에서
급속하게
메모리에
리비아의
협약에
가리키기도
아바스
미디어를
이닝을
정서적
세레소
공고히
성명서를
전산망
awards
쓰나미가
적법한
향신료
외동딸
vvvf
북마케도니아
2녀
cb
ira
kon
ttc
강태
구호를
군주를
그게
금당
남위
네온
네안데르
로고가
로런스
링네
매그
맥길
명분
밑에는
바타
변할
보주
부화
부호를
불공
사울
수분을
스투
시계를
신부를
알도
얼라이언
업체로
여사
영인
외측
원정은
유황
은행을
임페
임명을
자퇴
전태
전류의
정다
정석
조를
주신
지위와
집행을
차명
책과
천둥
첨지
타진
테너
통한다
폭격으로
할때
확장이
##시비르
##도면
##지대가
##전보국
##lus
##아목
##3는
##치나
##ces
##쟁의
##업체인
##학회는
##등장
##vers
##박해
##페스티벌
##힐스에서
##먹고
조선공산
영화화
1948
감독하였다
연구한다
이어지며
설치되지
1915년에
237
265
분류하였다
모습도
유지되는
##리오가
도입되었으며
지휘관이
건축물을
교통카드
불교와
확장할
유명한데
오사카의
##istic
보존을
시도하였으나
창설되어
구축하였다
캘리포니아주의
고양이의
수정하여
수여했다
1607년
여행하는
1970년부터
##영화상
타이완에서
상륙을
1827년
스크립트
국도이다
자녀는
수영을
영업이
일시적
멸종한
골키퍼이다
청주시의
6개월간
모임인
공정거래
망원경으로
##소송을
안쪽의
안쪽에는
##조약이
고분군
안티파
자발적
석가여래
비극적인
시초로
해밀토니
committe
국립공원의
진사시에
포츠머스
근래에는
스더드
메클렌부르크
5기
ea
ey
va
want
개에
경내에
고뇌
공적인
궁정에서
그된
근신
근소한
기사의
김사
남단
대림
도정
동률을
뒷면은
등이며
만하다
매몰
모지
무브
배추
사학자
서기를
소래
스텐
승자가
신현
심도
약화된
에만
여포
영변
위대
이었는데
이목을
일파
자국에서
잡지는
재단은
전우
전문화
제어를
줄기의
질식
차분
채광
처리에
총참모
캘빈
코친
펜스
하중
항구로
헤밍
헬무트
히에
##기리
##rad
##사찰
##관방
##메탈
##데나
##수술
##수비
##통으로
##토이
##개구리
##gl
##협회를
##민사
##현상이
##달리
##활동과
##랜즈
사용되었으나
##시아는
조선국
영화관
13번째
##als
인구조사
존재해
설립허가
진행해
음반에는
분류로
##olm
##uri
비판에
1년만에
챔피언을
강화했다
출판사에서
영토에서
공항과
80km
albert
##스테인
시험발사
arthur
##phal
하늘로
취득하고
1977년부터
아파트가
동남부
반복하는
국무부
분할하여
검찰총
재배가
어린이들이
관여하지
개조하여
##idea
연예계
전동차는
##등급은
보냈으나
조기경보
촉진하는
1388년
플레잉
##분야에서
방송국이다
polit
관람객
되돌아왔다
디오클레
##소방서는
암시한다
nadh
최성기
이코노미
의령군
사중주
주황색
프로테스탄트
에워싸
꼭두각
5세와
8시간
dir
gd
ott
거점이
격납
그야말로
김미
김구는
뉴타운
당하기도
대야
대등
도구가
동기가
동부를
떠이
레고
모더니즘
문익
발사를
보였던
봉산
소이
송곳
수박
숙부인
스네이
시연
신파
싱크로
압수수
앨프리드
엄정
역량
연명
연제
연회를
원핵
윤용
이견이
익는다
일이라고
전서
주공
채석
케리
토큰
토네이
하서
항암
행크
행사의
헤르타
화전
흐르며
##조개
##사화
##루초
##위험
##족보
##회장을
##팔을
##교향
##값으로
##여겨
##쿠가
##효과가
##률의
##틴을
##슨에
200km
10세는
프로로
도시들
감독하는
문제였다
##ities
발표해
이전보다
부분에서는
전체는
활약이
활약은
여성들을
sts
건설하여
비판한다
##oca
600년
메이크
방영되고
식민지는
##지역인
브라질이
성장할
386년
타이틀곡은
좋아하여
내부적으로
루이즈
대표팀은
흡수하는
총독을
장군이다
##문학상을
맞이한다
생존해
주관한
어디에서
분노하여
##동물과
물려주고
아틀란
알고리즘의
구성원들은
관하여는
개업했다
피난을
스파이크
시흥군
이북의
형상화한
시어머니
불확실하다
뛰어넘는
한국프로야구
일람이다
도깨비
3종의
5점
6분
cand
건재
겪기도
경력에
고은
곡성
권세를
권력과
낙인
노블
대잠
독신
디리
램프
리리
많았기
묻는다
범주는
베인
보필
붙게
사자가
산기
삶이
삼성의
상인들이
서하
소노
속속
암초
양측은
요로
우라노
운석
원수가
유씨
육군을
의외로
입당하였다
주식의
증득
집안을
창당했다
총재가
출력은
칸토
콤비
타기
파라마
포가
푸저우
하려면
함자를
항구가
해설을
형평
##조사가
##트린
##명부
##전공
##대사의
##간접
##수단을
##고용
##물들을
##함으로서
##무르
##디스는
##겠느냐
##필름
##웅이
##엽이
##냈으나
12의
것이란
것이어서
선수단의
한국수
세계선수권
여러분
영국군을
이어나갔다
작품들
되어있는
의미에
이전되었다
중앙부
자유한국
사실도
245
발매한다
출전이
출전하게
##민주당은
정도까지
이미지의
대신할
공동체가
운행할
기업인으로
지도부는
##어가고
이루어지게
베이스를
단체들은
우리은
##ulf
영토인
식민지에서
오스트리아를
요청했고
여객기
슈퍼마켓
삼성화재
##스테드
후쿠야마
종류도
종료했다
사진으로
유형이
네트워킹
합병증으로
의사결정
블루제
선고받은
건조된
신앙이
프로세스를
boys
##aft
아스투
필수적이다
##보호관찰
손자이며
서명하였다
대서양과
명시하고
레인보우
테오도로
전작과
여동생인
모순이
스틸러스
공무원이
통행할
투옥되었다
우울증
레논의
지평선
베오그라드
클루브
백조자리
후이족
형사소송법
선전포고를
조나단
트랜지스터
리서치
최첨단
네안데르탈
dcc
gall
거치고
걸러
공청
군대로
긴장이
김무
나니와
로슈
막이
말초
말라가
맺으며
명부
명했다
몇달
무고한
문산
문민
바사
배와
범어
범주로
보직
보기에
봄과
불도
빈도
서류를
신수
심볼
아를
아돌
여인의
영정
오송
우레
은사
인도가
인종이
일요일에
장크트
전역과
정면에
조밀
줄로
중위로
증명을
지사를
참으로
척을
총상
카시오
코레일
크랭크
파노
팬이
표적이
풍력
허니
호수는
호시노
화산이
환율
후술
흉노의
흑불계승
##명에게
##부작
##pga
##rt
##사원
##라인을
##커녕
##파워
##산인
##죄가
##쪽에서
##8의
##배추
##온에
##피리
##직업
##억원에
##델은
##렬하게
##에서야
200에서
사용하였으나
##alis
1958
시즌에도
중심부를
문제에서
나타났고
지방행정
발생하면
236
##과의사
고려와
출전하였으며
임명되면서
대전시
군사들이
시작했다고
연방의회
지휘하에
지지율을
증가하게
거주하였다
전기통신
주의가
언급하는
발행하였다
살해하였다
출생했다
보존할
밴드에서
친구들을
위험성이
1984년에는
표기할
건너간
전환된다
예선전
블루투스
카이퍼
기억에
기획한
확실치
부상당했다
동남아
개시한
진압하고
sour
연재가
벡터의
##ika
main
1613년
복무한
수리남
찬성하는
황태자로
서남부
순수하게
창건한
바티스타
동남아시아의
아나운서로
게재된
유격수로
케네디는
magic
본거지를
이빨이
태어났지만
마인츠
상공에서
##군다나
모차르트
여운형
요리토모의
금정구
착안하여
시마네현
profess
쿠알라푸르
2명은
3자
6기
8세가
jer
kin
lake
가택
가사와
간장
감당
골목
공관
공언
공군에
기조
나돌
나탈
낙성
남코
남성을
낮추는
넘기는
단이
더군다나
매출을
목걸
박차를
번번이
별장
병은
보에
빌린
세대가
시니
시추
시야를
신발을
양당
양광
어고
이착륙
인양
조재
주치의
지친
집성
총으로
충고
친목
통치는
트인
패치
필명으로
함포
홍국
화사
##기라고
##결핵
##르베
##벌랜드
##야나
##문왕
##하인
##인성
##치자
##주기를
##공사에
##향은
##곡초등학교
##촌리
##니아를
중심이다
발견하게
250만
구조물을
음반에서
스타스
##하려다가
이미지와
지도부
지도하는
모양에
적용하고
가족에게
##적이기
거주지를
교통국의
통과된
표시하고
재직할
터키어
에이미
붕괴로
채택하여
개정하여
1981년부터
##세이브
집단에서
레코드가
공포는
현실과
취급된다
장식하였다
아파르트헤
php
phot
유나이티드에
진압하는
진입한
예측하는
프로젝트이다
상실했다
멸종위
결의안을
농촌의
보냈지만
칼리닌
2루타
메디컬
clar
포괄적
단단히
축하하는
philip
드리블
카세르타
찬양하는
위촉되었다
토스카나주
보령시
새정치민주연합
구루메
총영사
문하시중
드니프로
사세보
반그림자를
8명이
aj
a로
ace
간언
글에
기호로
꼽을
낳을
내전의
내주었다
단위가
단번에
대왕이
도립
돌기둥
동심
루벤
메드
물에서
벨파
비현실
빠지지
뽑힌
설날
설상가
셀로
슈미트
심복
애벌레
에메랄
역삼
열녀
오천
오위도
왕자와
요사
울리
위드
유모
인턴
잔해
재치
전령
제자들이
좌부
주관으로
짜임
채우는
총합
판도
페드루
표범
하달
##호리
##가도
##uit
##노이드
##han
##근로
##쪽이
##거미
##네로
##즈루
##디엔
##민에
##여단이
##x를
##vision
##페는
##잎식물
##살은
##탑으로
##쇠를
##냈다고
##붉은
사람으로서
조선임
연구팀은
이탈한
생산량의
1902년에
민주당과
수행에
##oper
물리친
육군본부
공연했다
왕국에서
드러낸다
스포츠카
확장되어
만나러
유니터리
가정한다
가정하면
연극영화
배경과
소개한다
떨어져서
확대하고
4개가
카메라의
업무의
1785년
아테나이
녹색의
미니애
소집되었다
상하행
올라가며
초청을
flor
after
바이올린을
어울리지
최후를
농림축산
카스티야의
##글리세르
인격장애
야마가타현
milit
커플링
부분일식이다
도봉구
비석이다
지석묘
대하드라마
레퍼토
happy
세바스토폴
3cm
b2
kat
m4
mf
wave
가방
간담
같지
계책을
공저
기절
기자의
기지의
김자
니컬
대산
도량
뜨는
라코
라카
라비
레게
마재
말라는
면화
무릉
무제의
밀스
밀수
별동
부피가
삼청
상형
손잡이
솔로로
수법을
숙성
쓸모
아동의
악기의
암묵
약하게
어이
어원이
외적
용으로
인두
적부터
존스턴
집산
찍혀
최루
최현
축제는
충의
충혜
층이
코딩
탑으로
항모
현판이
##a1
##iation
##rid
##라카
##적도
##적십자
##버튼
##해달라고
##테오
##물들이
##tus
##본에
##판도
##겨서
##척탄병
##리카와
역사학자들은
참가하기
교육학
등장하기도
형성되고
건축된
보내지
사고와
찾아보기
공연의
아마고
방문했을
개통일인
지하철역이다
번역으로
제5차
38선
시도한다
계열은
##사업은
표기된다
1972년부터
필리핀에
##세포에
추측되고
건국된
1779년
가을에는
합격해
좌우에는
주택을
##조직으로
1619년
1398년
본토와
접속을
대서양을
성벽이
선호한다
라이벌인
아가씨
함유된
slr
진나라가
충격에
앞면에는
object
리메이크한
화강암으로
프레스코
원더러스
크레이그
손잡고
노보시비르
autom
파푸아뉴기
도읍을
미완성
훈민정음
잉글리시
서라벌
l2
mcc
qs
tod
고원의
공증
권위에
긴꼬리
깊숙이
너를
두며
디옥시
뛰지
라플라
로체스터
만민
모라이
바이스
보소
볼링
부차
선서
세밀한
수작
식물로
실행을
싶었다
알사
열에
오퍼
오름
오마르
유압
윤회
이성을
입지가
잘려
저수지
전계
전선은
절강
점에서는
제위
젤라
좌석을
죄의
카렌
컵위너스컵
편이지만
표고
표본이
하라고
학도
해식
향수
##자네
##기름
##ez
##ience
##09
##키리
##아들인
##다우
##카우
##학급
##운과
##칸은
##히로의
##응행
##감도
##좌표
##먹는다
18세의
##나라로
30초
##ited
방송과
발표되어
의미하기도
선거법
다양성
사실적인
고려로
생산하였다
음반과
##osoph
stop
아르바이트
공동각
비슷하여
개인에
가까우며
헌법과
방영되었으며
아마가사키
소재하는
확장하고
당선자
번역되었다
세력들이
사회주의적
인디펜
1980년에는
유형은
마련되었다
홈런으로
받아들인다
구축하는
보급에
가격의
멸망했다
워싱턴의
헤이케
계급에
시티에서
장군에게
진압되었다
인접하는
asp
##바라밀
1980년대부터
인종적
갈색이다
##고등보통학교를
1568년
이혼한
에르빈
마무리했다
토론토에서
부동소수
첫째는
옛날에
페이스리프트
공의회에서
받침돌
1라운드에서
암호화폐
다이어그램
기니비
원활하게
부평구
archit
만났을
고흥군
초회한정
##vention
박격포
도도부현
랑고바르드
노트르담
1종
3당
3단계
8로
tot
간직
갈락
공주와
광선
굴지의
깨진
나콘
남연
노여
높인
두문
랄프
렉싱턴
마우리
분이
상으로는
색상이
선댄스
성무
소식은
속한다고
액체를
앤젤
어나는
연수를
연안을
오현
왕후
이드
인버
잃는다
자모
장준
저고
전열을
정리가
정자이다
조위
주에는
진안군
차종인
칸에
키트
탈주
텔아비
토머
파로
패소
풍기
학장
황위를
##스태
##기구를
##n은
##문집
##가합
##들어와
##dom
[...]
