[PAD]
[UNK]
[CLS]
[SEP]
[MASK]
!
"
#
$
%
'
(
)
*
+
,
-
.
/
0
1
2
3
4
5
6
7
8
9
:
=
?
@
[
\
]
^
_
`
a
b
c
d
e
f
g
h
i
j
k
l
m
n
o
p
q
r
s
t
u
v
w
x
y
z
{
|
}
~
¡
£
§
«
®
°
±
²
³
´
µ
·
¹
º
»
¼
½
×
ß
à
á
â
ã
ä
å
æ
ç
è
é
ê
ë
ì
í
î
ï
ð
ñ
ò
ó
ô
õ
ö
÷
ø
ù
ú
û
ü
ý
þ
ā
ă
ą
ć
č
đ
ē
ė
ę
ě
ğ
ħ
ĩ
ī
ı
ł
ń
ņ
ŋ
ō
ő
œ
ř
ś
ş
š
ţ
ũ
ū
ź
ż
ž
ƒ
ơ
ư
ǎ
ǐ
ș
ɑ
ɔ
ə
ɛ
ɡ
ɨ
ɪ
ʁ
ʃ
ʊ
ʒ
ʔ
ʰ
ʲ
ʻ
ʼ
ʿ
ˈ
ː
˚
́
̃
̇
ά
έ
ή
ί
α
β
γ
δ
ε
ζ
η
θ
ι
κ
λ
μ
ν
ξ
ο
π
ρ
ς
σ
τ
υ
φ
χ
ψ
ω
ό
ύ
ώ
а
б
в
г
д
е
ж
з
и
й
к
л
м
н
о
п
р
с
т
у
ф
х
ц
ч
ш
щ
ъ
ы
ь
э
ю
я
ё
і
ј
ћ
ү
ө
ա
ե
ն
ր
ְ
ִ
ַ
ָ
ּ
א
ב
ג
ד
ה
ו
ח
י
כ
ל
מ
ן
נ
ס
ע
ק
ר
ש
ת
ء
أ
ئ
ا
ب
ة
ت
ج
ح
خ
د
ذ
ر
ز
س
ش
ص
ط
ع
غ
ف
ق
ك
ل
م
ن
ه
و
ى
ي
َ
ُ
ِ
ّ
ْ
پ
ک
گ
ی
क
त
द
न
प
म
य
र
ल
व
स
ा
ि
ी
ु
े
्
ர
ி
்
න
ම
ර
ා
ි
ก
ค
ง
จ
ช
ด
ต
ท
น
บ
พ
ม
ย
ร
ล
ว
ส
ห
อ
ะ
ั
า
ิ
ี
ุ
เ
แ
ไ
่
้
์
ະ
་
ག
ང
ན
བ
ར
ས
ི
ོ
မ
ာ
ိ
ု
ေ
း
်
ြ
ა
ე
ი
ლ
ნ
ო
რ
ს
ᆞ
ᐨ
ḥ
ṃ
ṇ
ṣ
ṭ
ạ
ả
ấ
ầ
ậ
ắ
ế
ề
ể
ễ
ệ
ị
ố
ồ
ộ
ờ
ứ
ự
ἀ
ἄ
ἐ
ἰ
ῖ
ῦ
ῶ
–
—
―
‘
’
‚
“
”
„
†
‡
•
․
…
‧
‰
′
″
‹
›
※
⁄
₂
₃
€
℃
ℓ
™
⅓
⅔
ⅰ
ⅱ
ⅲ
ⅳ
←
↑
→
↓
↔
⇒
∀
∈
−
∙
∞
∩
∼
≈
≠
≤
≥
≪
≫
⋅
①
②
③
④
⑤
⑥
⑦
⑧
⑨
ⓐ
─
━
│
└
├
┬
█
■
□
▲
△
◆
◇
○
●
◦
◯
◾
★
☆
☉
♂
♡
♥
♪
♭
♯
⟨
⟩
⟪
⟫
⦁
ⰰ
、
。
々
〈
〉
《
》
「
」
『
』
【
】
〔
〕
〜
ぁ
あ
い
う
え
お
か
が
き
ぎ
く
ぐ
け
げ
こ
ご
さ
ざ
し
じ
す
ず
せ
ぜ
そ
ぞ
た
だ
ち
っ
つ
づ
て
で
と
ど
な
に
ぬ
ね
の
は
ば
ぱ
ひ
び
ぴ
ふ
ぶ
へ
べ
ほ
ぼ
ま
み
む
め
も
ゃ
や
ゅ
ゆ
ょ
よ
ら
り
る
れ
ろ
わ
を
ん
ァ
ア
ィ
イ
ウ
ェ
エ
ォ
オ
カ
ガ
キ
ギ
ク
グ
ケ
ゲ
コ
ゴ
サ
ザ
シ
ジ
ス
ズ
セ
ゼ
ソ
タ
ダ
チ
ッ
ツ
テ
デ
ト
ド
ナ
ニ
ヌ
ネ
ノ
ハ
バ
パ
ヒ
ビ
ピ
フ
ブ
プ
ヘ
ベ
ペ
ホ
ボ
ポ
マ
ミ
ム
メ
モ
ャ
ヤ
ュ
ユ
ョ
ヨ
ラ
リ
ル
レ
ロ
ワ
ヲ
ン
ヴ
ヶ
・
ー
ㄱ
ㄲ
ㄴ
ㄷ
ㄸ
ㄹ
ㅁ
ㅂ
ㅃ
ㅅ
ㅆ
ㅇ
ㅈ
ㅉ
ㅊ
ㅋ
ㅌ
ㅍ
ㅎ
ㅏ
ㅐ
ㅑ
ㅒ
ㅓ
ㅔ
ㅕ
ㅖ
ㅗ
ㅛ
ㅜ
ㅟ
ㅠ
ㅡ
ㅣ
ㅿ
ㆁ
ㆍ
㈜
㎍
㎎
㎏
㎑
㎒
㎛
㎜
㎝
㎞
㎡
㎢
㎥
㎾
㏊
一
丁
七
万
丈
三
上
下
不
与
丑
专
且
丕
世
丘
丙
业
东
丞
両
並
中
丰
串
丸
丹
主
乂
乃
久
之
乎
乐
乗
乘
乙
九
乞
也
乡
书
乭
乱
乳
乾
亀
亂
了
予
争
事
二
于
云
互
五
井
亘
亜
亞
亡
交
亥
亦
亨
享
京
亭
亮
亶
人
什
仁
仇
今
介
仍
仏
仔
仕
他
仗
付
仙
仝
代
令
以
仮
仰
仲
件
任
份
企
伊
伍
伎
伏
伐
休
会
伝
伯
伴
伸
伺
似
伽
但
位
低
住
佐
佑
体
何
佗
余
佛
作
佟
你
佩
佳
佶
佺
使
侃
來
例
侍
供
依
侮
侯
侵
侶
便
係
促
俊
俔
俗
保
俟
俠
信
修
俱
俳
俸
倂
倉
個
倍
倒
候
倚
借
倡
値
倫
倭
倻
偃
假
偈
偉
偏
停
健
偰
側
偵
偶
傅
傍
傑
傘
備
催
傭
傲
傳
債
傷
傾
僉
像
僑
僕
僖
僚
僞
僧
價
僻
儀
儁
億
儆
儉
儒
償
優
儲
儼
儿
兀
允
元
兄
充
兆
先
光
克
兌
免
兎
児
兒
兗
党
兜
兢
入
內
全
兩
兪
八
公
六
兮
共
兵
其
具
典
兼
冀
内
円
冉
冊
再
冑
冒
冕
军
冠
冥
冬
冰
冲
冶
冷
准
凉
凌
凍
凝
几
凡
凰
凱
凶
凸
凹
出
函
刀
刃
分
切
刊
刑
列
初
判
別
利
到
制
刷
券
刹
刺
刻
則
削
剌
前
剖
剛
剝
剣
剩
副
割
創
劃
劇
劉
劍
劑
劒
力
功
加
劣
动
助
劫
労
勃
勅
勇
勉
勒
動
勘
務
勛
勝
勞
募
勢
勣
勤
勲
勳
勵
勸
勾
勿
包
匈
化
北
匠
匡
匣
匪
匱
匹
区
医
區
十
千
升
午
半
卍
华
卑
卒
卓
協
南
博
卜
卞
占
卦
卨
卫
卯
印
危
即
却
卵
卷
卽
卿
厓
厚
原
厥
厭
厲
厳
去
县
参
參
叅
又
叉
及
友
双
反
叔
取
受
叙
叛
叟
叡
叢
口
古
句
只
召
可
台
叱
史
右
号
司
吃
各
合
吉
同
名
后
吏
吐
向
吒
君
吟
否
含
吳
吴
吸
吹
吾
呂
呈
呉
告
呑
周
呪
味
呼
命
和
咨
咸
哀
品
哈
哉
員
哥
哨
哭
哲
唐
唯
唱
商
問
啓
善
喆
喇
喉
喜
喩
喪
喬
單
営
嗜
嗣
嘉
嘗
器
噴
嚴
囊
囚
四
回
因
团
団
园
困
図
固
国
图
圃
圈
圉
國
圍
園
圓
圖
團
土
在
圭
地
场
址
坂
均
坊
坐
坑
坡
坤
坦
坪
垂
垈
型
垠
垢
垣
埈
埋
城
埔
域
執
培
基
堀
堂
堅
堆
堈
堡
堤
堪
堯
堰
報
場
堵
堺
塊
塑
塔
塗
塘
塚
塞
塡
塩
塵
塼
塾
境
墓
増
增
墟
墨
墩
墳
墻
壁
壇
壓
壕
壘
壞
壤
士
壬
壯
声
壱
売
壹
壺
壻
壽
変
夏
夔
夕
外
多
夜
夢
大
天
太
夫
央
失
夷
夾
奇
奈
奉
奎
奏
奐
契
奔
奕
奘
奚
奠
奢
奥
奧
奪
奬
奭
奮
女
奴
奸
好
如
妃
妄
妓
妖
妙
妥
妹
妻
妾
姉
始
姑
姓
委
姚
姜
姦
姪
姫
姬
姻
威
娑
娘
娜
娥
婁
婆
婚
婢
婦
媒
媛
嫁
嫉
嫡
嬪
嬰
嬴
子
孔
字
存
孚
孝
孟
季
孤
学
孫
學
孺
孼
宁
宅
宇
守
安
宋
完
宏
宕
宗
官
宙
定
宛
宜
宝
実
客
宣
室
宥
宦
宮
宰
害
宴
家
宸
容
宿
寂
寃
寄
寅
密
寇
富
寒
寓
寔
寛
察
寡
寢
實
寧
寨
審
寫
寬
寮
寵
寶
寸
寺
対
寿
封
専
射
将
將
專
尉
尊
尋
對
導
小
少
尔
尖
尙
尚
尤
就
尸
尹
尺
尼
尾
尿
局
居
屈
屋
屍
屏
展
屛
属
屠
層
履
屬
屯
山
屹
岐
岑
岛
岡
岩
岬
岭
岱
岳
岸
峙
峠
峡
峨
峯
峰
峴
島
峻
峽
崇
崎
崑
崔
崖
崗
崙
崩
嵌
嵩
嵯
嶋
嶠
嶺
嶼
嶽
巖
川
州
巡
巢
工
左
巧
巨
巫
差
己
已
巳
巴
巷
巻
巽
巾
市
布
希
帖
帛
帝
帥
師
席
帯
帰
帳
帶
常
帽
幀
幅
幕
幡
幢
幣
干
平
年
幷
幸
幹
幻
幼
幽
幾
广
庁
広
庄
庇
床
序
底
店
庚
府
度
座
庫
庭
庵
庶
康
庸
庾
廂
廈
廉
廊
廓
廖
廚
廛
廟
廠
廡
廢
廣
廬
廳
延
廷
建
廻
开
弁
弄
弊
式
弐
弓
弔
引
弗
弘
弟
张
弥
弦
弧
弩
弱
張
強
强
弼
彈
彊
彌
当
彙
彛
形
彦
彧
彩
彪
彫
彬
彭
彰
影
役
彼
往
征
待
律
後
徐
徑
徒
従
得
從
御
復
循
微
徳
徵
德
徹
徽
心
必
忌
忍
志
忘
応
忠
快
忱
念
忽
忿
怒
怖
思
怠
怡
急
性
怨
怪
恂
恆
恋
恐
恒
恕
恚
恢
恤
恥
恨
恩
恪
恬
恭
息
恵
悅
悉
悌
悍
悔
悟
患
悪
悲
悳
悼
情
惇
惑
惛
惜
惟
惠
惡
惣
惱
想
惺
愁
愈
愍
意
愚
愛
感
愧
愷
愼
愾
慄
慈
態
慎
慕
慚
慢
慣
慧
慮
慰
慳
慶
慾
憂
憍
憎
憐
憑
憙
憤
憩
憲
憶
懈
應
懋
懐
懶
懷
懸
懺
懿
戀
戈
戊
戌
戍
戎
成
我
戒
或
戚
戟
戡
戦
戰
戱
戲
戴
戶
戸
房
所
扁
扇
扈
手
才
打
托
扶
批
承
技
抄
把
抑
投
抗
折
抱
抵
抹
押
抽
拂
拉
拍
拒
拓
拔
拘
拙
招
拜
括
拯
拱
拳
拼
拾
持
指
按
挙
振
挺
挾
捕
捧
捨
捷
掃
授
掉
掌
排
掖
掘
掛
採
探
接
控
推
掾
揆
描
提
揚
換
揮
援
揷
損
搖
搜
摂
摠
摩
摯
撃
撒
撤
撥
撫
播
撮
撰
擇
擊
操
擎
擔
據
擦
擧
擬
擴
擾
攀
攘
攝
攣
支
收
攷
攸
改
攻
放
政
故
效
敍
敎
敏
救
敖
敗
教
敞
敢
散
敦
敬
数
整
敵
敷
數
斂
文
斉
斌
斎
斐
斑
斗
料
斛
斜
斡
斤
斥
斧
斬
断
斯
新
斷
方
於
施
旅
旋
旌
族
旗
无
旣
日
旦
旧
旨
早
旬
旭
旱
旺
旻
旼
旽
昆
昇
昉
昊
昌
明
昏
易
昔
昕
星
映
春
昧
昭
是
昱
昶
昻
晁
時
晃
晉
晋
晏
晝
晟
晦
晨
晩
普
景
晳
晴
晶
晷
智
暄
暇
暉
暎
暐
暑
暖
暗
暢
暦
暮
暴
暹
曄
曆
曇
曉
曙
曜
曦
曰
曲
曳
更
書
曹
曺
曼
曽
曾
替
最
會
月
有
朋
服
朔
朕
朗
望
朝
期
木
未
末
本
札
朱
朴
机
杉
杌
李
杏
材
村
杓
杖
杜
杞
束
条
来
杨
杭
杯
杰
東
杵
松
板
枋
析
枕
林
枚
果
枝
枯
架
柄
柏
某
柑
柒
染
柔
柯
柱
柳
柴
柵
査
栄
栖
栗
校
栢
株
核
根
格
栽
桂
桃
案
桐
桑
桓
桜
桥
桶
梁
梅
梓
條
梟
梧
梨
梯
械
梵
棄
棋
棒
棗
棘
棟
棠
棣
森
棲
棺
椅
植
椎
椒
検
椽
椿
楊
楓
楚
楞
楠
楡
楨
楫
業
楮
楯
極
楷
楸
楼
楽
榜
榮
榴
槃
構
槍
槐
様
槨
槪
槽
槿
樂
樊
樑
樓
標
樞
模
樣
権
横
樵
樸
樹
樺
樽
橋
橘
機
橫
檀
檄
檜
檢
櫃
櫓
櫛
欄
權
欒
次
欣
欲
欺
欽
款
歆
歌
歎
歐
歡
止
正
此
步
武
歩
歲
歳
歴
歷
歸
死
殉
殊
殖
殘
殤
殯
段
殷
殺
殼
殿
毁
毅
毋
毌
母
每
毒
毓
比
毗
毘
毛
毫
毬
氏
氐
民
気
氣
水
氷
永
汀
汁
求
汎
汗
汚
汝
江
池
污
汪
汲
汴
汶
決
汽
汾
沂
沃
沅
沆
沈
沒
沔
沖
沙
沛
沢
沫
沮
河
沸
油
治
沼
沿
況
泉
泊
泌
泓
法
泗
泡
波
泣
泥
注
泮
泰
泳
洋
洗
洙
洛
洞
津
洪
洮
洲
洵
活
洽
派
流
浄
浅
济
浙
浚
浜
浣
浦
浩
浪
浮
浴
海
浸
浿
涅
涇
消
涉
涓
涪
涯
液
涵
涼
涿
淀
淄
淇
淑
淚
淡
淨
淫
淮
深
淳
淵
混
淸
淺
添
清
済
渋
渓
渚
減
渠
渡
渤
渦
温
測
渭
港
渴
游
渾
湊
湌
湍
湖
湘
湛
湜
湧
湯
湾
満
源
準
溝
溟
溥
溪
溫
溶
滄
滅
滉
滋
滎
滑
滝
滯
滴
滸
滿
漁
漂
漆
漏
漑
演
漕
漠
漢
漣
漫
漬
漱
漳
漸
潁
潑
潔
潘
潛
潞
潟
潢
潤
潭
潮
潼
澄
澈
澍
澗
澤
澮
澳
澹
激
濁
濂
濃
濊
濕
濟
濠
濡
濤
濩
濬
濮
濯
濱
瀅
瀋
瀑
瀛
瀨
瀬
瀷
灌
灘
灝
灣
火
灰
灼
災
炅
炊
炎
炫
炭
炯
炳
点
為
烈
烏
烟
烽
焉
焚
無
焦
焰
然
焼
煌
煎
煕
煖
煙
煜
煥
照
煩
煬
熊
熏
熙
熟
熱
熹
熾
燁
燃
燈
燐
燒
燕
營
燦
燧
燭
燮
燾
爀
爆
爐
爪
爭
爲
爵
父
爻
爽
爾
片
版
牌
牒
牙
牛
牟
牡
牢
牧
物
牲
特
牽
犀
犁
犢
犬
犯
状
狀
狂
狄
狐
狗
狩
独
狭
狹
狼
猛
猪
猫
猶
猷
猿
獄
獅
獐
獨
獲
獵
獸
獻
玄
玆
率
玉
王
玖
玟
玩
玲
玹
珉
珍
珏
珞
珠
珣
珥
珦
珩
珪
班
現
球
琅
理
琉
琛
琢
琦
琪
琬
琮
琯
琰
琳
琴
琵
琶
瑀
瑁
瑄
瑕
瑗
瑚
瑛
瑜
瑞
瑟
瑠
瑢
瑤
瑩
瑪
瑾
璃
璇
璉
璋
璘
璜
璟
璣
璧
璨
環
璽
璿
瓊
瓔
瓘
瓚
瓜
瓢
瓣
瓦
瓷
甁
甄
甑
甕
甘
甚
生
產
産
用
甫
田
由
甲
申
电
男
甸
町
画
界
畏
畑
畓
留
畜
畝
畠
畢
略
番
畫
異
畵
當
畿
疆
疇
疎
疏
疑
疫
疾
病
症
痘
痛
瘡
療
癌
癡
癸
発
登
發
白
百
的
皆
皇
皐
皓
皮
盂
盃
盆
盈
益
盒
盗
盛
盜
盞
盟
盡
監
盤
盧
目
盲
直
相
盾
省
眉
看
県
眞
真
眠
眷
眼
眾
着
睡
督
睦
睿
瞋
瞻
矛
矢
矣
知
矩
短
矯
石
砂
研
砥
砦
砲
破
硅
硏
硫
硬
硯
碁
碍
碎
碑
碣
碧
碩
確
磁
磎
磐
磨
磯
磻
礎
礙
礪
示
礼
社
祀
祁
祇
祈
祉
祐
祕
祖
祗
祚
祜
祝
神
祠
祥
票
祭
祺
祿
禁
禄
禅
禍
禎
福
禑
禕
禦
禧
禪
禮
禰
禱
禹
禽
禾
禿
秀
私
秉
秋
科
秘
租
秤
秦
秩
移
稀
稅
程
税
稗
稙
稚
稜
稟
稠
種
稱
稲
稷
稻
稼
稽
稿
穀
穂
穆
積
穎
穗
穡
穢
穩
穰
穴
究
空
穿
突
窒
窓
窟
窩
窮
窯
窺
竇
立
站
竜
竝
竟
章
童
竪
端
競
竹
竺
竿
笏
笑
笛
笠
符
第
筆
等
筋
筍
筑
筒
答
策
筠
筵
箋
箕
算
箚
管
箭
箱
箴
節
範
篆
篇
築
篠
篤
簡
簽
簿
籌
籍
籠
籬
米
粉
粒
粗
粘
粟
粥
粧
粲
粹
精
糖
糞
糧
糸
系
糾
紀
紂
約
紅
紋
納
純
紗
紙
級
紛
素
紡
索
紫
累
細
紳
紹
紺
終
絃
組
経
結
絞
絡
給
統
絲
絵
絶
絹
綏
經
継
続
綜
綠
綬
維
綱
網
綴
綸
綺
綽
綾
綿
緊
緋
総
緒
緖
線
緝
緣
編
緩
緯
練
縁
縄
縉
縛
縣
縮
縱
總
績
繁
繆
繇
織
繕
繡
繩
繪
繫
繼
纂
續
纏
纖
纘
红
级
线
经
缺
罕
罗
罪
置
罰
署
罷
羅
羊
羌
美
群
羨
義
羲
羹
羽
翁
翅
翊
翎
習
翔
翕
翟
翠
翰
翼
耀
老
考
者
耆
耉
而
耐
耕
耘
耳
耶
耽
耿
聃
聖
聘
聚
聞
聯
聰
聲
聶
職
聽
肅
肆
肇
肉
肖
肝
股
肢
肥
肩
肪
肯
育
肺
胃
胄
背
胎
胚
胞
胡
胤
胥
胴
胸
能
脂
脇
脈
脊
脚
脣
脩
脫
腎
腐
腔
腕
腦
腫
腰
腸
腹
腺
膜
膝
膠
膳
膺
膽
臂
臘
臟
臣
臥
臧
臨
自
至
致
臺
臼
舅
與
興
舉
舊
舌
舍
舎
舒
舜
舞
舟
航
般
舶
船
艇
艦
艮
良
色
艾
芒
芙
芝
芬
芮
花
芳
芸
芽
苏
苑
苔
苗
苞
苟
若
苦
苧
苩
英
苻
苾
茂
范
茅
茨
茶
荀
草
荊
荒
荘
荷
莊
莎
莒
莖
莘
莞
莫
莽
菁
菅
菊
菌
菓
菜
菟
菩
華
菱
菴
萄
萊
萌
营
萩
萬
萱
落
葉
著
葛
葡
董
葦
葬
葵
蒙
蒲
蒸
蒼
蓄
蓉
蓋
蓍
蓬
蓮
蔓
蔘
蔚
蔡
蔣
蔭
蔵
蕃
蕙
蕩
蕭
薄
薇
薊
薛
薦
薨
薩
薪
薬
薰
藁
藍
藏
藜
藝
藤
藥
藩
藻
蘆
蘇
蘊
蘭
蘿
虎
虐
虔
處
虛
虜
虞
號
虢
虹
蛇
蛋
蛙
蜀
蜂
蜜
蝕
蝦
蝶
融
螭
螺
蟲
蟹
蟾
蠟
蠶
蠻
血
衆
行
衍
術
街
衙
衛
衝
衞
衡
衢
衣
表
衫
衰
衷
衿
袁
袈
袋
袍
袒
袖
袞
被
裁
裂
裏
裔
裕
裙
補
裝
裟
裡
裨
裳
裴
裵
裸
製
複
褒
襄
襲
西
要
覆
覇
見
規
覓
視
覚
覧
親
観
覺
覽
觀
视
角
解
觸
言
訂
計
訊
討
訓
託
記
訟
訢
訣
訥
訪
設
許
訴
訶
註
詐
詔
評
詞
詠
詡
詢
試
詩
詮
話
該
詳
詵
詹
誅
誉
誌
認
誑
誓
誕
誘
語
誠
誡
誣
誤
誥
誦
誨
說
説
読
課
誼
調
諂
談
請
諍
諏
諒
論
諡
諦
諧
諫
諭
諮
諱
諴
諶
諸
諺
諾
謀
謁
謂
謙
講
謝
謠
謨
謬
謹
證
識
譙
譚
譜
警
譯
議
護
譽
讀
讃
變
讓
讖
讚
语
谷
谿
豆
豈
豊
豐
象
豪
豫
豹
貊
貌
貝
貞
負
財
貢
貧
貨
販
貪
貫
責
貯
貳
貴
買
貸
費
貿
賀
賁
賃
資
賈
賊
賑
賓
賛
賜
賞
賢
賣
賤
賦
質
賭
賴
賻
贈
贊
贍
贖
赤
赦
赫
走
赴
起
超
越
趙
趣
足
趺
趾
跋
跏
距
跡
路
踊
踏
踐
踰
蹄
蹟
蹴
躍
身
躬
軀
車
軌
軍
軒
軛
軟
転
軫
軸
軽
軾
輅
載
輔
輕
輛
輝
輦
輩
輪
輯
輸
輿
轄
轅
轉
轍
车
辛
辞
辟
辣
辦
辨
辭
辯
辰
辱
農
辺
辻
迅
迎
运
近
返
迦
迪
迫
述
迷
迹
追
退
送
适
逃
逆
逍
透
逐
逑
途
通
逝
速
造
逢
連
週
進
逵
逸
遁
遂
遇
遊
運
遍
過
道
達
違
遙
遜
遞
遠
遣
適
遮
遯
遲
遵
遷
選
遺
遼
避
邁
還
邇
邈
邉
邊
邑
邕
邢
那
邦
邪
邯
邱
邳
邵
邸
邾
郁
郊
郎
郝
郞
郡
郢
郤
部
郭
郵
郷
都
鄂
鄉
鄒
鄕
鄙
鄧
鄭
鄰
鄴
酉
酋
酌
配
酒
酵
酸
醇
醉
醍
醐
醒
醜
醫
醬
醮
醴
采
釉
釋
里
重
野
量
釐
金
釜
針
釣
鈔
鈕
鈞
鈴
鈺
鉄
鉅
鉉
鉛
鉢
鉤
銀
銃
銅
銑
銓
銖
銘
銭
銳
鋒
鋪
鋼
錄
錐
錘
錢
錦
錫
錯
録
鍊
鍋
鍛
鍵
鍼
鍾
鎌
鎔
鎖
鎬
鎭
鎮
鎰
鏞
鏡
鐘
鐵
鐸
鑄
鑑
鑒
鑛
鑲
铁
镇
長
长
門
閉
開
閏
閑
閒
間
閔
関
閣
閤
閥
閩
閭
閱
閻
閼
闇
闊
闍
闕
闘
關
闡
闢
门
阜
阪
阮
防
阳
阿
陀
陂
附
际
陈
降
限
陛
陜
陝
陞
陟
院
陣
除
陪
陰
陳
陵
陶
陷
陸
陽
隅
隆
隈
隊
隋
隍
階
隔
際
障
隠
隣
隨
險
隱
隴
隷
隸
雀
雁
雄
雅
集
雇
雉
雌
雍
雑
雒
雕
雖
雙
雜
雞
離
難
雨
雪
雲
零
雷
電
需
震
霊
霍
霖
霜
霞
霧
露
霸
霽
靈
靑
青
靖
静
靜
非
靡
面
革
鞍
鞏
鞠
鞭
鞮
韋
韓
韜
音
韶
韻
響
頂
頃
項
順
須
頊
頌
預
頓
領
頤
頭
頸
頼
題
額
顎
顏
顒
顔
顕
顗
願
顚
顛
類
顥
顧
顯
風
飛
飜
食
飡
飢
飮
飯
飽
飾
養
餐
餓
餘
餠
館
饒
饔
首
香
馥
馨
馬
馮
馹
駄
駅
駐
駒
駕
駙
駝
駱
駿
騎
騒
験
騰
驃
驅
驍
驕
驗
驚
驛
驤
驥
驪
马
骨
髓
體
高
髙
髪
髮
髻
鬪
鬱
鬼
魁
魂
魏
魔
魚
魯
鮑
鮮
鯉
鯨
鰲
鱗
鲁
鳥
鳩
鳳
鳴
鴨
鴻
鵝
鵠
鵬
鵲
鶴
鷄
鷗
鷲
鷹
鷺
鸞
鹽
鹿
麒
麓
麗
麟
麤
麥
麴
麵
麻
麿
黃
黄
黎
黑
黒
黔
默
黙
黜
點
黨
黯
鼎
鼓
鼠
鼻
齊
齋
齒
齡
龍
龐
龔
龕
龙
龜
가
각
간
갇
갈
갉
감
갑
값
갓
갔
강
갖
갗
같
갚
갛
개
객
갠
갤
갬
갭
갯
갰
갱
갸
갹
걀
거
걱
건
걷
걸
검
겁
것
겅
겉
겊
게
겐
겔
겜
겟
겠
겡
겨
격
겪
견
결
겸
겹
겼
경
곁
계
고
곡
곤
곧
골
곰
곱
곳
공
곶
과
곽
관
괄
괌
광
괘
괜
괭
괴
괵
괸
괼
굄
굉
교
구
국
군
굳
굴
굵
굶
굼
굽
굿
궁
궂
궈
궉
권
궐
궜
궤
궬
귀
귄
귈
귐
귓
규
균
귤
귬
그
극
근
글
긁
금
급
긋
긍
긔
기
긱
긴
길
김
깁
깃
깅
깊
까
깍
깎
깐
깔
깜
깝
깟
깡
깥
깨
깬
깰
깻
깼
깽
꺼
꺽
꺾
껀
껄
껌
껍
껏
껐
껑
께
껩
껫
껴
꼈
꼬
꼭
꼰
꼴
꼼
꼽
꼿
꽁
꽂
꽃
꽈
꽉
꽌
꽝
꽤
꽹
꾀
꾐
꾸
꾹
꾼
꿀
꿇
꿈
꿉
꿋
꿍
꿔
꿨
꿩
꿰
뀌
뀐
뀔
뀜
끄
끈
끊
끌
끓
끔
끗
끝
끼
끽
낀
낄
낌
낏
낑
나
낙
낚
난
낟
날
낡
남
납
낫
났
낭
낮
낯
낱
낳
내
낵
낸
낼
냄
냅
냇
냈
냉
냐
냑
냔
냘
냠
냥
너
넉
넋
넌
널
넒
넓
넘
넙
넛
넜
넝
넣
네
넥
넨
넬
넴
넵
넷
넸
넹
녀
녁
년
념
녓
녔
녕
녘
녜
녠
녤
녯
노
녹
논
놀
놈
놉
놋
농
높
놓
놔
놨
뇌
뇨
뇬
뇰
뇽
누
눅
눈
눌
눔
눕
눗
눙
눠
눴
뉘
뉜
뉠
뉴
뉼
늄
늉
느
늑
는
늘
늙
늠
능
늦
늪
늬
니
닉
닌
닐
님
닙
닛
닝
닢
다
닥
닦
단
닫
달
닭
닮
닳
담
답
닷
당
닻
닿
대
댁
댄
댈
댐
댑
댓
댔
댕
댜
더
덕
던
덛
덜
덟
덤
덥
덧
덩
덫
덮
데
덱
덴
델
뎀
뎁
뎃
뎅
뎌
뎐
뎠
뎨
뎬
도
독
돈
돋
돌
돔
돕
돗
동
돛
돠
돤
돼
됐
되
된
될
됨
됩
됭
됴
두
둑
둔
둘
둠
둡
둣
둥
둬
뒀
뒤
뒨
뒬
뒴
뒷
뒹
듀
듄
듈
듐
드
득
든
듣
들
듦
듬
듭
듯
등
듸
디
딕
딘
딛
딜
딤
딥
딧
딩
딪
따
딱
딴
딸
땀
땃
땄
땅
땋
때
땐
땔
땜
땠
땡
떠
떡
떤
떨
떫
떳
떴
떵
떻
떼
뗀
뗄
뗏
뗐
또
똑
똔
똘
똠
똥
뚜
뚝
뚤
뚫
뚬
뚱
뛰
뛴
뛸
뜀
뜨
뜩
뜬
뜯
뜰
뜸
뜻
띄
띈
띌
띔
띠
띤
띨
띵
라
락
란
랄
람
랍
랏
랐
랑
랗
래
랙
랜
랠
램
랩
랫
랬
랭
랴
략
랸
량
러
럭
런
럴
럼
럽
럿
렀
렁
렇
레
렉
렌
렐
렘
렙
렛
렝
려
력
련
렬
렴
렵
렷
렸
령
례
롄
로
록
론
롤
롬
롭
롯
롱
롼
뢰
뢴
뢸
룀
룅
료
룔
룝
룡
루
룩
룬
룰
룸
룹
룻
룽
뤄
뤘
뤼
뤽
륀
륄
륌
류
륙
륜
률
륨
륭
르
륵
른
를
름
릅
릇
릉
릎
리
릭
린
릴
림
립
릿
링
마
막
만
많
맏
말
맑
맘
맙
맛
망
맞
맡
맣
매
맥
맨
맬
맴
맵
맷
맸
맹
맺
먀
먄
머
먹
먼
멀
멈
멋
멍
멎
메
멕
멘
멜
멤
멥
멧
멩
며
멱
면
멸
몄
명
몇
몐
모
목
몫
몬
몯
몰
몸
몹
못
몽
뫼
묀
묄
묘
묜
묠
무
묵
묶
문
묻
물
묽
뭄
뭇
뭉
뭍
뭐
뭔
뭘
뮈
뮌
뮐
뮤
뮨
뮬
뮴
므
믄
믈
믐
믜
미
믹
민
믿
밀
밂
밈
밉
밋
밌
밍
및
밑
바
박
밖
반
받
발
밝
밟
밤
밥
밧
방
밭
배
백
밴
밸
뱀
뱁
뱃
뱅
뱉
뱌
뱐
뱡
버
벅
번
벋
벌
범
법
벗
벙
벚
베
벡
벤
벨
벰
벱
벳
벵
벼
벽
변
별
볍
볏
볐
병
볕
볜
보
복
볶
본
볼
봄
봅
봇
봉
봐
봤
뵈
뵐
뵘
뵙
뵤
부
북
분
불
붉
붐
붑
붓
붕
붙
뷔
뷘
뷜
뷰
뷴
뷸
븀
브
븐
븓
블
비
빅
빈
빌
빔
빕
빗
빙
빚
빛
빠
빡
빤
빨
빰
빳
빴
빵
빻
빼
빽
뺀
뺄
뺏
뺐
뺑
뺨
뻐
뻑
뻔
뻗
뻘
뻣
뻤
뻥
뻬
뼈
뼉
뼛
뽀
뽁
뽐
뽑
뽕
뾰
뿌
뿍
뿐
뿔
뿜
쁘
쁜
쁠
쁨
삐
삔
사
삭
삯
산
살
삵
삶
삼
삽
삿
샀
상
샅
새
색
샌
샐
샘
샛
생
샤
샥
샨
샬
샴
샵
샷
샹
섀
섄
섐
섕
서
석
섞
선
섣
설
섬
섭
섯
섰
성
섶
세
섹
센
셀
셈
셉
셋
셌
셍
셔
션
셜
셤
셧
셨
셩
셰
셱
셴
셸
솀
솁
솅
소
속
솎
손
솔
솜
솝
솟
송
솥
솽
쇄
쇠
쇤
쇨
쇳
쇼
쇽
숀
숄
숌
숍
숏
숑
수
숙
순
숟
술
숨
숩
숫
숭
숯
숱
숲
숴
쉐
쉔
쉘
쉥
쉬
쉰
쉴
쉼
쉽
쉿
슈
슌
슐
슘
슛
슝
스
슥
슨
슬
슭
슴
습
슷
승
싀
시
식
신
싣
실
싫
심
십
싯
싱
싶
싸
싹
싼
쌀
쌈
쌌
쌍
쌓
쌔
쌕
쌘
쌤
쌩
써
썩
썬
썰
썸
썹
썻
썼
썽
쎄
쎈
쏘
쏙
쏜
쏟
쏠
쏨
쏭
쏴
쐈
쐐
쐬
쑈
쑤
쑥
쑨
쑹
쓰
쓴
쓸
씀
씁
씌
씨
씩
씬
씰
씸
씹
씻
씽
아
악
안
앉
않
알
앎
앓
암
압
앗
았
앙
앞
애
액
앤
앨
앰
앱
앳
앴
앵
야
약
얀
얄
얇
얉
얌
얍
얏
양
얕
얗
얘
어
억
언
얹
얻
얼
얽
엄
업
없
엇
었
엉
엌
엎
에
엑
엔
엘
엠
엡
엣
엥
여
역
엮
연
열
엷
염
엽
엾
엿
였
영
옅
옆
옇
예
옌
옐
옘
옙
옛
오
옥
온
올
옮
옳
옴
옵
옷
옹
옻
와
왁
완
왈
왐
왑
왓
왔
왕
왜
왠
외
왼
욀
요
욕
욘
욜
욤
욥
욧
용
우
욱
운
울
움
웁
웃
웅
워
웍
원
월
웜
웠
웡
웨
웩
웬
웰
웸
웹
웻
웽
위
윅
윈
윌
윔
윕
윗
윙
유
육
윤
율
윰
윳
융
윷
으
윽
은
을
읊
음
읍
읏
응
의
읜
읫
이
익
인
일
읽
잃
임
입
잇
있
잉
잊
잎
자
작
잔
잖
잘
잠
잡
잣
잤
장
잦
재
잭
잰
잴
잼
잽
잿
쟁
쟈
쟌
쟝
저
적
전
절
젊
젋
점
접
젓
정
젖
제
젝
젠
젤
젬
젭
젯
젱
져
젹
젼
졀
졈
졌
졍
졔
조
족
존
졸
좀
좁
종
좆
좇
좋
좌
좡
좨
죄
죈
죌
죠
죤
죵
주
죽
준
줄
줌
줍
줏
중
줘
줬
줴
쥐
쥔
쥘
쥬
쥰
쥴
즈
즉
즌
즐
즘
즙
증
지
직
진
짇
질
짊
짐
집
짓
징
짖
짙
짚
짜
짝
짠
짢
짤
짦
짧
짬
짭
짰
짱
째
짼
쨌
쨩
쩌
쩍
쩐
쩔
쩡
쩨
쪄
쪼
쪽
쫄
쫑
쫒
쫓
쬐
쭈
쭉
쭌
쭐
쭝
쭤
쮸
쯔
쯕
쯤
쯩
찌
찍
찐
찔
찜
찟
찡
찢
찧
차
착
찬
찮
찰
참
찹
찻
찼
창
찾
채
책
챈
챌
챔
챕
챗
챘
챙
챠
챤
처
척
천
철
첨
첩
첫
청
체
첵
첸
첼
쳄
쳅
쳇
쳉
쳐
쳔
쳤
초
촉
촌
촐
촘
촙
촛
총
촨
촬
최
쵸
추
축
춘
출
춤
춥
춧
충
춰
췄
췌
취
췬
츄
츠
측
츤
츨
츰
츳
층
치
칙
친
칠
칡
침
칩
칫
칭
카
칵
칸
칼
캄
캅
캇
캉
캐
캔
캘
캠
캡
캣
캥
캬
캴
커
컥
컨
컫
컬
컴
컵
컷
컸
컹
케
켁
켄
켈
켐
켑
켓
켕
켜
켠
켤
켰
코
콕
콘
콜
콤
콥
콧
콩
콰
콴
콸
쾃
쾅
쾌
쾡
쾨
쾰
쿄
쿈
쿠
쿡
쿤
쿨
쿰
쿱
쿳
쿵
쿼
퀀
퀄
퀘
퀜
퀴
퀵
퀸
퀼
큄
큅
큇
큐
큔
큘
크
큰
클
큼
키
킥
킨
킬
킴
킵
킷
킹
타
탁
탄
탈
탉
탐
탑
탓
탔
탕
태
택
탠
탤
탬
탭
탯
탰
탱
탸
터
턱
턴
털
텀
텁
텃
텄
텅
테
텍
텐
텔
템
텝
텟
텡
텨
텼
톄
톈
토
톡
톤
톨
톰
톱
톳
통
퇘
퇴
퇼
툇
툉
툐
툠
투
툭
툰
툴
툼
툽
퉁
퉈
퉜
튀
튄
튈
튕
튜
튠
튤
튬
트
특
튼
튿
틀
틂
틈
틋
틍
틔
티
틱
틴
틸
팀
팁
팃
팅
파
팍
팎
판
팔
팜
팝
팟
팠
팡
팥
패
팩
팬
팰
팸
팹
팻
팽
퍄
퍼
퍽
펀
펄
펌
펍
펑
페
펙
펜
펠
펨
펩
펫
펭
펴
편
펼
폄
폈
평
폐
포
폭
폰
폴
폼
폽
폿
퐁
푀
푁
푄
푈
표
푯
푸
푹
푼
풀
품
풋
풍
퓌
퓐
퓔
퓨
퓰
퓸
프
픈
플
픔
피
픽
핀
필
핌
핍
핏
핑
하
학
한
할
핥
함
합
핫
항
해
핵
핸
핼
햄
햅
햇
했
행
햐
햘
향
헀
허
헉
헌
헐
험
헙
헛
헝
헤
헥
헨
헬
헴
헵
헷
헹
혀
혁
현
혈
혐
협
혓
혔
형
혜
호
혹
혼
홀
홈
홉
홋
홍
홑
화
확
환
활
홧
황
홰
횃
회
획
횔
횟
횡
효
후
훅
훈
훌
훑
훔
훗
훙
훠
훤
훨
훼
휘
휜
휠
휨
휩
휫
휴
휼
흄
흉
흐
흑
흔
흘
흙
흠
흡
흥
흩
희
흭
흰
히
힉
힌
힐
힘
힙
힛
힝
！
＂
％
＆
＇
（
）
＊
＋
，
－
．
／
１
２
３
４
：
；
＜
＝
＞
？
［
＼
］
ａ
ｅ
ｍ
ｓ
～
｢
｣
･
￼
##동
##맥
##궁
##에
##서
##아
##줄
##리
##키
##라
##포
##되
##는
##이
##앤
##제
##미
##디
##어
##타
##스
##착
##었
##다
##마
##을
##의
##창
##용
##은
##티
##쇄
##명
##령
##성
##대
##표
##회
##쿠
##시
##를
##수
##인
##금
##징
##백
##원
##치
##장
##여
##우
##와
##록
##물
##도
##친
##니
##코
##바
##말
##벤
##칸
##픽
##셀
##나
##현
##허
##커
##흔
##들
##데
##0
##엔
##비
##하
##사
##c
##d
##쓰
##천
##3
##1
##2
##호
##공
##생
##활
##m
##로
##립
##암
##상
##프
##방
##h
##투
##객
##르
##테
##네
##체
##9
##음
##으
##소
##퍼
##영
##학
##부
##가
##파
##실
##할
##임
##r
##u
##b
##조
##정
##8
##더
##족
##과
##팅
##작
##보
##i
##g
##ü
##e
##y
##발
##지
##역
##교
##육
##철
##판
##적
##면
##홋
##카
##브
##플
##트
##남
##메
##p
##f
##a
##t
##o
##n
##난
##념
##화
##봇
##계
##만
##날
##통
##거
##묘
##게
##양
##받
##냐
##산
##전
##자
##업
##고
##등
##번
##갈
##며
##빌
##력
##휴
##선
##터
##린
##기
##움
##연
##혈
##개
##식
##길
##드
##레
##석
##토
##모
##였
##약
##내
##법
##흐
##세
##탈
##4
##k
##온
##단
##십
##합
##퀘
##즈
##악
##신
##무
##풍
##구
##일
##촉
##진
##평
##군
##품
##애
##왕
##릉
##첩
##루
##케
##질
##야
##s
##려
##항
##워
##크
##륜
##복
##재
##괘
##7
##결
##운
##행
##랐
##느
##v
##6
##쟁
##l
##켜
##주
##5
##ㅡ
##그
##래
##술
##촌
##오
##취
##총
##중
##설
##관
##센
##링
##능
##있
##격
##류
##근
##갑
##환
##범
##년
##문
##북
##경
##곡
##해
##했
##광
##줏
##점
##유
##론
##랑
##청
##찰
##처
##분
##버
##름
##웬
##덜
##á
##꼬
##국
##종
##형
##듯
##러
##렌
##긴
##탄
##초
##엘
##편
##ό
##γ
##ο
##ς
##차
##렸
##련
##노
##반
##란
##당
##준
##델
##퀴
##씨
##롬
##x
##ح
##م
##د
##딩
##랄
##손
##축
##될
##숭
##팔
##택
##턴
##같
##절
##멜
##뷰
##태
##완
##까
##후
##딘
##베
##침
##따
##열
##별
##블
##낙
##룹
##덤
##훈
##략
##골
##급
##던
##j
##츠
##울
##찍
##맹
##협
##셈
##각
##감
##앙
##막
##웡
##삼
##봉
##두
##킨
##둘
##냔
##윗
##²
##톱
##률
##담
##권
##릴
##입
##접
##템
##직
##폭
##배
##예
##룡
##멘
##숙
##획
##냈
##잘
##듬
##볼
##헌
##션
##ê
##w
##욱
##추
##ི
##슈
##충
##z
##았
##견
##건
##향
##불
##글
##답
##존
##휘
##칭
##켰
##황
##심
##ビ
##シ
##バ
##송
##누
##또
##한
##민
##매
##농
##놀
##폴
##락
##둥
##끼
##본
##냥
##좌
##때
##월
##뿐
##엄
##틱
##필
##안
##옷
##함
##윤
##슐
##된
##극
##요
##승
##피
##욕
##독
##새
##위
##츄
##돌
##웨
##흥
##님
##규
##언
##웰
##벼
##랏
##쌍
##박
##힌
##걸
##혼
##례
##액
##율
##량
##릭
##머
##쥐
##삿
##럽
##망
##집
##병
##켈
##é
##꽃
##속
##섬
##겠
##멸
##랭
##팍
##쇼
##채
##간
##먼
##°
##ル
##ー
##ズ
##올
##눔
##저
##써
##척
##＞
##익
##혜
##료
##넬
##핏
##끔
##륙
##측
##알
##∼
##옹
##살
##돈
##녁
##찬
##옌
##윕
##변
##특
##빅
##슨
##밀
##든
##돋
##ㆍ
##욧
##곳
##팽
##희
##−
##목
##컬
##궈
##젯
##짓
##ل
##غ
##و
##ط
##ة
##확
##탑
##툴
##슬
##젠
##틴
##곤
##증
##럼
##책
##웅
##겐
##강
##q
##셰
##홍
##캔
##덕
##렬
##랜
##졌
##멧
##셤
##펠
##혹
##렉
##끝
##셔
##큼
##옥
##검
##빛
##칙
##㈜
##ְ
##ה
##ו
##ּ
##ד
##ָ
##컴
##벽
##혀
##층
##닐
##딕
##얀
##쿄
##외
##죄
##효
##섭
##엥
##읍
##달
##즙
##귀
##덱
##폰
##균
##롤
##뢰
##혁
##쯔
##셴
##ر
##ت
##ن
##ا
##팀
##틸
##컨
##텐
##랙
##출
##런
##솜
##압
##엽
##겨
##큐
##림
##벨
##푸
##순
##히
##패
##넷
##득
##널
##랴
##콩
##값
##펄
##쉐
##놓
##쉬
##앞
##븐
##톤
##댕
##붓
##칼
##쪽
##논
##헝
##튼
##틀
##궤
##험
##ㅎ
##응
##갓
##람
##너
##컵
##페
##됐
##잰
##녀
##씩
##므
##ム
##ケ
##イ
##グ
##プ
##셋
##싱
##슴
##춘
##팡
##짖
##킴
##룩
##뉴
##к
##о
##н
##м
##и
##а
##톡
##홀
##잔
##몰
##л
##б
##ы
##з
##е
##ю
##힐
##잎
##≫
##♪
##램
##㎝
##빙
##씬
##à
##킹
##첼
##클
##빈
##밍
##짱
##억
##싶
##촬
##룬
##핵
##즌
##났
##챠
##ố
##웃
##̃
##켓
##탱
##꾸
##퉁
##넘
##싸
##툼
##몬
##갔
##펀
##없
##헤
##ि
##न
##्
##य
##ा
##स
##털
##폐
##덴
##쳐
##펴
##벡
##핑
##둑
##놈
##첨
##꼴
##곱
##샤
##앗
##닝
##것
##떡
##→
##맷
##꿀
##뜸
##돔
##듣
##즐
##럿
##닉
##に
##し
##ろ
##캠
##쭈
##얼
##녕
##탁
##뇨
##괴
##쓸
##ラ
##ン
##ス
##칠
##밤
##밖
##짐
##껏
##핸
##맨
##넌
##쿡
##색
##듀
##늬
##잡
##딛
##핍
##ウ
##뎅
##최
##픈
##둬
##먹
##뵤
##른
##랩
##헨
##릿
##윈
##짜
##왔
##흉
##×
##낼
##벌
##뜨
##뤼
##솔
##첫
##않
##늘
##ب
##긍
##렴
##텔
##몽
##둔
##젝
##융
##김
##져
##λ
##ή
##ρ
##ი
##რ
##ა
##ლ
##컫
##ἰ
##ῶ
##ν
##쯤
##째
##낸
##죽
##셨
##푼
##탐
##롯
##텍
##납
##잠
##풀
##밭
##ひ
##っ
##ぱ
##た
##き
##い
##참
##염
##쳤
##콤
##닭
##및
##잉
##됨
##힘
##퀼
##な
##펙
##ó
##묵
##쫓
##쥬
##フ
##レ
##콜
##싹
##±
##둠
##습
##벙
##껍
##엠
##펜
##ð
##켄
##ç
##겔
##칩
##훅
##맵
##뿌
##콘
##끌
##띠
##흡
##많
##샷
##롱
##ğ
##ブ
##춰
##엉
##겟
##눌
##닿
##く
##앵
##줬
##텝
##쌓
##●
##숲
##か
##ら
##옆
##탠
##윅
##ä
##ん
##は
##ょ
##う
##쑤
##붙
##흑
##밴
##퇴
##굴
##짝
##샬
##ッ
##ボ
##높
##㏊
##т
##ь
##놉
##룸
##섯
##뇌
##ï
##ā
##튜
##겸
##륨
##닛
##∙
##떼
##챕
##닌
##ゅ
##ぎ
##멀
##빨
##ǎ
##맙
##럴
##섹
##팬
##묶
##쿼
##깥
##냅
##톨
##꿈
##쥔
##냑
##롭
##얻
##랍
##웠
##룰
##룽
##밋
##께
##넥
##ệ
##앨
##끄
##쟈
##뭉
##홈
##℃
##づ
##뎀
##슛
##셉
##봐
##뷔
##뤄
##깡
##㎞
##ي
##굿
##ő
##둡
##ş
##ı
##â
##뭄
##땃
##슘
##뮬
##깨
##뱀
##뼈
##콧
##탕
##렐
##뎬
##쩌
##こ
##め
##て
##흘
##쫑
##п
##р
##с
##й
##턱
##˚
##쌈
##넨
##툰
##콕
##렝
##텡
##쿨
##쾃
##돼
##킬
##늪
##걱
##у
##셜
##흠
##낭
##넣
##냉
##딧
##ö
##첸
##갱
##럭
##넙
##³
##в
##я
##왈
##リ
##챌
##줘
##깁
##ē
##엣
##룀
##も
##と
##の
##샨
##믜
##č
##젼
##빵
##퀸
##핀
##뿔
##똥
##쑥
##뚜
##맺
##흙
##쿤
##삭
##촘
##푹
##떤
##잇
##믈
##쿰
##ぞ
##랸
##얘
##캡
##깔
##せ
##찌
##늄
##붕
##빗
##혔
##촨
##ć
##퉈
##떠
##윙
##맞
##д
##찐
##헴
##ė
##댐
##햄
##궐
##홉
##캐
##َ
##렵
##녔
##낮
##팸
##빔
##텅
##ｍ
##뮤
##́
##멩
##눈
##팟
##썬
##ε
##υ
##σ
##ί
##렛
##콥
##칫
##쾌
##즘
##캅
##콰
##딜
##빠
##㎢
##퐁
##コ
##س
##ك
##ى
##몸
##콸
##씀
##겼
##댄
##렇
##킷
##꺼
##맛
##걀
##맘
##퓨
##멍
##뒷
##닥
##쇠
##찧
##뭇
##슝
##앳
##못
##췌
##륵
##탬
##랫
##슭
##뜩
##─
##튀
##쩨
##깝
##뜀
##랬
##쪄
##훼
##ш
##곽
##큘
##팩
##뱌
##흰
##렙
##ø
##ㅏ
##ා
##න
##ම
##뺨
##땅
##뵈
##곰
##껫
##ф
##췄
##갗
##ს
##믹
##ワ
##ド
##릅
##꾼
##펌
##툠
##탭
##렘
##뒤
##х
##셸
##○
##묻
##젓
##볍
##뚱
##옙
##ά
##φ
##ι
##좀
##ё
##쌌
##㎡
##륭
##г
##벚
##デ
##ィ
##ク
##숨
##엑
##ف
##ق
##ę
##딱
##젊
##캇
##헹
##쭌
##낀
##릇
##뢴
##τ
##η
##롄
##폼
##겜
##밥
##괄
##츨
##텨
##닷
##젤
##ノ
##뺏
##や
##ぶ
##さ
##렁
##쉥
##딪
##졸
##み
##샵
##륀
##캉
##ち
##ぬ
##헬
##팰
##녹
##횡
##ℓ
##큰
##ロ
##ジ
##ェ
##ト
##갛
##웍
##혐
##α
##π
##μ
##つ
##ū
##썹
##뜯
##ⅱ
##म
##ी
##र
##좋
##숫
##컷
##ž
##닙
##옴
##엇
##쌀
##킵
##꿨
##꾀
##왓
##횟
##꽝
##～
##훙
##떨
##듦
##냄
##쵸
##è
##눅
##샛
##₂
##œ
##춤
##そ
##す
##け
##뒀
##ː
##욘
##ʒ
##깻
##꼽
##늑
##탯
##슷
##뮴
##긋
##죠
##넉
##뀌
##팁
##펑
##풋
##ъ
##ц
##솀
##굉
##ύ
##깃
##쉘
##헥
##눠
##덧
##뱅
##캴
##낌
##る
##얄
##춧
##밸
##힙
##튬
##벅
##삐
##í
##뇰
##덩
##꼈
##엡
##쪼
##깅
##밑
##붉
##뇽
##듐
##핥
##벳
##ß
##앱
##ɔ
##ɛ
##ʁ
##좡
##얏
##셍
##빼
##갤
##갸
##が
##넋
##ņ
##š
##훗
##ṃ
##썽
##ч
##ћ
##싯
##옐
##ī
##솟
##ա
##ն
##쏘
##옻
##빚
##밉
##즉
##쉽
##곧
##렀
##ザ
##탔
##і
##º
##ナ
##モ
##볶
##쉴
##ว
##น
##ด
##า
##ほ
##え
##웁
##댈
##ユ
##얗
##벵
##앉
##싀
##곶
##벗
##뢸
##캘
##삽
##볜
##펭
##귄
##쏙
##뉘
##딸
##じ
##カ
##δ
##캣
##꿔
##②
##슌
##퓔
##뻘
##ж
##チ
##ャ
##봤
##넛
##î
##ポ
##뻣
##έ
##□
##넹
##쁠
##낵
##캄
##뭘
##ِ
##ْ
##샘
##ه
##봄
##뽑
##폿
##쁘
##톰
##뜻
##æ
##댁
##ᆞ
##숑
##낱
##θ
##켐
##쭝
##갬
##줴
##뿜
##å
##탤
##∞
##둣
##헛
##읽
##왜
##텃
##뎃
##샹
##쟌
##듈
##팝
##촛
##굽
##ふ
##쉰
##갚
##댔
##늉
##ゆ
##싼
##깐
##㎥
##ང
##챈
##휠
##됩
##숍
##썩
##꼼
##끗
##쩐
##밟
##펫
##렷
##찾
##킥
##돕
##윽
##돗
##ダ
##ョ
##キ
##タ
##뚝
##ώ
##ⅰ
##갖
##겁
##웹
##팜
##땡
##껑
##쏠
##엌
##엿
##ʼ
##잖
##ả
##あ
##ず
##エ
##κ
##룻
##ོ
##숀
##왑
##β
##깜
##ư
##ơ
##퍄
##ţ
##먀
##뛰
##끈
##좨
##쎄
##♥
##욜
##わ
##り
##잭
##꼭
##펼
##솽
##õ
##괵
##オ
##쑹
##욤
##ミ
##ァ
##ア
##む
##뻐
##뮈
##깟
##줌
##뎌
##힝
##ع
##톈
##깎
##깊
##뿍
##옵
##겹
##딴
##쳅
##괼
##꽁
##ニ
##껴
##샌
##㎾
##ω
##ḥ
##빰
##찮
##랠
##れ
##꿰
##붑
##ヤ
##ɪ
##ῖ
##퀵
##갯
##듭
##ホ
##ś
##ō
##훤
##튠
##ú
##①
##◾
##챔
##ấ
##늦
##닫
##멋
##좁
##젖
##멕
##먄
##켤
##ㄲ
##ㄴ
##ㄷ
##ㄸ
##ㄹ
##ㅁ
##ㅂ
##ㅃ
##ㅅ
##ㅆ
##ㅇ
##ㅈ
##ㅉ
##ㅊ
##ㅋ
##ㅌ
##ㅍ
##틈
##큄
##뱉
##숄
##몫
##찻
##э
##쨩
##넜
##ë
##솥
##밧
##ă
##썼
##쩍
##ⰰ
##헐
##ㅐ
##ㅑ
##ㅒ
##ㅓ
##ㅔ
##ㅕ
##ㅖ
##ㅗ
##ㅛ
##ㅜ
##ㅟ
##ㅠ
##ㅣ
##잽
##떻
##ぼ
##녘
##퓌
##펨
##ṣ
##팻
##텀
##ậ
##팠
##졔
##컥
##돠
##꾹
##נ
##א
##햐
##츤
##덟
##ר
##섰
##샐
##샴
##│
##섐
##メ
##댓
##ュ
##늠
##캥
##＝
##셩
##µ
##귈
##χ
##탓
##ł
##ń
##씰
##เ
##อ
##ส
##ุ
##ร
##ม
##ิ
##ˈ
##ʲ
##녜
##쩔
##셧
##쓴
##솁
##됭
##콴
##줍
##ⅳ
##쳉
##띔
##ま
##멤
##힉
##쭉
##잣
##ξ
##ご
##뀐
##튿
##マ
##굄
##왁
##맸
##냘
##썸
##퀀
##뜰
##ु
##쾨
##ñ
##귤
##뷴
##덥
##گ
##↔
##ô
##サ
##テ
##☆
##씌
##팥
##엎
##툉
##よ
##ゃ
##뫼
##윌
##끓
##챗
##숏
##죤
##돤
##첵
##녤
##ぐ
##쫒
##씹
##캬
##뒬
##ば
##붐
##ã
##⅓
##푀
##굼
##밝
##겉
##ُ
##ص
##ّ
##뱃
##벰
##ò
##몐
##씽
##प
##व
##쳇
##탉
##헷
##툽
##خ
##샅
##딤
##멥
##찹
##★
##궂
##껌
##щ
##♂
##㎒
##죵
##컹
##빡
##뎠
##찼
##뽀
##텁
##웽
##픔
##췬
##뮨
##்
##ி
##텟
##툭
##짢
##꿩
##톄
##겊
##멈
##㎑
##옛
##뻔
##촙
##ی
##냇
##핌
##뵙
##훠
##챘
##ý
##ذ
##뷸
##씁
##■
##ө
##땜
##켠
##섀
##ヴ
##윳
##뤘
##셱
##ễ
##댜
##ż
##đ
##뽕
##몇
##땀
##쿵
##놨
##ざ
##찔
##뷜
##훌
##セ
##⋅
##ど
##่
##ช
##넓
##™
##ش
##㎍
##ř
##옮
##떳
##ũ
##꽂
##̇
##ì
##㎏
##띄
##눕
##≪
##뮐
##얌
##짚
##촐
##낫
##륌
##ү
##뮌
##맴
##뚬
##ج
##푁
##べ
##ù
##で
##お
##홰
##뎨
##ʔ
##ʃ
##ล
##앰
##죌
##쉼
##쥘
##녠
##짤
##ະ
##ヒ
##휼
##넴
##얽
##퉜
##뜬
##밈
##ą
##ŋ
##쌔
##♭
##█
##ォ
##ガ
##섞
##쁜
##젱
##㎜
##퍽
##궜
##쭤
##△
##꿉
##긱
##ạ
##ṇ
##뱡
##꿋
##볐
##ි
##ĩ
##뗀
##®
##י
##ピ
##뭍
##퓰
##쑨
##낏
##퀄
##＜
##믐
##넸
##ゲ
##쾅
##쭐
##낑
##ヨ
##ハ
##겡
##눙
##륄
##릎
##씸
##أ
##뷘
##멱
##ベ
##빽
##샀
##썰
##놋
##햇
##ئ
##ל
##맬
##맣
##짭
##놔
##뚫
##쮸
##ζ
##팎
##뚤
##ן
##맡
##븀
##헵
##왠
##び
##봅
##펍
##톳
##ě
##뒹
##팃
##쌤
##ゴ
##ⅲ
##얹
##깍
##챙
##졀
##탸
##숴
##ր
##ե
##क
##뻬
##뗐
##パ
##뻑
##③
##앴
##ź
##ネ
##ῦ
##ိ
##ာ
##မ
##ေ
##်
##켑
##ゼ
##녓
##걷
##쿱
##¹
##씻
##혓
##쉔
##덮
##푈
##똘
##ต
##้
##돛
##짼
##잼
##겅
##ะ
##ギ
##מ
##쩡
##ầ
##⇒
##བ
##쁨
##낟
##þ
##듄
##쿳
##쳔
##땐
##ک
##낄
##ə
##´
##ก
##แ
##굵
##⦁
##½
##갠
##쨌
##빕
##롼
##긔
##ე
##똑
##ี
##ั
##ค
##뀜
##ز
##폄
##섶
##쾰
##ִ
##ת
##←
##잃
##껄
##룅
##ｓ
##폈
##욀
##꼿
##ק
##ᐨ
##쏜
##だ
##곁
##쯩
##띤
##ர
##웜
##랗
##싫
##퓸
##㎎
##칵
##젬
##깬
##웻
##쎈
##쳄
##똔
##↓
##ψ
##ʻ
##섕
##쫄
##뺑
##텼
##≠
##ツ
##ㄱ
##찡
##ַ
##녯
##컸
##♯
##눗
##깽
##넝
##뉠
##⑧
##ắ
##ท
##ง
##＋
##헙
##ʊ
##낚
##ồ
##끽
##द
##ペ
##ħ
##왼
##쌘
##졍
##졈
##흩
##딥
##ש
##쇽
##ɑ
##웸
##त
##믄
##잴
##ヌ
##짧
##낯
##윰
##꿍
##몄
##쥴
##を
##슥
##헀
##짰
##⁄
##ự
##띵
##늙
##ု
##း
##ြ
##삶
##덫
##싣
##넵
##푯
##퇘
##㎛
##ṭ
##볕
##뺀
##펩
##앓
##ɨ
##÷
##눴
##쇤
##２
##툇
##พ
##์
##퀜
##닦
##ぴ
##몹
##홑
##쾡
##옇
##ế
##ề
##옳
##땄
##떵
##げ
##훔
##냠
##짬
##ね
##€
##ј
##핫
##꼰
##û
##ǐ
##찜
##껀
##뇬
##뉼
##ぜ
##룔
##ș
##맑
##꺽
##튈
##へ
##뻤
##묄
##◆
##삵
##뽐
##쟝
##ị
##뺄
##ल
##끊
##뭐
##갰
##⅔
##쥰
##ソ
##믿
##ར
##ნ
##듸
##틍
##갭
##잊
##굳
##댑
##뤽
##빴
##짠
##튕
##숟
##４
##섄
##├
##샥
##¼
##뎐
##읜
##텄
##윔
##▲
##ɡ
##쌩
##ב
##퓐
##왐
##볏
##빳
##팹
##엷
##괸
##뉜
##쏭
##뵐
##솝
##ע
##ර
##뻗
##ო
##툐
##폽
##밌
##ʰ
##틔
##찟
##☉
##뒴
##뱐
##１
##됴
##े
##뼉
##뾰
##ʿ
##ห
##쯕
##ย
##윷
##숌
##튄
##บ
##틂
##쑈
##뀔
##₃
##횃
##빤
##ס
##뗄
##븓
##⑤
##꽈
##좇
##켁
##힛
##닮
##ａ
##튤
##챤
##จ
##춥
##켕
##틋
##괭
##꽌
##큅
##덛
##④
##좆
##낳
##♡
##몯
##뽁
##홧
##솅
##읫
##궉
##ứ
##◯
##짇
##젭
##얍
##ờ
##햘
##귐
##ན
##츰
##옘
##닢
##큇
##휜
##ג
##쏟
##귓
##כ
##ộ
##칡
##삯
##쇨
##└
##ག
##ས
##∩
##뱁
##꺾
##땠
##햅
##£
##３
##핼
##ぁ
##ء
##흄
##↑
##떴
##찢
##￼
##뎁
##뒨
##벱
##ể
##겪
##귬
##똠
##엾
##긁
##꽹
##젹
##꿇
##쉿
##ｅ
##뭔
##ไ
##◦
##퇼
##썻
##맏
##훨
##휩
##쏴
##숩
##≤
##헉
##ח
##ヲ
##پ
##쐐
##웩
##욥
##횔
##읏
##ⓐ
##≥
##엮
##탰
##셌
##쬐
##멎
##괌
##갹
##숱
##뛴
##뻥
##껐
##룝
##잦
##뗏
##숯
##닳
##◇
##뛸
##짙
##짊
##∀
##깰
##뺐
##묜
##큔
##죈
##휨
##꽉
##⑦
##띨
##┬
##쿈
##∈
##쐬
##솎
##쌕
##뼛
##훑
##⑥
##섣
##━
##흭
##ヶ
##넒
##갇
##ㅿ
##≈
##잿
##ヘ
##ἄ
##얇
##⑨
##읊
##밂
##벋
##ἀ
##쏨
##땔
##낡
##삔
##으로
##에서
##이다
19
##었다
20
있다
##하였
##했다
##하는
##하고
##하였다
##하여
##으며
##되었다
201
##에는
##한다
200
있는
##부터
##0년
대한
##지만
##까지
10
##에게
##적으로
##적인
##되어
##국의
##8년
##면서
사용
이후
##or
##5년
18
##9년
##들이
일본
##7년
##6년
##4년
199
##2년
##에서는
##하기
##들은
한다
##1년
##하게
##3년
12
##았다
##으나
##학교
##였다
##la
##되었
되었다
##00
##라는
##라고
그는
11
##er
지역
##리아
##된다
##는데
##이며
미국
위해
그리
대한민
198
같은
##주의
때문
##스트
시작
##on
##기도
따라
프로
##들의
##들을
##하며
그러
함께
현재
또한
15
for
다른
경우
##mu
것이
사람
위치
자신
##mula
##시아
16
이름
formula
당시
선수
기록
##이나
##in
또는
##하지
##기에
사이
다음
##an
##하다
그의
때문에
가장
197
한국
17
하나
조선
세계
그러나
국가
있으며
##기를
##되는
##에도
것으로
것을
의해
##일에
있었다
##레이
영화
##스의
에서
했다
196
된다
##지는
##졌다
프랑
활동
##en
##ar
14
##리는
그리고
통해
194
##되고
##리를
경기
들어
##하였고
많은
13
##하면서
만들
하는
3월
12월
포함
##스는
4월
다시
##했고
것이다
##는다
10월
##at
아니
7월
8월
있었
##al
여러
대한민국
5월
가지
##개의
##랜드
##대로
9월
195
1월
##사를
서울
6월
시즌
##이는
##로서
##이었다
##es
독일
대해
모두
##상을
중국
하였다
사회
제1
##이고
도시
일부
전쟁
알려
##장을
11월
등이
##ic
감독
##위를
연구
##어진
이루
으로
모든
처음
축구
##지를
정부
##대의
##회의
정치
인구
등의
##니아
대표
##보다
##성을
이용
제작
리그
2월
##이었
구성
존재
##나라
##도의
프랑스
##부분
있어
193
##자가
##is
##도로
위한
영국
아이
대한민국의
일반
자신의
이상
중심
##력을
##라이
##거나
30
동안
##리에
발견
##기의
##이자
기준
개발
문제
것은
나타
가능
##했으며
##시에
이어
지방
국제
##통령
이러
##it
제2
등을
작품
192
이러한
##군의
되어
이는
하지만
라는
라고
##he
우승
사망
대부분
새로
##났다
대회
##km
전투
##위원
##로는
##0년대
25
##도록
##되었고
하고
##하면
##리카
##시키
##기는
이를
역사
##리가
##로부터
##기가
사건
주장
공격
문화
##하였으며
대통령
태어
##란드
##들과
##었고
게임
##자의
위치한
##쪽으로
설치
##스를
이다
##다는
##서는
##세기
##리그
##성이
방송
발표
##정을
최초
영향
번째
##명의
특히
191
##다고
##등학교
의미
##에서도
발생
이에
일어
2010년
러시아
대학
##자를
참여
설립
21
수도
관계
##ion
##리스
##와의
##이라고
결과
주로
진행
다음과
##사가
이전
관련
미국의
유럽
독립
##되었으며
경제
##대를
##이트
##us
##자는
형태
선거
지정
부분
##도를
##le
##인의
##들에게
##스가
##자로
로마
중앙
자유
소속
##렸다
##므로
이탈
##가지
인해
다양
##화국
그녀
##리의
있고
##요한
22
구조
받았다
사실
##르는
같이
출신
##이라는
##원을
음악
받아
참가
23
##과의
시간
있던
##el
##부의
24
##했던
고려
교육
프로그
아들
이것
새로운
올림
##식을
상태
기술
2008년
생각
##ro
데뷔
계속
2007년
##번째
매우
##다가
##이스
이탈리아
##as
배우
운영
생산
결정
아버
##비아
시대
##도는
행정
기원
000
##전을
##디오
발매
##프트
타이
##명을
##인이
일본의
2011년
##학자
않았다
190
##이지
##스터
2009년
##기로
the
돌아
등장
##르크
성공
##사의
해당
##장이
##re
운동
올림픽
##도가
차지
##리즈
##운데
2012년
##으로서
##대학교
26
1일
결국
##드는
가지고
없다
co
##하기도
##부에
전체
##군은
##하자
##선의
##fa
28
##권을
##되지
아래
최고
아니라
##am
##에서의
계획
27
202
2014년
없는
##해서
가운데
##라마
주요
프로그램
남아
##명이
하여
##인민
한편
따르
##이션
않고
##이라
##사는
##et
출전
##처럼
많이
출연
시절
국민
지원
2006년
##수를
2013년
##장으로
##우스
##ac
##성의
이유
##간의
2015년
임명
##장은
유명
후보
##il
조직
100
##남도
##수의
내용
방법
역할
##스크
음반
##화를
라이
##어로
##지의
거의
월드
##원의
##냈다
##사로
분류
##어져
스페
알려져
연결
29
제공
2018년
이라는
##으로써
##지가
각각
2016년
##하던
열린
##스타
대학교
진출
지구
않는다
##ol
##스와
##스템
다양한
작은
##수가
##ing
##였던
##음을
##대표
##자인
##민주
이라고
스타
모습
수상
마지
##전에
##ur
데이
##머니
활약
##리고
##un
##이가
따르면
##지에
##원이
따라서
##점을
표현
##으로부터
이름을
##스로
공식
##일부터
##으로는
##대에
과정
##군이
##하려
높은
지금
##os
##위원회
기원전
생활
민주
시리즈
마지막
정보
필요
인정
##력이
같다
인도
인터
제국
2017년
##시의
경상
정도
가진
만들어
대전
항공
이미
##시켰
##인다
##가는
기능
대신
##나는
##운동
##ch
##제로
##했지만
2005년
후에
##지고
드라마
여성
마이
31
정의
직접
그리스
철도
바이
st
변경
건물
##bs
##세의
##선을
졸업
##있다
fc
승강
개최
##인민공
자연
##상의
##제를
유지
##대학
오스트
되는
in
건설
보고
추가
나라
##어를
##id
시스템
영향을
있는데
서로
##수로
거쳐
이야
않은
말한다
##사에
of
상황
##전에서
결혼
##ed
2004년
크게
##이드
군사
##었으며
아르
브라
비롯
관리
형성
중화
##지로
50
지역의
##되면서
중요한
##문화
##위에
하였
프리
##대가
##해야
원래
야구
않았
일으
##부를
완전
##북도
관한
##원으로
189
##역이다
발전
사이에
##들에
제3
평가
##식으로
##왔다
인구는
실시
노동
##대는
##인을
부산
그가
##적은
2019년
##프리카
##부는
그것
지하
연합
##원은
##군을
반대
##치는
역시
보여
##르트
##om
##른다
공동
이적
사업
##치를
운행
2002년
여자
fi
##ad
##계를
기준으로
공개
이론
##어는
기업
학교
명칭
요구
만든
상대
플레이
이르
##하였으나
##호로
지도
##인은
보통
위하여
소련
공간
마을
##문을
##대한
제외
##레스
인물
##제가
계약
않는
다이
그룹
40
역임
##트로
동시에
##스탄
##임을
도쿄
기본
##일까지
##제의
##장의
##상이
##했으나
##진다
##수는
시작했다
자동
an
특징
##되며
역할을
##니다
앨범
모양
##운드
##상으로
##이기도
##이었던
현대
교황
##회를
아닌
민족
경기도
기간
2년
의한
전통
최초의
초기
##단의
레이
이동
2003년
##체의
어떤
##장에
##카이
##됐다
##ia
##리오
##명은
혹은
경기에서
모델
노래
처음으로
##호를
이끌
수행
##하는데
지나
하며
##정한
##mm
판매
태양
기관
비슷
도입
##특별
##ent
여기
지정되었다
##나다
정책
이때
##주는
달리
개인
기반
추정
개의
##명이다
기타
##시마
##ig
##있는
일반적으로
##무를
월드컵
##물을
2000년
서비
전국
경찰
연방
되고
주변
km
##소를
##이를
특별
##ot
##ation
어머니
##격을
기존
##린다
지배
속하는
전라
종교
아버지
과거
그래
##st
##갔다
##자와
있을
##중에
학생
##장에서
##적을
##이의
##체를
##성은
지휘
##가와
##광역
유일
산업
##서를
전문
비판
##드로
##구의
있다고
나오
건축
##기관
##iv
##리로
##쪽에
##ec
##리와
##어가
##시간
동일
##도에
##학과
사랑
중심으로
부르
##ut
관할
출시
노선
국내
바로
오늘
##독교
##세는
##과는
규모
##인민공화국
인간
##동안
##피언
보내
열차
이라
이루어
비교
##학적
##시켰다
컴퓨
##하지만
가까
##화가
국가대표
##드의
애니
2001년
방향
##경기
통합
##군에
최대
##트를
##당의
2020년
##위로
188
차량
현재의
태어났다
##트남
피해
##류의
##의를
되었고
##트의
##마다
받았
받은
확인
스페인
담당
##어의
##정에
그를
##리지
##스에
싱글
받고
##혔다
##체가
ch
이것은
우주
소설
구간
클럽
지지
적용
##호는
##cm
##연구
증가
보호
##종의
없이
대부분의
수는
기독교
실패
환경
##단을
##비전
##트는
선정
2차
충청
선출
15일
이름은
##ra
있다는
작곡
컴퓨터
뉴욕
분야
##부가
1년
##면에
하나이다
##세가
##회는
가족
때문이다
올라
두고
##사와
이와
##조의
어린
tv
##스코
##이로
##bc
캐나다
기념
이상의
걸쳐
대하여
##제는
##드를
##하거나
챔피언
##인으로
어느
자신이
fifa
##um
있지만
##야마
자기
하다
##쳤다
나가
사상
선발
##원에
상당
##ter
대체
##메리카
사고
##oc
##인이다
##르게
3일
그녀는
##업을
평균
##쪽으로는
개념
헌법
##em
##나무
##기와
##관을
입단
찾아
##키는
공산
획득
##치가
등에
1998년
등으로
##메이션
##겼다
1999년
최근
##움을
20일
도로
결승
위원
설명
내려
있어서
##적이
##세를
조건
10일
부족
활동을
베트남
최종
3년
정당
##개월
이런
데이터
가리
##시켜
지상
최초로
##글랜드
##으면
예정
현재는
영화이다
##동을
186
없었다
##식의
##광역시
거주
##계의
##op
시민
불가
##단은
은퇴
##드리
자료
##과에
##렀다
##방송
점령
뛰어
##관은
이란
##역을
##메달
##식은
500
보인다
동물
##크로
베이
##했다고
##식이
##포츠
텔레
##성과
더욱
##성에
서식
##시킨
고대
##어서
물리
조사
##od
오늘날
예를
수록
##시키는
애니메이션
##소가
전기
##im
제2차
이곳
과학
자리
5일
##스카
서울특별
교통
언어
선언
북한
##구를
35
조약
선택
##렇게
연속
##km2
##했는데
30일
##자들은
주민
후반
##시대
25일
육군
승리
유사
##호선
##난다
명령
공연
1997년
187
잉글랜드
세포
##구에
##명으로
전에
##심을
이듬
소비
소유
28일
1996년
##회에서
유래
1995년
이름으로
있었던
de
반응
주의
어려
인천
아시아
2일
##덜란드
##ir
국가대표팀
좋은
조지
7일
분리
맡았다
##웠다
60
단체
가수
메이
되었
전자
4일
##내는
선수이다
네덜란드
이들은
이유로
변화
이듬해
우리
국회의
포르
국립
가문
지속
폴란드
##하도록
##가의
불구
##학을
##이에
##상은
21일
##한다는
연주
6일
대구
표준
##진을
32
##단에
명의
페르
사무
8일
##라도
##모토
시설
있게
##함으로써
통과
방영
##정부
공화국
12일
에너
17일
27일
##이지만
구분
16일
세워
##자들이
효과
##으므로
하나로
##사카
26일
통일
##비를
18일
##만을
##골을
##관이
##ul
##ag
의하여
1990년
1994년
아프리카
사이의
제한
강화
마르
영국의
##스에서
##일랜드
##주에
23일
##원에서
##직을
위에
##단이
14일
언급
##거리
9일
##소의
1992년
요시
목표
##랐다
정확
##되기
##라의
거두
11일
##정이
소프트
##트리
불리
29일
아직
승강장
널리
##지와
분포
##상에
22일
주연
마음
멤버
##고등학교
하나의
##했을
알려진
출판
물질
하지
##레일
1991년
포함한
영토
사용하는
##민주주의
실제
이해
오른
여겨
자치
##금을
발달
식민
버전
서울특별시
감독의
결합
우승을
비행
복귀
##철도
##지역
면적은
##부르크
##형을
크로
##만이
##계에
것이라고
불구하고
13일
제품
##선에
##치고
정규
모습을
##지지
##체는
남부
배치
그림
비해
중에
24일
부여
지역에
##베이
##교육
##회가
1993년
완전히
그들의
제조
차례
폐지
##자리
##ce
##소는
##주시
##회에
##동에
일종
##신을
##관으로
##하의
등과
분석
##라스
이들
##지방
텔레비전
법률
19일
때까지
70
예술
##르고
나머
보다
##로를
##ow
대중
##당은
아마
##산을
##지에서
##로의
전해
왕국
집합
##학의
##시코
설계
실험
못했다
드러
오스트리아
##구가
더불
이사
##선거
방문
패배
자주
제4
##스턴
파괴
##되었으나
요청
##인데
이로
기여
제작된
제국의
갖고
브라질
정도로
##나이
불교
외국
##장과
##들로
##법을
스포츠
##위가
##아의
##점이
더불어
선수로
그런
마찬
하이
근처
##톨릭
오래
##선이
스웨
##주를
##ap
마찬가지
##부로
##어졌다
치료
##안을
1988년
비롯한
##군과
움직
유전
##었던
##경을
##받았다
여객
##위는
것에
그들은
필리
많다
경우가
##프로
프랑스의
않아
##정의
존재한다
일제
밝혔다
목적으로
노르
바뀌
경험
반란
북쪽
회사
공항
바탕
##시즌
소재
1989년
지냈다
영어
언론
일어나
수준
나온
초대
##시는
ue
사람이
그대로
##드가
독일의
##되기도
달러
확장
##트가
작용
관측
중요
경쟁
남쪽
300
##물의
논란
##베르
##사일
uefa
성립
개혁
##위의
스웨덴
떨어진
##인과
인터넷
알렉
외교
작가
지역에서
황제
##ip
수용
있도록
80
주도
##초등학교
##규모
##버스
##까지는
밝혀
##스티
##ay
##스테
성장
크리스
나무
다만
선수권
유명한
천황
추진
과정에서
주인
지난
##웨어
4년
##바이
스스로
사람들이
사라
##카와
있으나
##력은
##속도로
##가를
프로젝
연기
기록했다
1차
##르의
구성되어
작업
##도와
남자
##스키
45
파견
이외
##하다가
##정은
즉위
강력
##지게
스위
해석
##량이
##들도
상대로
##스토
##아가
북부
않다
들어가
##화국의
##우는
al
접근
##문에
발행
36
가톨릭
##형의
개통
un
의원
특정
자동차
해안
생성
##구는
런던
##졌고
도착
만나
여름
조각
임시
중간
정신
가능하다
비슷한
먼저
통치
팀의
지역을
1945년
재판
##간다
##루스
슈퍼
##오는
조선민주주의
바다
kbs
거부
re
개봉
광주
야마
단순
때는
##자이다
##감을
가져
불리는
##ers
이주
##시를
동맹
엔진
고등학교
이며
국왕
공작
##na
##전이
##러스
삼성
동쪽
##0년에
##소년
가르
##회사
지하철
곳에
말했다
##없이
아카
##많은
제주
여기서
방어
##이기
##평양
훈련
목록
체포
투표
히로
시행
만에
기초
##이어
##레일리아
33
##하였는데
사용한다
##지션
그녀의
등록
해결
##수한
##선은
##전의
##대와
마찬가지로
그린
다르
상호
것이었다
당선
귀족
다카
아무
바꾸
미국에서
수많은
형태로
대응
이루어진
##하라
시작하였다
동생
살해
출생
##ct
##미터
부른다
결성
대사
프레
##성으로
교수
끝에
내각
##관의
스테
오사카
이야기
##주로
대표적인
체결
##하기로
아시
사망하였다
아일랜드
##크의
보유
##고를
강원
디자인
##자에
##라인
번역
1986년
승격
##어나
##량을
##행을
상징
규정
##았고
제안
만들어진
중화인민공화국
1987년
##부에서
##선에서
살아
185
처리
위치하고
이름이
##ist
멕시코
인근
보존
본래
윈도
##ri
##치로
##오카
이집
사용된다
후쿠
종류
##해졌다
중의
따른
카를
하계
##웨이
##량은
근거
##함을
##전은
##나라의
안정
오스트레일리아
##단으로
중에서
있기
서쪽
##메달을
밴드
의하면
제5
##th
발사
##ov
시기
것과
##디어
친구
##했다는
교회
중단
포르투
대륙
조성
행동
##당이
##으면서
##부터는
지진
##물이
있지
스트
종료
위험
있었고
회의
나머지
31일
##리에서
##점으로
수비
##인트
##조를
위치해
38
##국이
##하이
계승
##릭터
관광
평화
일어난
부정
##역으로
##og
##디아
그렇
적이
혁명
옮겨
시도
금지
##크라
##면을
에는
이슬
이스
2개
##화된
경영
바르
##인들이
알고
##문화재
이루어져
근무
활용
한국의
계열
일을
이렇게
세력
위의
##한다고
보수
5년
해군
1985년
참여하였다
2세
##산으로
하루
180
시험
몇몇
강한
##트워
캐릭터
##교회
파일
##소로
못하고
1984년
##10
##기술
인민
관련된
표시
직후
준비
서비스
취임
##20
사용할
ar
위해서
1세
유일한
지명
제시
##하에
##로가
and
##로나
정부는
##내고
##정보
##아시아
대해서
##티아
유니
대해서는
친일
##사업
엘리
떠나
신라
구조를
##되자
배우이다
##소에
##센터
##and
##ard
가정
얼마
##권의
경기를
##ie
con
간의
##로로
사이에서
경계
##만의
##사에서
이래
종합
다루
##였고
디지
홍콩
34
가까운
##가이다
##승을
##가로
아내
sp
베네
기후
표기
##주교
중국의
윌리
##부와
충돌
##작용
포지션
##시키고
못한
만화
나타나
##요일
달성
##조는
둘러
헝가
해외
정착
합류
##국은
1982년
정치적
##당을
안에
##조가
오후
184
##러운
라디오
것도
완성
유대
타이틀
주인공
제도
##습니다
가능한
##였으며
의미한다
센터
물론
사진
##연합
남북
에게
##시가
th
##나가
##tv
경우에는
유로
오브
##ss
낮은
##두고
가입
재직
이용하여
##산의
나누
##났으며
##니는
##석을
만약
좋아
##서로
대회에서
##3년에
건너
##적으로는
종목
이슬람
##ou
##왕의
경상남도
필요한
연장
베르
사령
에서는
##려고
전환
##종이
묘사
90
400
##량의
##리포
##권이
각종
제거
##분을
##체로
되었으며
생활을
생물
뒤에
##전히
사회주의
부근
기록을
정식
인디
##피아
##치의
에도
관계를
비디오
통하여
스코
공급
미사일
촬영
만들었다
출신의
의견
제기
선의
##와는
##롭게
##8년에
오르
파이
음력
##화의
불린다
##과학
##est
문제가
##bo
갖추
##시로
1980년
그려
경상북도
포르투갈
전달
제정
핀란드
##관에
터키
##9년에
디지털
명예
##1년에
연극
스튜
로스
##고로
일종이다
##트에서
반면
수가
안전
전략
전투에서
문학
##프는
##자들의
아키
주는
노력
가는
##ine
남동
##미널
##은행
말을
동부
##시대의
##지도
그해
투수
국방
아니다
알렉산
제외한
겨울
태평양
상업
##차를
유형
##만에
이후에
##6년에
##과를
배경
##이던
37
##인들은
고구
시대의
윌리엄
##배우
몽골
##비가
##교의
주었다
전반
뒤를
##티나
주목
##질을
주연으로
나중에
제1차
마련
아우
##낸다
허용
문제를
실제로
39
인한
기능을
pro
무렵
기존의
##점에서
집중
천문
55
##민족
전시
##ab
3개
최소
##원과
##분에
##인지
##졌으며
정부의
##상에서
##4년에
내부
왔다
하자
갖춘
##계가
##7년에
##ess
##물로
바람
저항
네트워
하기
##준다
##학년
##0년대에
##까지의
오스
부모
부문
1972년
길이
소개
##았으며
떨어져
신설
에이
개편
임명되었다
le
##19
위협
세운
##세에
필리핀
##크는
너무
##사령
##역에
##되었던
출발
확대
올랐다
윈도우
서부
75
신문
합병
##주가
게이
의사
경우도
문서
사실을
바탕으로
세르
183
일반적인
부터
넘어
##상과
mbc
점차
비밀
유리
탑재
사용되는
사용하여
미래
##라노
##av
마이크로
구단
높이
덴마
##라우
작성
지적
##파의
최고의
범죄
##학생
붕괴
채택
있었지만
침공
150
위치한다
전사
본선
##호가
인식
##세포
##5년에
##ity
뿐만
to
교체
만드는
매년
##역에서
시기에
태풍
편입
일이
##장이다
홈런
자본
##르타
##가가
##ak
여전히
##법원
1983년
정리
설치되어
남편
##해를
모스크
확보
요리
지금의
득점
민간
이번
그래서
##라비아
##중학교
감소
##래프트
이끄
항상
제목
##에게는
##기고
국회의원
마리아
계약을
ii
방식
승리를
##공항
시의
입학
##리스트
적극
##사키
충분
자리를
사후
##라운드
성격
고구려
북서
관찰
계산
is
ne
##당에
이끄는
에스
##if
농업
##체에
##리어
개정
밖에
등에서
##되었는데
##버트
시작되었다
통신
기계
세종
보여주
외에도
평양
수학
간주
su
##lan
##라엘
##면의
수립
##의로
받아들
편집
##화에
판단
##되었지만
##론을
열대
1개
등은
##트에
##오프
젊은
##었으나
##전쟁
##리기
화학
다섯
전라남도
mar
불러
##즈의
시내
해체
##임스
마쓰
##워드
미술
k리그
대형
공격을
sc
쉽게
울산
연맹
장기
팀은
##리포니아
전개
실행
##니스
##세기에
창설
잠시
am
##생활
태어난
##기업
##ang
사람은
동료
##대에서
##ph
##비는
당시의
이스라엘
구축
신경
##te
길이는
아랍
보면
건강
##밖에
##룬다
메이저
얼굴
발견된다
제6
사용한
##군으로
강력한
조정
나뉘
##역은
그곳
42
중화민
케이
하게
##보다는
##프가
비교적
설립된
##메이
측정
1981년
지역은
장애
떨어
공공
보이
강조
귀국
##로서의
후손
179
##료로
10년
원자
##받아
전차
캘리포니아
증명
삼국
인하여
스토
만족
도시로
##실을
죽은
제7
##전으로
체계
##드와
##ty
라틴
##트라
사례
아나
편성
루이
사람들은
##력의
##키아
마사
##시와
단백
포지션은
교토
문화재
종종
추정된다
2개의
대규모
증거
##로스
책임
북동
식물
##산업
##그룹
1979년
대립
유엔
##시오
##적이고
##문이
##당한
##족의
특수
시대에
예선
변호
함수
48
고양
##ae
##용으로
##역의
##류를
##단체
64
##면에서
##구로
1973년
##세이
정보를
해방
##신의
불과
때에는
소프트웨어
sh
회복
##동차
저장
##개발
의해서
성우
검은
##어와
4개
나폴
집단
##ell
##점에
##해의
##었는데
사실상
##싱턴
채널
사회적
##ber
아름
자신을
##2년에
##어도
##했기
##데미
녹음
항복
수정
조선민주주의인민공화국
에드
회원
##모리
41
##어들
머리
하면서
방식으로
##하려는
tr
수입
at
원칙
##시설
재위
폭발
제작에
단계
정상
##트와
흔히
##경기에
com
물러
보급
보이는
카운
##력으로
181
형식
노예
##소에서
관할한다
인수
##사회
sk
속에
있었으며
##적이다
블루
뛰어난
대상
##셔널
행정구
남서
은행
##네시아
##무원
보도
se
##자치
강원도
유명하다
초반
##분의
##자에게
##약을
세이
유도
##화는
##형이
##자들을
대수
##ill
모스크바
43
##법에
있었으나
##국을
##사이
##품을
도움을
주교
받는
파리
##다면
요새
시장
##fc
아르헨
알아
내에서
붉은
형태의
충청남도
버스
수여
##하고자
##크라이나
하였고
160
##대전
때에
출마
재정
힘을
여행
가격
블랙
시청
오리
박사
경기에
외에
##도시
구성된
관심을
철도역이다
가로
산맥
과정을
불가능
이하
죽음
##다이
없어
확정
트리
##역이
행사
##종은
사용되었다
나카
부인
47
사람의
이전에
베이징
1974년
짧은
19세기
경향
암살
선고
정도의
통한
##틀랜드
##로운
협력
##었지만
이것이
lg
세웠다
이승
본격
장착
구체
태어나
감염
한때
65
아주
ap
이끌고
근대
마드리
##데스
한다는
카메
우크라이나
인간의
##제에
##색을
##라가
##지면서
##관리
원정
전후
사는
##ne
##신이
멸망
복잡
카이
권한
##산은
##명한
되면서
##료를
나는
했지만
##하다고
등장하는
워싱턴
역사상
네트워크
##지기
우선
북아
조금
##를린
##권은
하는데
무장
인사
뮤직
앞두고
업무
대항
1976년
##인에
00
1970년
헤이
않을
건조
설정
##주에서
공부
##igh
##의의
##ian
대상으로
방출
피아
플로
시즌을
발표했다
##all
1948년
중반
건립
##인들의
##ue
단일
##도에서
이후에는
나오는
세우
##국에
스튜디오
넓은
투입
1963년
레코
44
계급
##레이션
발매되었다
적은
나서
어떻
##하려고
청나라
1978년
##킨다
##권에
##드에서
기사
내에
##서에
추측
##함에
한다고
개선
##티브
##대회
되지
##바르
##정책
1971년
내용을
cd
##리학
수출
정복
##경에
했으나
원작
##ud
전혀
형제
1975년
하늘
##번의
수원
##도르
비율
고향
##일을
전쟁이
무기
en
대표팀
맡고
잘못
제임스
##니어
주장했다
삼각
자체
##동이
팀을
##공업
속에서
국가의
토론
고전
##하나
ro
남성
##려는
1968년
##았던
목적
박물
저지
스파
##간에
식민지
아카데미
##이었고
역대
동일한
비용
작전
구별
##당했다
출입
정부가
##타를
사람을
54
약간
전설
있었는데
탄생
단백질
##점은
얻었다
까지
핵심
발생한
공유
없고
나이
##구와
타고
참석
했고
오픈
##받은
3차
태어났으며
##해진
##주와
고정
##제국
##이었으나
어떻게
기억
##로도
159
##형은
지낸
1969년
전용
훨씬
##케이
오전
생겨
청년
현재까지
이중
##수와
거대한
인기를
##ge
##지이다
##하마
문자
1950년
##안에
아들이
##시킬
팀이
##일러
##드에
##io
시각
프로듀
출연하였고
##동의
##포르
은하
병사
붙여
플랫
##리노
금속
판결
애플
2면
일본에서
##영화
속한다
요한
러시아의
마침
기획
##력과
자는
차지했다
역임했다
##ta
부임
##면이
46
공포
제출
##저우
##서의
전철
##나와
오히
고종
##박쥐
취득
타이완
예상
육상
장악
주식
이르는
했으며
##세계
오랜
사용하고
청소년
전쟁을
세계에서
창립
##겠다고
기반으로
##산이
살고
##리트
##프의
##항공
la
행성
의회
##력에
상륙
##다운
금융
신앙
##테르
점에서
머물
##서가
에너지
아르헨티나
##아버
그에
소비에
1960년
건국
공화
현실
확실
취급
라이브
##슨은
##미디
심각
##기압
##법은
178
원년
아테
브랜드
##쿠라
이탈리아의
##다른
##ts
가능성이
오래된
##받고
나와
182
1946년
준우
아메리카
##후의
그것은
무역
##기에는
53
ex
공산주의
1977년
모리
##유의
활발
##지인
##키스탄
강점
해당하는
주어
원주
##인민공화국의
대비
장식
##경찰
##판을
지붕
지닌
##스리그
##스럽
##일본
차이가
##물이다
국경
베를린
운용
##신은
스피
##리케
대략
소년
##ys
서양
경성
##ive
시작한
비난
계획을
강제
##가에
1964년
뜻한다
##형으로
##선수
##유럽
##화로
##추어
par
만큼
##지며
##0만
##ck
왼쪽
일으켰
주둔
통제
##생의
거리
절대
지원을
##물은
##문의
##소와
대공
앞서
방향으로
이른
고등
##당과
52
##법의
오토
##나의
사망했다
출신으로
거절
3개의
도서
##차로
보였다
시티
양성
승진
인공
##테인
스코틀랜드
카운티
오히려
##선으로
이민
이었다
포함되어
be
##협회
활동하였다
도달
갈등
두었다
##어진다
##같은
흡수
##조판
##병을
됐다
##m의
포위
1949년
ad
부상
오른쪽
5개
##리게
플랫폼
고속
아파
1962년
백작
##교통
롯데
하드
미드
동계
##음에도
소수
##분이
##류가
ph
합의
관심
동남
##령을
끝나
##리우
개시
##면은
##렸고
1967년
##먼트
##나이티
도움
56
##정으로
데이비
##호의
처음에는
그에게
만주
총독
##이었으며
본관은
임진
##보를
조합
글로
##자이
##ice
되면
혼란
##타이
히데
이용한
지상역이다
##에르
역이다
##단과
시간이
어렵
fa
아침
도망
자격
##무라
49
자이
##pa
후에는
프란
아들로
강의
이제
##여서
보는
아시안
나치
역을
유나이티
미나
신인
##하다는
클래
이룬다
##언을
반복
요코
해서
수송
##아서
장군
트레이
##ong
##마스
##재를
##리아의
##더라도
간단
보조
##술을
번째로
51
독자
제8
##소프트
약속
##ba
결과를
##안의
##이란
빠른
집행
분쟁
변경되었다
잇는
이유는
비록
플레이오프
지방의
##자기
벨기에
주고
발표한
##비의
아미
참전
##번째로
800
의료
##조에
##고속도로
후지
##국에서
##경의
대학교에서
곳에서
군대를
부활
장치
지냈
##종으로
논쟁
진압
도중
공을
시작하여
상당히
##니의
##ens
1944년
슬로
대성
왕국의
##사인
##지원
##지자
스크
58
때의
총리
메이지
점을
소비에트
1940년
보냈다
##수에
##왕이
높이는
반발
위해서는
생긴
광고
보아
이익
등급
1965년
명명
동의
발견된
##히는
##차례
그것을
##자들
##로그
##문은
통해서
헝가리
##보는
1위를
99
사법
600
##사건
선수가
##석이
1966년
이용해
창단
선거에서
ac
투자
한반
무덤
양자
##일의
##경제
수상했다
거래
##본을
177
사용되고
얻어
한번
##슈타
공식적으로
이집트
##크를
##스러운
##앤젤
받지
##패를
레드
##화와
##행위
포기
##티노
##산에
##계는
해에
이것을
1일에
천연
##버그
이나
pc
보낸
##사관
기록한
공군
or
다르다
1961년
탈락
##해도
##리우스
관료
##누스
콘스탄
하면
##조합
로스앤젤
훗날
##체육
합격
이야기를
여객철도
1로
넘는
영입
전공
##법이
##동으로
##교를
##카이도
6년
피해를
그런데
신성
선조
##치아
철학
생명
운전
세르비아
##의회
유사한
농민
않았고
지어
기록하였다
##설을
종류의
때부터
##하였지만
자살
뜻을
##축구
방사
대기
죽었다
갈라
sbs
승인
1941년
해산
##이므로
빠져
가을
##였으나
말았다
사단
##수록
he
##문학
pr
베이스
노부
다니
이전의
사건을
반영
규칙
브리
앞에
##생을
소장
알게
##차가
인도네시아
##수이다
##ps
시작으로
급제
장관
군이다
복합
전라북도
##연맹
지급
##ub
모양의
하나는
명이
쓰인다
##마의
##만큼
##kg
활동했다
##증을
프로세
##들어
##per
1000
내의
최다
탈출
문헌
보장
코미디
jo
경우는
coun
##씨의
운동을
수집
방법을
마케
so
인접
3세
도쿠
##브리
##시티
2선의
성인
이고
여기에
응용
합성
66
동원
좌우
중이다
엔터
##개를
한국에서
##음이
후기
##시에서
##국으로
이들의
##ich
알려졌다
경기는
높아
공통
둘러싸
##게는
국도
##부인
포함하고
me
플라
음식
##면으로
##드시
7년
중세
##조사
민주당
채용
공업
##모를
이뤄
받게
지키
진입
자세
##로드
세인트
페르시아
##타르
제외하고
나이로
지니
##니아의
서버
감독을
프리미
둘째
##즈는
끝난
구속
불법
연재
하였으나
맞이
##선과
반도
##라를
돌아가
형태를
로켓
작품이다
항성
말레이
새겨
가서
95
온라인
88
##되면
덴마크
완공
##스케
사건이
##리즘
##자료
국무
##ry
각각의
군주
어떠
출장
되자
##에만
미야
지식
##만은
존재하는
변환
##페이
챔피언십
57
마리
##플레이
##율을
이성
##기간
120
남은
로버트
정책을
1면
일부는
솔로
아사
당시에는
빼앗
##적의
##종을
들어서
그러한
달라
##베르크
시간을
##라와
##에게서
김영
##실은
개발한
특별한
분할
터미널
##씨는
##으로도
##노동
생존
맡아
빠르게
##미야
모여
나타내는
bo
보관
위반
기록이
트로
검찰
챔피언스리그
등판
##틀러
##학에서
지내
하였으며
as
학위를
깊은
함락
85
것처럼
정확한
##항을
마지막으로
##중앙
감독이
체코
헨리
##ate
의존
벡터
상품
논의
열렸다
실질
올리
주전
1919년
4개의
기술을
잡아
미디어
호텔
대부분은
없다고
수사
##명에
일찍
고용
##질랜드
선교
크로아
##시킨다
배출
후속
미군
유형문화재
시즌에
전파
재배
##천군
예측
##전과
풍부
##들이다
##일은
뜻하는
통산
20세기
제대로
프로그램이다
흘러
분열
사태
않으며
목표로
교환
동작
받았고
연산
무엇
2021년
아버지는
##비치
카르
기둥
처형
했던
대개
##이와
개최된
외부
반드시
뉴질랜드
##구에서
인터뷰
##미가
##우리
##바라
주관
특이
1958년
kbo
상승
감독으로
독특
파라
라인
회전
논란이
##마트
해양
일정
##방을
1939년
역으로
개신
진보
##네스
##공사
##ore
스프
니콜
오스만
0으로
쓰는
갖는
계기로
개막
다수의
##민주당
##16
중화민국
전주
##온은
대통령이
국회
독립운동
##통신
경주
##기에서
발표하였다
명칭은
##통을
##왜란
1947년
속한
##ik
이후로
화물
##계에서
1980년대
62
##무늬
에어
이시
##미를
어떠한
니시
득표
##명과
자녀
##화되어
소속으로
us
##되었을
웨스트
헤르
wh
졸업하고
지은
##af
##이센
포함한다
늘어
자신들의
68
##상태
1956년
작품을
성을
예비
다음은
63
불안
##보드
반대로
##리다
170
##예술
서비스를
법칙
사우
이후의
시에
##되었다가
아라
##리히
나뉜
##현의
가졌다
파악
트랙
학술
##석은
임진왜란
것이며
성능
##화한
합쳐
##전문
##ect
평안
포도
##장군
##르가
하나인
되며
ss
162
##일보
그와
향상
브루
스위스
인디언
##건을
역은
학습
샤를
올려
왕조
정차
치러
가리킨다
프로젝트
군의
##고는
넓이는
갔다
기자
금메달을
##주의를
어깨
주택
##바로
1942년
##동은
저작
마침내
골을
##신으로
##기까지
##뿐만
##하였던
시카
72
##성군
연출
지리
국제공항
대한민국에서는
시리아
요소
후보로
당초
신청
연대
발굴
사임
역사적
올랐
에피
##제와
##공화국
출간
엄청
##마을
74
마치
받을
편찬
##국민
##메리
전통적인
##조직
1954년
보병
능력을
소방
바깥
평가를
그레
주지
1952년
번의
보안
인종
조선의
조선시대
1943년
##야구
정치인이다
발견되었다
fr
다스
우려
녹색
##요시
완료
##주년
1920년
조절
##으니
##질이
##재판
간행
##름을
발발
오랫
한정
관계가
예정이다
ma
te
제어
임대
학문
군인
조별
침입
부대
효율
포함하여
쓰이는
코드
노벨
98
##무부
1959년
라고도
##하였다고
##책을
명을
무너
##프를
##락을
2000
인구가
성적을
##경이
지도자
##산화
##미는
##세로
##났고
보컬
장교
도요
##임이
문제로
오랫동안
##마이
점점
기대
나고
활약을
##해가
출범
##치에
##기념
##식에
##장인
##루가
##겠다는
##ant
위성
##리코
모아
dna
의무
이루고
레오
로스앤젤레스
받는다
성적
없으며
수영
정비
일부를
갈색
황금
미니
##구이다
##총독
알파
##론의
##없는
km2
활성
해발
##터는
보물
175
테러
##복을
펼쳐
검사
중부
##연히
161
만들어졌다
##주었다
텍사
부상을
임금
명확
발매된
제9
1990년대
뉴스
소녀
영화배우
이루어졌다
후쿠오카
8강
73
가치가
##토의
마이크로소프트
##음악
거두었다
반란을
바라
부르는
바뀌었다
추천
가스
일어났다
장남
지역으로
말에
인기
경제적
1위
사마
##계획
고속도로
##11
영화는
향해
연구를
침략
단위
사냥
일치
##ord
##에른
##판이
가담
##조선
일본에
개칭
단독
망명
##uc
##내에
선보
후계
이름의
공헌
승객
##투스
76
jr
신호
편이다
가나
철수
고문
다다
##시스
활동하고
가지는
크기
구역
##미의
##여자
나타난다
##ver
유일하게
번호는
##프레
##산시
##터를
불렀다
##동과
##령이
##크가
지금까지
##가타
##해져
##망을
데뷔하였다
규모의
조작
##원이다
대리
혼합
제작한
ic
연관
유기
##천시
접한다
선정되었다
의미를
##으로서의
법정
##박물
아이디
국민의
병합
차별
경우에
59
##방의
어린이
충청북도
700
1953년
임의의
스페인의
67
김정
성향
창조
기상
##사단
가리키는
취소
##거운
##리그의
썼다
쓰고
트랜
##pe
정지
프로이센
##시키기
나왔다
##레오
kt
스미
시위
글을
1955년
아테네
중인
##진이
설치된
##km2이고
혐의로
그들이
영업
질병
현역
있음을
지위를
##라이언
진화
96
바이에른
on
미드필
자리잡
소송
많아
176
고유
6개
##조로
이르러
작품은
마이클
강등
##들에서
##류는
내셔널
실현
##스포
유한
##표를
사용된
언제
##ii
##ok
##주의의
##그라
하위
방법으로
##진의
내용은
남쪽으로
##이었지만
지금은
동해
##end
##und
베스트
빅토
제일
가문의
없다는
자이언
##각을
처벌
교육을
##시험
대표하는
##qu
개입
##겠다
행렬
##보살
계통
##들로부터
받았으며
##화되었다
##파는
##게임
##루를
근본
##니가
전형
시작된
안드로
미드필더
sy
##up
통상
해상
나들
이들을
##카가
br
공사
it
##고기
왕실
마무
타이거
다수
상태로
목소
해당한다
77
그때
박정
곳으로
진주
##로마
나들목
##티오
1957년
거듭
따로
##터가
##일이
##왕은
그레이
신뢰
비례
스티
직업
##리나
출시되었다
##ib
##고등
놓고
1만
절반
차이
대부분이
정기
그렇게
자극
##디션
##자로서
##타는
것이라는
엔터테인
세력을
승려
##층의
것이라
안동
원소
이기
적절
##였지만
##ast
연결하는
##평균
재건
##대부
폐쇄
이전에는
체제
예수
이른다
제공한다
소련의
여겨진다
무시
##하므로
프랑크
마르크
한나라
나누어
방정
코로나
##재로
도모
메인
##개혁
이라고도
독특한
심리
##터리
김일
동아
확률
##님의
나뉜다
존재하지
##족이
상당한
##섰다
스탠
140
루마
안에서
오페
올렸다
##사이트
설립되었다
상대식
곳이다
사운드
##인도
##안은
주장하였다
##우주
164
행위
전직
초등학교
158
##동생
일컫
않게
##사무
##가인
발탁
영상
하에
##서양
##차는
##슬러
##관계
지시
##어이다
얻은
유행
도와
북쪽으로
피아노
##iz
사람들의
부분을
누구
느끼
중에는
선박
소멸
프라
확립
##12
진행되었다
총선
시카고
nh
코르
나타내
아스
##로와
드라이
섬의
163
잠수
터널
##남도의
연고
##파를
156
##프리
##었기
프리미어
어려운
86
프린
##치게
개설
시작한다
기록은
상위
##격한
올림픽에서
준다
2008
##상이다
저서
창원
상대적으로
길을
개신교
바닥
잡지
크고
##체와
87
sm
분위
일시
등장한다
선전
카드
##마르
부하
1번
대회에
접촉
와이
출전하여
새롭게
속해
##사우
기울
변형
내렸다
통계
##동맹
아들인
받아들여
멀리
무게
##에이
일으키
##레옹
##머스
1970년대
다소
##함이
동안에
개찰
상하이
8년
페이
이끌었다
##안이
테이
프로그램을
벌어
인쇄
##토니
입장을
county
조종
유럽의
특징이다
돌아와
왕이
##곡을
노르웨이
작업을
징역
서울대학교
도시이다
##되는데
있었기
심각한
go
1938년
히로시마
한국어
1936년
주최
도시의
부친
##함과
보유하고
afc
##루는
##학자이다
부산광역시
들고
암컷
궤도
관여
떠났다
복원
만들고
1의
드래프트
자라
##진은
기회를
말이다
명나라
##관과
##데이
##씨가
##ight
##색의
##하지는
##부사
의학
제공하는
##스럽게
전한
선출되었다
초기의
희생
운영하고
93
다르게
단편
신학
조카
시나
조선총독
나폴레옹
장수
맡은
지켜
97
후원
일정한
가와
네이
1918년
##15
갖추고
저술
최우
못하였다
가마
속의
전까지
화산
##ure
태양의
일부가
스카
세계의
불렸다
##포를
##경은
##론은
##했다가
##고가
특정한
티베
일어나는
78
##부대
1951년
사망한
돈을
왕의
자전
다케
매일
##퍼드
위로
152
전쟁에
##0m
관직
변화를
개조
리처
동북
##자들에게
##ans
몰아
않지만
1960년대
출연하였다
개체
태국
히틀러
##되었다고
##ial
##ld
##텐츠
145
대체로
선임
정교
##쿠스
발생하는
상황에서
클라
##행정
사용하였다
##석의
2012
기소
한글
1937년
플래
무한
크다
두려
##뮤니
선생
앞에서
원주민
리더
석유
연구에
##ob
메시
##론이
##세대
나아가
코치
##식과
inter
복무
세웠
##별로
168
165
바둑
추기
##키가
##히고
이로써
다리
분명
심지
어디
투쟁
##베르트
지구의
가슴
의혹
전면
한자
##주고
1914년
84
따서
전신
프로토
데에
서쪽으로
##art
연결되어
무사
##드라
밀려
집권
##전에서는
##격으로
동쪽으로
기록되어
그래픽
전쟁에서
완전한
분해
가진다
##파가
가게
쿠데
##물에
##이닝
##관에서
##오스
스마트
홋카이도
자리에
##치지
##점의
나타나는
숙종
##시리즈
##지컬
나타낸다
##ational
92
효과를
##법으로
사업을
##원군
전부
##행성
남아있
필요가
향토
##ff
미국과
근처에
외국인
##중의
물을
이혼
##색으로
작품으로
조선시대의
구현
맞아
추구
개봉한
구입
##bm
번주
현지
화합
##강의
구글
단지
토지
역임하였다
##기록
가이
아름다운
부진
함경
##문제
##개가
대의
전쟁의
브레
왕조의
재임
##타로
텍사스
##르기
##vd
학살
##메리칸
중학교
높다
유고
동성
표면
한일
해야
##ort
cl
##de
2010
로마의
##례를
참가했다
꼬리
어머니는
가치
##비로
듣고
000명이다
점이
대통령의
수리
탈퇴
종사
##ug
154
그로
##속에
##비스
저녁
조지아
제10
동양
지지를
쓰여
##cc
데이비드
##질의
다운
다음날
2016
오키
천주교
미국은
##one
비상
##국제
기록하며
ps
권력을
살인
재개
남아프리카
측면
##체스터
##국가
이후에도
1930년
내용이
역에서
열매
부분이
돌려
설득
##공신
관련이
61
##어야
영웅
적합
정권
사람들을
##었을
필요하다
공화국의
노출
문을
##man
격파
루트
기다
전력
10월에
프리드리
시상
##네이
이적하였다
파르
양쪽
##부장
2번
##평가
1932년
가공
언덕
올스타
##we
열차가
연간
위상
##주의적
##야의
##백만
##일로
운영하는
신체
후임
##조참
보건
준우승
밀도는
##ust
여섯
##계약
즉시
##루의
있었다고
##ack
자이언츠
분노
해도
2013
명령을
중추
일으켜
##양을
cm
##브라
사실이
양의
##공원
##자키
3월에
##생물
경력
사용했다
상을
포항
그리하여
157
1935년
임무
##우의
벌어진
오직
유효
이루는
이르렀다
김대
책임을
##린은
##었다고
눈에
비롯하여
백제
코파
##ly
1933년
권력
94
들어갔다
2세는
##련의
수상하였다
엄청난
크로아티아
거느
대통령은
의심
환승
분기
수석
화성
166
차지하고
벗어나
##리며
##인들을
인조
스키
인권
##구치
139
##타운
맞서
찰스
역사를
골든
##ind
82
부담
주간
시리즈의
조건을
초에
##사전
달려
인지
##정과
그렇다면
##베리아
im
미쓰
추산으로
os
레알
전송
대대
선포
2로
동방
형사
끌어
남겼다
후인
##보고
지니고
곡은
이상이
순환
한성
발음
시스템을
싸우
추가로
되는데
##호에
##주군
블라
##혁명
부분은
음악을
83
초기에
나온다
콘서
my
car
대량
세상을
싱가
나고야
ms
만다
유배
제후
##목에
문신
않으면
호소
##우가
이름이다
1934년
69
잉글랜드의
오프
화려
20년
주장을
못하는
산화
##영의
##타의
##역과
##분으로
##입니다
##ith
만든다
유학
줄어들
수컷
보았다
##이라고도
지속적으로
희망
16강
bl
수요
##라고도
155
여러가지
대한민국에서
당시에
아래에
밝혀졌다
12월에
##렸으며
말하는
153
참여했다
더블
에피소
방지
도쿠가와
뛰고
공중
##중한
유치
we
상태에서
벼슬
얻을
1910년
89
기병
##파로
노스
수소
##연대
나라의
이라크
요코하마
재학
수도권
북아메리카
밝은
의식
행동을
오다
독립을
연평균
man
호는
##되지만
##인인
##포로
##왕을
생애
##레아
바르셀
주에
이른바
액션
##터의
##족은
다이묘
광복
상실
##다란
협회
##만으로
9월에
성직
타격
##공을
대표로
업무를
게다가
내세
개국
구매
ed
개방
장비
##듯이
수술
##계로
wor
느낌
추방
회장
상황을
3대
노선을
탐사
말레이시아
##공산
2층
##발을
명단
최대의
검토
별도의
2017
달아
입법
##미르
172
이들이
아이돌
달하는
화장
뮌헨
방해
스케
에르
싸움
##름이
남극
상속
##슨의
##ach
##만한
##산군
2018
명칭을
크리
col
##니즘
##간을
개명
##범위
로드
인용
##ical
1군
일은
차트
장소
##영을
##처를
##았으나
2014
스프링
갑자기
라이트
테스트
##코스
##에서만
리버
강릉
없게
직전
##인에게
##등을
연습
##피스
농구
커뮤니
##동물
오늘날의
김종
대장
##연을
##위와
구멍
의미하는
##거래
마무리
넣어
2015
되돌
갖는다
##키퍼
##ide
##영은
입고
167
수의
##비히
에드워드
십자
##데르
##학자들은
원래는
130
위에서
형식으로
홍보
사용자
위치를
주기
가깝
약칭
##방향
##ory
포스트
복잡한
아오
탄핵
##마를
사퇴
멸종
##환으로
##목을
홈런을
##유가
사찰
##등의
특징을
수익
파워
이온
##마는
1928년
고위
뮤지컬
새끼
그곳에서
사가
특성
110
전투를
##ock
위원회
1인
##가락
##ung
동일본
비잔
제이
##ace
##트릭
분자
올해의
1924년
1회
이웃
디스크
해리
##천만
노래를
몸무
소집
cp
대법
몸길
걸친
연예
사건으로
gr
##하여야
결의
79
hd
보스
##결승
공산당
71
제도를
현존
성남
##라에
단어
##학교를
나타났다
##키의
##과대학
끝내
##바일
없을
##베스
말이
청구
세계적으로
우수
임무를
##감독
09
논문
화이트
##가시
소형
이자
있으므로
영구
모토
지중
사건은
주장한다
단선
항의
프리드리히
사막
##중을
아버지의
##타카
##모가
##오의
알바
공장
천안
##산과
##기인
##사이다
골키퍼
2009
수십
보여준다
였다
베어
규슈
포함되었다
논리
##for
2011
포함하는
게임을
시드
가까이
자금
받아들이
sch
방식을
사전
토론토
##양의
구성하는
마드리드
개별
##받는
##강을
철거
##왕후
당나라
##해군
교류
드물
8월에
일으켰다
##스트로
암호
174
도전
소식을
노동자
분야에서
##시스코
18세기
체육
출신이다
그것이
조선민주주의인민공화국의
151
콘스탄티노
##관광
6월에
탄압
4월에
서기
서구
##타마
경기가
ag
##대신
필수
##감이
문제에
강남
권리를
##호선의
하여금
04
공주
##판은
##즈가
참조
파키스탄
5월에
올림픽에
부르기도
청주
정부에
군사를
완벽
이어지는
하기도
북극
폴리
##되게
드래
극장
##비에
참가한
##고의
sa
근육
##형에
매장
신도
이외의
파트
그려져
폭탄
##펙트
sn
방영된
마주
몸을
##서와
##자동차
공개된
능력
음반은
섬식
##우를
충분히
곡을
태조
##달러
다음의
경남
창작
권리
사도
프로그래
도덕
생태
음반이다
최근에는
진격
질량
##당으로
크레
미리
배포
정체
아래와
원인이
혼인
이용할
1세의
##호와
전동차
콜롬
김성
##제르
브라운
강을
시인
##활동을
##유를
그들을
교차
만한
연안
포함된다
개척
유통
##중이다
서서
성공을
발언
2019
##로서는
구성된다
하와
7월에
대상이
디스
오카
##중인
대부분을
서술
##재가
마크
마감
원시
##다의
돌아온
대동
덧붙
##디움
명칭으로
성경
1921년
영토를
세부
확산
##친다
##파와
##실이
개량
꾸준
루이스
나왔
팔레
되기
들면
##ment
##아는
상관
##린의
##차의
거짓
1925년
##ath
속도
종이
성공했다
좋지
기본적으로
이즈
차단
단순한
모터
순간
문제는
방법은
2회
남아메리카
소프트웨
본격적으로
##아이
##목으로
폐지되었다
앞으로
지불
쿠바
##양이
##폴리스
##렬한
단순히
mv
놓여
보이지
주력
##되어야
작동
##환을
바르셀로나
사우스
##하를
일종의
타율
##제도
##레는
루마니아
cr
내가
부동
시가
##00만
1922년
착용
1931년
붙어
식품
현상
##조건
##지니아
##실로
##ton
카라
##iss
##경기에서
내놓
발간
아메리칸
##50
상태를
유력
km2이다
좁은
146
시사
행정구역이다
##독립
리그의
##슬링
사람이다
11월에
아버지가
서일본
자원
직원
##해에
##ary
지대
연료
ep
교회의
##과정
##지마
최우수
이상을
약탈
집에
대칭
##지면
2세의
##ica
lov
곤충
비트
##열을
검색
작사
정식으로
##노스
##ick
책을
##법인
##살이
농촌
##기지
동굴
시조
##나카
##군에게
끝으로
비공
손을
진학
##조차
1923년
##주의자
본질
##기구
##했었다
##클리
광범위
작곡가
##름은
3번
신의
포트
##투아
08
부속
세계대전
나뉘어
명으로
박쥐
입은
타임
##드리아
영국에서
편의
##느냐
##는지
81
정도이다
각본
사다
했는데
##되거나
##크래프트
물려
백성
입장
##소설
불가리아
의정부
##평을
계속해서
고급
긍정
무릎
산하
웨일
##하시
##무장
##하기를
가고
보편
1929년
소속의
이세
가설
영조
아티
알레
##에선
##ies
##등급
게임이다
캐나다의
세월
영화제
라이온
베네치아
사회의
유적
할아버
##시장
뚜렷
일원
##로에
##비시
##본부
모바일
##개로
##정치
사항
##어버
사람들에게
개념을
유나이티드
섬에
하나가
건물은
원인
##hn
참여한
위치에
보여주는
배경으로
##됨에
말로
서북
본토
대다
프로듀서
본선에
적도
중성
화폐
공연을
멀티
일련의
##면과
##씨를
##하기에
계곡
죽자
상주
경유
땅을
시작했고
1억
감시
우리는
주변의
부드
안내
주된
171
리그에서
2020
가난
##토리
##란색
초기에는
##어에서
영향으로
주장하는
new
본다
##ma
##기이다
전문가
##스트라
##보호
##도서
보냈
메모리
부르고
##힌다
미국으로
17세기
병원
여성의
접속
그리스의
사랑을
먹는다
방언
오는
신화
##침을
실시된
자랑
##체이다
##론에
어두
흑인
입력
##리안
##land
지칭
구원
후퇴
##니스탄
정치인
성질
열리는
일본은
##미니
전형적인
개장
군대
op
특별히
you
사립
해설
모양으로
리처드
거리에
마음을
클레
이어서
보험
소화
용인
칠레
죽음을
##마가
##령의
##현은
복음
새벽
##ca
##계와
웹사이트
##시대에
30분
##특별자치
##sh
000명
##민의
손자
토벌
황제의
등장인
4대
로서
우에
봉해졌다
##무네
세워진
수호
창당
##비트
혈액
목숨
집안
##48
##즈를
6개월
##라면
##치기
삼았다
mo
토착
##북도의
pa
정통
커다란
실천
참고
##치오
출연했다
레닌
프랭
해협
그녀가
부상으로
포유
1926년
이념
##테이
1917년
자가
재산
데뷔했다
정확히
el
가속
축소
강수
자매
##호쿠
##세한
후보가
현급
2군
승부
정수
##에서부터
1927년
순서
##학은
이외에도
9년
예전
재능
변호사
패션
##크와
##국과
101
5개의
가상
dvd
mon
##30
##이게
##도니아
##로지
##집합
피터
매주
세력이
첫째
##타가
##슬로
2007
149
##향을
지역이
도쿄도
고객
요미
주재
##대장
블록
오이
용어는
당사
후에도
처음에
인구의
##조판서
태종
허락
기도
필라
##미아
공기
메달
서명
##ence
##ass
참가하였다
엑스
##신문
상하
##판에
91
가끔
##청은
엘리자
ge
올라가
영화의
삶을
맺었다
##토미
개인의
지었다
플로리다
남녀
세리에
요금
국정
유전자
준결승
전북
##레인
##한의
일단
하던
서쪽으로는
영역
호흡
##프랑
##점과
맺고
##내의
획득하였다
담고
수직
쓰러
##슬라
대한제국
기반을
게르
모노
##받침
##같이
소요
콜롬비아
본명은
##졌으나
나이에
뜻이다
집을
##티움
사건의
##age
스웨덴의
구로
국토
막기
재생
##석으로
카자
상태가
일상
##co
구사
전남
혼자
##리브
##나마
##행이
##함은
일으킨
동치
인상
접하고
서방
위대한
콜로
##대문
##학에
동쪽으로는
로봇
남쪽으로는
실수
##체인
사건에
획득했다
명단에
스탈
##령으로
##바키아
신고
크라
인기가
입사
##리언
##율이
곳은
##이면
##ern
상무
##폴리
반대하는
07
보스턴
인도의
##아르
##작으로
1세는
kg
하사
주변에
반응을
한화
##배를
골드
##중이
##았지만
프라이
169
행위를
경향이
순위
대학교의
2위
강하게
재료
아르메
##ivers
적극적으로
영양
잡고
##장애
##pl
1907년
종로
강요
노무
몬테
마그
##하에서
##프와
감독은
공원
##그램
147
흰색
많았다
보르
크기는
##권과
##까지도
갖게
우라
이하의
##심이
방송을
치렀다
이어져
않기
열었다
전화
허가
##절을
1912년
박정희
##당하고
보이고
아틀
운송
하인
##였는데
경전
파크
스크린
05
화가
포켓
하천
알고리즘
##치와
##tt
살아남
##로미터
##가능
##식에서
가치를
센트
이재
##시스트
##ase
문화재자료
로맨
억제
힘들
아들이다
교수로
동반
##속의
##더스
압축
역의
집필
##카의
부처
선형
탄소
15일에
제12
고가
사형
압도
초청
##니와
##각형
##지방법원
##우스는
##족을
모습이
위키
##결을
1월에
지방에
국경을
모래
현상을
상호작용
대서양
가시
소스
부유
코믹
독재
##코는
##민족행위
고시
수반
##갔고
지정되어
제13
크기의
분데스
이벤
크기가
또다른
소리
시게
실내
##성에서
서식한다
사유
해병
comp
중종
8개
##의가
차지한다
##류로
##았는데
결승전에서
주식회사
##단에서
그러므로
수백
기하
넘겨
##이상
사이를
1905년
이은
지향
폭력
##물과
살았다
회색
##종합
시절에
맨체스터
밀라노
북쪽으로는
캠퍼
##한다면
말라
##코의
세우고
보살
생기
수를
이적했다
그만
무대
지바
##페르
미국인
소득
있다가
지역에서는
비판을
훌륭
##청의
계층
범주
쇼와
칼리
스트리
공개되었다
석사
커버
입단하였다
분데스리가
##프라
##보기
##레나
##모의
##슬라비아
사제
게임의
전체를
em
##유산
##ond
영향력을
공간을
고안
되기도
우익
도시는
설치되었다
심장
##어에
##ula
##류에
고고
인천광역시
##하라는
않았지만
스트라이
감옥
과도
물이
양산
##식이다
##관계를
##집을
2번째
옮겼다
사촌
##오고
발표된
데이터를
스티븐
mm
사람들
로렌
북미
##나게
##훈련
쇠퇴
##보병
실제로는
싱가포르
##오로
##문과
1908년
분포한다
안드로이드
반면에
산악
외계
##되던
미국에
발휘
조기
탑승
도중에
역사는
관해
사로
##ier
전해진다
##마뱀
무인
모임
시모
주어진
총선에서
135
스타디움
유입
7개
앤드
141
옛날
##머리
관계에
발전을
참모
##건의
기용
##당에서
동경
마틴
보이며
없지만
지내고
미분
##스컵
구간은
소규모
예방
##ish
이끌어
병력을
상의
트윈
##ep
##렀고
불리며
오페라
유튜
손에
크루
##위원회가
역이
한반도
명시
##안전
공룡
대학의
##운동을
이날
학사
현대의
##스팅
1개의
성의
성벽
찬성
황태
석방
2월에
박물관
국가가
되었는데
들은
호주
역사가
비롯해
명칭이
고리
와서
한신
##마루
##브로
##치며
상태에
안토니
교향
방위
##해지고
##종이다
사이트
##교도
일어난다
이곳에
##용의
멜로
나타난
데뷔전을
빨간
##모는
길이가
##프란
##브를
1일부터
지나지
남겨
오버
알렉산더
mvp
일곱
##단이다
대화
예산
유발
촉진
코너
##정도
글로벌
등도
##밀한
##클레
유대인
이글
주와
포함된
교사
먹는
클리
기구
방면
후기의
##나고
중국에서
감사
좌익
##러는
144
이미지
무산
왕위
주거
중시
행복
##비행
##자유
만들기
인물로
발명
적어도
돌아왔다
졸업한
곳을
예로
타원
하느
1906년
173
그럼
대승
버지니아
##르바
##게이
하노
##학과를
06
대변
##카미
##mm이다
당선되었다
심지어
민중
##보로
##통합
그녀를
김해
특허
##다시
참가하여
차지하였다
겨우
오케
##마에
##se
##슨이
권한을
단행
중지
예외
일대
##토는
##법과
설립한
상황에
곧바로
무관
신분
##원숭
##르를
데려
관계는
이론을
셋째
정권을
하다가
##말로
##나라는
구간이
심사
의거
2의
음성
중에서도
호남
##소수
##ft
유고슬라비아
아동
전술
거대
##여래
143
붙잡
성격을
##타와
01
이명
회사의
##비와
##즈니
전체적으로
대지
도메
빌보드
이행
챌린
토너
이용하는
발표되었다
다루는
유인
입문
광역
입대
철저
##담을
졸업했다
적응
아울
없었고
##ai
시대에는
기능이
들여
##등이
qu
죽고
##자였던
148
정부를
##류와
##보다도
발생한다
기동
성과를
자체가
##노미야
일본인
안양
##한국
작품의
03
히트
##칸센
서식지
법적
수감
수준의
파생
##란다
중립
##용을
##우라
탐험
제11
운동에
파울
##우스의
말해
선호
##리티
영국과
4강
무리
##우옌
추대
##보험
##양군
##연의
이어졌다
대선
그라
소리를
아무런
##주의와
바이러스
주목을
##우고
##애나
2만
후의
##000
##하면서도
바람에
##병으로
아마추어
급격
마치고
아리
##our
##차에
##베리
##츠는
거리를
동서
익스
##크스
빅토리아
##ix
입었다
자신은
규모가
에너지를
영화를
은퇴한
거친
금강
부통령
전의
##tion
지원하는
폭격
의미가
1부
가야
##구조
##계열
##릭스
차지하는
##환경
##대상
막부
천체
알리
138
마쓰다
##세와
천황의
우리가
##적이며
의미로
##카드
ab
메트로
중동
##편의
아래의
블라디
콩고
합동
##이치
인근에
주니어
의견을
마라
유용
작전을
추락
판타
상황이
12년
독점
##마저
마오
별로
크림
125
걸려
내는
##ite
##olog
1층
삼아
유아
가수이다
비정
##년에
영원
##청이
##쳤고
받으며
전임
습격
운항
코스
다음으로
잠재
주요한
##보이
이르기까지
티베트
겸임
##졌을
것인
내륙
##루미
지역이다
레인
항구
구성원
모양을
##지기도
##졌던
전승
비잔티움
되찾
노선이
두려워
못하게
신칸센
테오
##디는
본선의
부탁
고베
납치
뜻으로
색깔
흐르는
기본적인
코치로
##카는
소위
야스
지질
##나라를
love
6개의
대원
##0km
##ium
##ve
타이틀을
비로
우루
지표
체험
##되었다는
도시를
약간의
운반
원하는
중심지
##펙트럼
날개
마카
1900년
동아시아
##성도
##국인
##베이스
라이벌
발족
장갑
극복
모로
승차
유키
주파
##생활을
실업
##피를
맞추
영혼
이복
정류
##탄을
부분에
##판의
에스파
메탈
점성
주어졌다
##교는
위치하며
02
공무원
책봉
univers
공정
##사람
##문관
레이다
밖으로
##현을
##연구소
방송된
모습으로
활약하였다
##버드
일본어
##ms
##주의는
배열
##총리
과거에
기여했다
남한
가쓰
사람으로
대해서도
##지구
142
비틀
페이스
##실의
##자나
경계를
그들
라운드
##대사
##int
관광객
간섭
설이
##족과
##이라면
##졌는데
서울시
선거에
30년
4번
퍼시
10만
황후
동지
성종
창간
긴급
마법
##시스템
2대
없었던
##현이
미국이
관하여
정벌
아직도
전향
오염
호수
있어야
간접
장례
전작
진출에
연락
증언
##끼리
##졌지만
이루어진다
eu
콘텐츠
103
이곳에서
되었으나
클로
털이
후한
내지
##교가
않았으며
2세가
올린
##실에서
조선총독부
di
주제
##령에
##투표
도움이
맞춰
책은
최상
##령은
##률이
뒤로
변화가
트라
한강
##me
고지
기부
꺾고
레지
수천
쓴다
##편성
##아웃
##하였을
웨이
유물
준공
현의
사령관
모듈
수밖에
특급
되었다고
풍부한
리눅
스펙트럼
신사
##공간
수록되어
북쪽에
정조
당해
망원
무늬
평론
사용하지
mc
##의원
2006
구마
##산에서
##문으로
서남
전원
의도
항해
##미술
##청년
1904년
옆에
활동한
형성된
주도는
동맹을
15년
cor
당의
번뇌
선두
청동
휴대
##파에
대회는
보기
##습을
##광역시의
아케
친선
##ah
##토가
##오가
근로
시마
136
결과로
##리케이션
르네
제15
친일반
별도로
보좌
퍼져
##자들과
벌였다
105
일본에서는
137
종교적
놀라
지역과
효과가
##필드
mus
발렌
제네
레전
명성을
배급
제도의
열차는
못했고
##gr
임신
유럽에서
원형
안드
##포스
##바다
개발을
꾸준히
담은
서독
##전자
초상
##마쓰
##자였다
경기장
거둔
##본은
##럼비아
일본이
개성
기온은
인증
##노는
대회를
공동으로
고교
바위
##즈와
인물이다
per
매각
##나를
제17
미시
발효
시달
##센트
##든지
##팀인
아르메니아
ip
부장
뿐이다
인류
나라를
##권으로
fre
동시
##영이
##플로
덕분에
와카
문화적
지원한다
ser
기재
루트비히
간에
동영
막아
사양
##래의
방법이
##활동
##테쓰
##aw
10개
##액을
불리기도
발매한
자전거
몸무게는
포켓몬
성균
엔진을
지배를
친일반민족행위
##프스
##기능
그레고
발생하였다
항공기
두드
원로
##긴다
##au
우승에
마시
막을
삽입
호환
##브레
들어간
정의할
##수도
카메라
착공
피렌
##자이자
##되었기
##ction
##안군
##페이지
들이
연고로
조약을
결심
다큐
두산
영주
지연
시간에
##드르
방향을
대만
대단
벨라
분산
아프가
2위를
고립
사과
오리지
입단했다
살펴
사적
지어진
##구역
##올린
이종
##실한
##주의에
필요로
고통
127
스타크래프트
경북
군대가
이정
목숨을
오클
카페
##률을
스마트폰
게시
모험
반사
##루살
않았던
##들인
눈을
##발전
출전했다
개업
정원
##to
##노의
신장
말은
밀접
얻게
마음작용
구름
원산
추적
##보통
프로그래밍
##초의
이야기가
역과
##마리
1911년
못한다
##니에
빌딩
성과
##황후
##돌프
아프가니스탄
해군의
##세기의
하우스
##로써
세계를
##위대
1950년대
발생했다
##터와
때문이었다
한국인
맡았으며
삭제
구조의
전체의
노르웨
##루살렘
그랜드
##율은
공식적인
등이다
초래
플루
##식물
##에게도
달의
브레이
잃고
##체에서
테마
##공의
##소송
128
world
##고에
리투아
마산
이수
##ee
우리나라
##화하는
들어와
현존하는
낳았다
미네
무선
신하
이지
목포
비스
졸업하였다
1896년
이외에
아울러
심한
##상으로는
한국에서는
대학에서
유지하고
말하며
순수
적색
##홈런
히어로
향을
##둥이
내용의
이르고
파트너
##천의
##속으로
##우에
##로동
문화의
닌텐
아비
역전
##les
오키나와
##팀이
상태이다
등장한
디젤
##방이
남양
2004
통칭
대회이다
공전
중이던
중화인민공화국의
총재
페루
경력을
당했다
많고
해제
nhk
급행
남쪽에
##보의
남아있다
최근에
john
##롤라
나가사키
법원
일로
##모델
소속되어
계획이
아우구
깊이
모음
##가루
마르크스
집에서
##프란시스코
동메달을
사이클
없기
자손
##석에
##함으로
적절한
가라
계기가
돌파
여의
##급의
##병이
##저스
20일에
계획은
##현에
관객
전망
##건설
원래의
재단
##도사
활약하고
마스터
여덟
카이사
종전
특성을
합리
아니고
제14
마케도니아
연설
모델로
오리지널
스톤
응우옌
쪽으로
##amp
사진을
압박
비가
플라스
호르
3위
세로
연루
정도가
피고
##니스트
##방에
발레
온도
##사기
공직
##파이
##번호
##토를
##oph
강점기
시를
중앙에
군을
빛을
##오와
훈련을
라틴어
공민
어릴
##보가
센트럴
아베
세계에
##레이드
발견되는
##편을
##민당
도호쿠
##분은
gen
##지사
##경기를
개최되었다
그럼에도
왕립
피난
##슬림
크로스
1세가
대로
##데이트
250
문화를
바이러
미얀
일원으로
입증
##심의
##위원회는
드래곤
공립
창건
##패로
확인할
예루살렘
##인명
##하겠다고
자료를
사기
##수엘
30일에
pla
추증
브라질의
2루
막대한
선제
클라우
25일에
모시
##수산
##랑이
제공하고
gu
뒤인
주에서
베이스볼
사우디아
극단
샌프란시스코
##보면
##전한
##경으로
국가를
착륙
##트롤
존재를
fl
2005
그리스도
모집
홀로
##티스
운동의
네덜란드의
들었다
##ost
마이너
벗어
오렌
용어
중기의
##hz
계열의
군대는
##온의
1909년
데리고
아들을
일환으로
##발의
##등한
pe
##터로
기록하고
담당하는
인터뷰에서
이치
리그에
gre
거기
스승
##즈키
100m
인텔
##전투
혁신
##나르
빨리
제휴
##14
3번째
대주교
양식
##글라
결승전
사우디아라비아
3d
버리고
은메달을
제16
지중해
필라델
차남
##성이다
##판으로
##메르
##차원
##츠의
때마다
특수한
##우치
##테스
##법인이다
##son
결정했다
제국이
백인
유성
현종
16세기
##이었는데
강이
분광
##13
커뮤니티
##시켰고
##관찰
##후에
사로잡
활동이
물리학
##말을
##으려
dr
끝났다
여동생
##카스
11년
끝이
파티
##트랙
es
복구
없으나
있으면
협상
약한
##하러
##환의
전투가
복수
##고한
하와이
월간
시작했으며
목록이다
고조
단종
all
메르
아웃
여왕
아이스
가미
##해는
##자책
길고
성씨
연계
##단계
##진흥
활동에
레전드
애국
##m이다
##등록
13년
고도
무슬림
후지와
기념물
클래식
이오
##토스
돌아오
곳이
귀환
의장
아니며
브라우
##스톤
##꼬리
##업이
##항은
sf
영광
해적
일부로
임명되어
공략
가능성을
결과적으로
자유를
애플리케이션
마쓰다이라
문재
적대
##제품
##anc
라이프
매니
빌헬
야생
포맷
관심이
측은
##마자
##병원
##였다고
##기관이다
독자적인
금메달
적의
##ism
##스테이션
다룬
##해진다
항공모
성질을
안쪽
옹호
##ga
##고자
설치류의
##리시
##석과
1915년
나선
액체
왕위를
##실록
국가에서
최종적으로
푸른
##사지
머리를
박탈
##학회
##곡은
역사적으로
면역
최신
##토시
왕으로
##ere
위기에
중력
일본군
만난
것이고
간단한
호칭
추가되었다
전통적으로
내장
적을
##18
성공적으로
다큐멘
못해
급진
용산
##민이
##변을
사이에는
아니었다
자리에서
레벨
머무
보잉
트럼
##ime
곳곳
때도
범위
업데이트
바꾸었다
이익을
가득
교섭
냈다
이토
##니치
##왔고
##ame
2부
ho
모순
안타
에스토
플레
##니를
##ric
2008년에
지냈으며
건담
무력
스틸
싱어
축제
퇴각
##이즈
했다고
프랑스는
일찍이
##바시
11일에
des
결혼을
##ance
승강장은
거슬러
그동안
차이를
힘이
##있고
2007년에
대구광역시
다녔
리드
코리아
결과가
후반에
##ina
규정하고
브로
쿠르
가능하며
아파트
##온다
##론과
제19
intern
과의
당한
불렀
않도록
의원이
중구
테크
##반을
운행하는
프리미어리그
카자흐
점은
실패했다
발전에
##ale
베네수엘
어두운
cent
라트
보인
친일인명
변신
없애
자격을
2004년에
공무
성은
##회로
##하르트
분리되어
전세계
필립
무신
##청을
레이블
##케이팅
감정
무료
불만을
해임
타입
##라미
##지붕
김영삼
119
아가
힌두
시작해
관련하여
출토
##과이
##ke
10일에
결과는
분야의
##자리에
뒤에는
신라의
관통
모르
바티
저택
토마스
형태가
인간이
이듬해인
공용
내부의
##규칙
108
명종
##ann
전투는
요구하는
nba
라며
말하고
미토
세균
배제
트럭
##카르
전투에
충분한
개념은
거주하는
##시즌을
에우
줄여서
##실에
1913년
##들과의
과학적
친척
##공학
##형과
##자이너
기호
반지
타워
항일
##다니
##본이
지지하는
##있으며
케이블
정찰
직무
##대원
##비디오
프랑스에서
2005년에
3개월
세계적인
목적은
왕족
##시피
##코프
##겼고
##음에
##온이
##구리
##ata
2006년에
동남아시아
ng
##연한
##ult
비서
처럼
패러
##하라고
##사이드
다이아
번호
체제를
##면서도
경험을
아나운
프로토콜
화려한
보한다
출현
##널드
결정을
과학자
##dp
늘어나
병력
##인들에게
##군에서
제2대
후보를
프레임
gro
세조
술탄
찾는
##명인
##ron
포인트
화재
##바나
##안타
작품이
학교를
두번째
스카이
외의
##등에
##그로
제국은
남부의
동구
조용
현상이
##ile
##된다는
000명의
떠난
##성한
##편이
음반을
##바의
##사추
##내에서
이승만
유튜브
대우
투어
폐기
무효
부흥
손상
전두
##금이
##직에
주장이
대신에
사장
섭취
외야
친정
커피
때때
유소년
재즈
##스포츠
1895년
공채
서경
양도
언어로
한양
##강점
생각을
근처의
감각
둥근
몰락
첫번째
비공식
우수한
캄보
##격이
제18
평생
##투쟁
미치는
오세
유신
착수
##유로
##렸던
지명을
방식의
힙합
선수이자
기록에
직접적인
노선은
14년
동독
베타
유니버
서서히
법무
죽이고
황제가
##트리올
회의에서
랭킹
열어
전성
방영되었다
별칭
##란을
26일에
전염
찾을
##안으로
수신
장편
##old
재발
트위
##받지
##증이
102
사고로
##17
##출을
##팩트
군사적
##bert
본격적인
배정
##리크
##률은
##님이
염색
작고
채로
gl
기생
메디
법학
석탄
사람에게
덴마크의
각기
자식
죽을
악화
야기
의병
##주인
배를
27일에
##스테르
주말
함유
##야는
dis
내내
양키
향년
얼마나
캘리포니아주
물에
시기의
##플러
포함해
퍼시픽
구상
##fl
앨런
프랜
살던
##스와의
##복지
##림을
세워졌다
밖의
밝히
별의
상임
짓고
하얀
##일리
원자력
동기
마친
반환
뿌리
아즈
##조약
사용자가
인정받아
그리스어
station
진나라
##공이
##yl
22일에
일제강점
성립한다
우즈
피부
##카타
##산맥
##드라마
##반의
비슷하다
공간의
나의
대결
몬트리올
무소
사직
능력이
따르는
##목의
드라마이다
낙선
시라
패턴
기록하여
돌아갔다
이곳은
맞게
박근
편지를
##교로
사용을
부르며
근거로
잘못된
도심
땅에
선진
윤치
통화
##합니다
사용이
##사령부
의지
cla
달린
득점을
수단
순조
이마
일조
##미와
##세츠
##항으로
어렵다
상영
##철도의
내야
누르고
발견했다
운행을
900
##과로
##고속
연방의
명예의
두드러
리가
##금은
##페이스
##클린
진술
측근
##cd
##색이
사무실은
보여주고
경고
러브
오디션
토머스
##작을
##됐고
엔터테인먼
때때로
sl
고성
가질
그랑
시로
펜실
##고쿠
16일에
구체적으로
간다
전당
##치면서
##편에
산타
일명
##교회의
사용하며
역임한
건의
대조
때로는
속도로
취약
##우며
소속이다
관계로
기술이
언어를
히가시
##스에게
##하니
##건은
##측의
##층에
112
1916년
후보에
분류된다
밴드의
부착
유닛
전한다
28일에
비단
사상을
섬을
한동안
들어가는
지방에서
진출하였다
구체적인
김동
지점에
##천을
##켰다
##아를
군수
##형이다
17일에
개발된
구조는
100만
스파르타
fm
닛폰
바가
속도를
아티스트
필라델피아
##르와
##ain
비례대표
활성화
조사를
13일에
선거를
가즈
값을
삼고
전에는
김대중
제수
##시절
##후보
400m
로부터
##였기
##해지는
사용해
기요
##stem
만화가
##질로
일본으로
건너가
백악
브라이언
승리로
흔들
부패
훼손
코로나19
구릉
타운
경우를
운동이
싱글이다
좌파
프랑스어
영국은
중심기압
##전기
##소한
관리하고
fe
교과
명문
##업에
하나를
갑작
강과
사헌
상원
차트에서
##초에
##건이
아래로
##ose
폴란드의
요미우리
목격
미하
보충
행성의
##쥐과에
117
맡게
실종
주축
소재로
디자이너
##타케
##tr
##악의
크리스티
다루고
서머
가지게
제20
선언했다
군은
근접
팽창
##신과
no
게재
##금으로
##rom
원작으로
다가
정교회
평행
북한의
특이한
1선의
고분
안의
##하가
##색은
진출했다
이리
팔레스타
무라
무려
##중심
시간은
##ome
후쿠시마
남긴
또다시
왕비
제갈
##위원회의
은퇴를
훌륭한
쇼군
잎은
저널
페이지
##아나
정부로부터
초창
##바야
있다면
cpu
사르
av
뜻의
작위를
좋다
##바는
된다는
잠수함
ec
기갑
바닷
형식을
##범죄
##민은
제외하고는
미스
일요일
##임은
연구소
발견한
시스템의
대폭
대외
어항
예언
이순
하거나
##디의
남부에
진단
폐위
##tc
##란트
국가대표팀의
도서관
##게이머
3만
북부에
##tor
가능하게
위협을
내외
진영
##금의
##ha
##직한
그러자
14일에
##학자인
하였는데
시설이
박영
얻는
민주주의
급속
수수
이영
화면
##회와
도구
등재
제약
형식의
##점이다
##팀은
2000년대
민속
에티오
유격
합법
##화학
##형태
서울에서
연구는
연구하는
두루
서쪽에
풀려
##누리
연구가
보스니아
외무
21일에
신용
지목
##ius
##통일
프랑스와
레이저
##문제연구
일했다
##장관
그중
마찰
사육
사격
주문
12일에
##40
교외
이인
##진과
##러리
알려지지
지금도
뮤직비디오
낮아
맡았고
메리
시기는
이원
학자
로빈
우승하였다
레코드
따뜻
팀에
##티는
##대회에서
##네스코
트레이드
동래
시대를
죄를
10대
5일에
조치
##텔레
복사
안장
점유
화살
그림을
차례로
교차로
안티
외곽
전부터
포로
##애를
건물을
보상
소관의
카탈
##군사
공사가
관장
##스피
do
조치를
##코가
##그래
전쟁은
kn
다녀
생기는
시칠
정면
침몰
##다리
버전은
소실
지어졌다
건물의
박근혜
아벨
##수수
제목으로
3일에
kia
띤다
말할
메모
##번뇌
##렸을
시작되어
교도
맞는
모니
목적을
오고
충격
106
영화로
건물이
기타리스트
met
##조와
마케팅
경부
이처럼
##직에서
##uth
확인되었다
둘러싼
라트비아
사료
##중국
##곡이
##된다고
##사추세츠
##적이었다
출전해
방식은
##았을
오디오
풋볼
투르크
한쪽
사용하기
준우승을
dj
거리가
수평
전역
침해
##린이
엘리자베스
에스파냐
앞면
편리
##란이
보내는
말한
번식
알라
123
빌헬름
1호
관점에서
면에서
##der
판타지
6일에
주립
##소스
118
스토리
3루
나이지
무거운
실용
##석탑
아미노
음악가
참가하고
내리
무죄
쌓아
피에
##터에
##류이다
아이슬
주한
시스템은
일으키는
선을
전진
##용이
##oci
메가
작센
풀어
##메라
프로게이머
전쟁으로
않는다는
정확하게
##마치
기업의
제작되었다
발원
이바
##수사
##0명
##량으로
중순
신설되었다
동년
부문에
얻기
재산을
##사상
##az
##너는
##하였다가
23일에
콘서트
들을
##생으로
독일에서
정부와
##기관으로
약화
판결을
리듬
받기도
법을
어드
##병의
18일에
##우주연
ak
동화
통근
##한을
2000년에
bar
순천
군단
##ng
##ank
서식하는
vs
##클럽
구조로
km²
res
거기에
충족
##론적
이에야
조건으로
새겨져
3회
나이트
동쪽에
목조
신흥
요소를
파운드
##타나
##타리오
발생할
자유롭게
ds
오가
##우와
이루었다
가도
미나미
줄기
##런스
오스트리아의
기지
리비아
심판
##동에서
특징은
공화당
##롤라이나
시호를
왕자
##파크
되었지만
스파이
##연이
무대에
삶의
##의에
##석기
##ics
격퇴
총대
##학위를
##해방
중심의
엘리베이
fo
노비
사인
##나미
아니면
대학원
통일신
상징하는
1명
3칸
##소리
115
엔터테인먼트
리투아니아
5대
시즈
에릭
용이
주제로
system
부품
창시
##제국의
##내기
생각된다
시드니
가벼
수렴
종으로
특유의
##모니
200m
생각했다
오렌지
유네스코
##심한
일어났
형태는
남아있는
연속으로
관중
몰려
산소
일관
클린
토대로
##받는다
##됐으며
프로야구
감독이다
감지
서해
##레를
이론은
끝나고
규제
기체
대법원
목사
물고
우리의
평면
##하였기
아이슬란드
er
싫어
##스부르크
##수아
##있던
##열대
##라이터
출시된
7일에
둘은
126
설립하였다
제조업
ob
중심이
##바이잔
##오리
cod
그룹의
브래
잃은
하버드
##억원
좋아하는
bbc
개원
요르
점이다
게임은
##ley
3학년
미주
포괄
##바닥
##유키
차지한
정책에
자본주의
pd
치열
##니까
##과도
발라
팀인
##디에
전선
최저
##림픽
일어날
2009년에
않았기
거느리고
스릴
스페셜
과거의
장르
핵무
##져서
문화체육
##제르바이잔
남해
섬유
흐름
##pr
사실은
플레이어
앨범을
세대
입자
조반
##닉스
##att
24일에
성공적인
둘러싸고
설탕
이스트
자를
집으로
초점을
황해도
활약한
편입되었다
귀중한
여신
##조정
##전도
한국방송
공동체
8일에
ce
경사
대답
##레의
평균자책
의견이
관습
눈이
말기
며칠
시집
아폴
임기
총선거
##분야
민주화
공의
링컨
##프에
##희는
chr
각본을
국소
원자로
중계
채무
##션을
세미
직선
건물로
민족문제연구
일어나자
달러를
아세
영감을
##고도
##검찰
구리
못할
치료를
크리스토
무용
##sk
##대학원
nc
비즈
신생
피어
경기에서는
시즌에는
2003년에
진정한
현장
##여객
##초를
##매치
위안
##간이
대통령을
성공한
성모
회사는
##차별
시절에는
우연히
통행
##현악
##글로
프로그램의
조직을
공사를
미치
투구
부과
##각이
국가에
설립했다
나라에서
결혼했다
찾아가
군에
본사는
자바
조상
동물의
받침
이틀
##화하여
##질은
12개
수록된
rec
넣었다
출력
##란의
아이를
네이션
자발
wwe
막내
종의
증기
##미사일
##투를
애틀
응답
첨가
##불교
우라늄
hy
id
파리에서
##돌이
디비전
키프로
##금융
##장한
예능
##백을
##hpa
##열이
##숙한
실험을
리눅스
컨트롤
29일에
비슷하게
받았으나
아제르바이잔
양식을
재활
##계승
##설이
과정은
계절
라우
##이사
##해주
##스트는
스테이지
공학
쓰인
원내
트라이
##지대
구조가
성균관
날아
스핀
주를
중도
진동
##스러
##시타
한국에
친일인명사전
강경
나이가
색을
##당하였다
가마쿠라
갈아
북부의
합계
char
3위를
ass
매사추세츠
종은
##목이
2003
행정구역
3가지
김용
만의
토마
##소이다
전체가
유니폼
하인리히
고무
베토
분배
불을
전례
4일에
영의
##미디어
##일과
가사
글리
차가
한국전쟁
지정하여
수행하는
끊임
끌려
봉사
부른
113
되었을
바실
알코
의사를
독일은
일시적으로
대회의
참고로
창업
1930년대
프로그램은
2002년에
중추원
게오
빌리
##티에
104
프로리그
하나이며
기상청
날짜
볼리
칭호를
##포는
##오를
거리는
대관
속도가
의회는
과학기술
정사
평소
르네상
문재인
2일에
길게
사천
쫓겨
후일
##하였다는
모두가
다중
수치
케네
##래스카
조선로동
라이선
오스트레일리아의
##미에
달러의
향한
##가에서
##히로
소유하고
af
다리를
부대를
의원은
109
있어서는
kore
내린
느낀
다항
##카라
##즈에
경상남도의
선교사
흥행
##너스
2010년에
4세
밀양
채권
해인
##화하고
##세스
##츠와
언제나
자신에게
전자기
총괄
탓에
필름
##트르
##진에
두어
활약했다
자리잡고
2학년
##서이다
##모로
##견을
##are
베토벤
신속
일도
##재의
미국에서는
선수이며
133
두개
써서
다음에
5천
디아
병행
##론에서
##편으로
정치가
##라이트
9개
경비
기리기
쓰이고
히데요
싱어송
야간
##수인
##자원
##자리를
조선인
동명의
소수의
청와
##디스
##200
##생이
##런트
124
시즌의
아사히
일컫는
명백
연호
환원
##작가
##려서
이상으로
김포
빛의
추상
##음은
##가스
플레이스테이션
##주년을
석조
##바흐
##주일
##그리
##중에서
사건이다
마을을
위기
탈환
##기획
##중에는
대학을
시절부터
멤버로
스릴러
1천
9일에
나갔다
놓았다
고려의
조건이
##자스
지구에서
어려움을
7개의
강제로
대피
바뀐
장로
증손
하야
##디가
성공하였다
conc
부천
식량
바이올린
아버지와
급격히
것에서
마루
멈추
서브
##선이다
들어오
인정하지
광범위한
김태
성당
대전광역시
##oth
그렇지
극히
이끈
주차
##be
##일체
작품에
her
바꿔
석가
여론
진급
##몬드
bla
ke
mac
up
고발
놓은
장의
##속을
제주도
거행
구미
시켜
추모
##공동
존재했던
자세한
영동
이슈
차기
##보에
##풍을
##주쿠
##버스터
불교의
실질적인
간부
깨달
연꽃
영역을
옷을
음식을
지혜
##진으로
132
##ign
개관
매달
평범
지정된
유출
##a는
##때문에
공로로
단단
기록된
나타낼
선거구이다
월드컵에서
거주하고
갤럭
디즈니
전인
추격
##아프리카
##ool
조선인민
1894년
미스터
##서에서
##도이다
##생산
배치되어
##원들이
##카를
##곡으로
##셰비
지방을
방법이다
왕은
##음의
university
문화체육관광
속으로
##인조
##ll
마을의
섬으로
시작된다
학생들이
움직이는
덧붙여
도카이
비오
##네의
fc로
면적
보전
열고
##이었기
음반의
개혁을
말기의
복지
오하이
##기준
주장하고
제외하면
중의원
최하
##리타
##곡의
마리오
별다른
보니
사자
진도
##각의
존재하며
펜실베이
선종
##시에는
##dr
19일에
아니지만
분야에
모드
본명
비극
아리스
##티모
##목은
되었다가
1500
융합
##포가
##회장
기간에
여기에는
홈페이지
##산면
개발에
고쳐
부대는
얻는다
코트
##르며
##정당
##행은
##층이
선수를
않았으나
아마도
네이버
노무현
will
곡의
질량은
##왔으며
사카
##척의
##밀리
방송국
추정되는
승리한
가난한
1에
16년
부수
입체
##커스
##예프
수도인
승격되었다
나아
쇼핑
시그
##경과
연결된
고양이
도움으로
마천
밑에서
영문
증권
회담
##시까지
##학교에
촉구
##리자
사이가
제1회
출전하였다
관리하는
목록은
승인을
영남
토요일
##재는
시나리오
리버풀
낱말
속하며
시초
포인
해를
##sc
시즌이
듯한
쉬운
체계를
##제프
##정부의
독일어
강수량은
피에르
허리케
##대교
107
북쪽의
도주
먹고
새누리
##받을
중간에
무승
의회의
종결
##서도
##예를
다큐멘터리
광산
##블로
##푸르트
과거에는
디스플레이
꿈을
신비
##라리
했다는
하드웨어
기습
김진
내보
분화
##사태
기록하는
조금씩
pol
몸에
식으로
안산
중에서는
##인들
개발되었다
지속적인
로도
미노
봉쇄
##목적
중앙위원회
##idae
사라졌다
노력을
쓰였다
##인치
##ward
이름인
선수들이
의미의
가면
먹이를
왕위에
장면
##아메리카
##환이
사망하고
지폐
춘추
##리면서
##자도
##ls
##층석탑
##쪽의
122
도시가
담당하고
드러나
객관
걸어
순교
제사를
철도의
컬럼비아
코무네
##러가
구간을
일종으로
나섰다
내고
현저
##학적으로
##야가
dc
기름
군대의
나눌
받기
왕복
유언
##항에
##턴은
##누엘
권위
부사
위탁
임용
##슨과
10여
129
진행된
에스토니아
물고기
아랫
전제
##마사
##주식
##중은
##능력
##렸으나
##반응
##베트남
111
활동은
계획에
외교관
밑에
##미로
##코쿠
##해와
사용될
지구와
##사우루스
봉안
한계
##공은
121
모델을
돌연
온천
있습니다
주석
초록
##원들은
##외선
바꾸어
trans
고체
짙은
치명
##즈카
대한민국은
##하려면
꽃은
루스
자체는
##놓은
중국어
결과에
여수
중소
##자이며
##태평양
딸을
식별
약물
##민을
이미지를
댄스
자치구
가해
온타리오
테일러
학위
이집트의
제사
홈구
대한민국에
지나치게
iii
캄보디아
후궁
##작전
##란히
##톤의
아열대
초등
일본을
있었다는
부분적으로
노래는
관람
생겼다
중기
영화에
5만
min
명에
감독과
진출을
초반에
시계
아트
일에
##플라
##망이
114
중국과
경제학
규모는
개그
상수
스리
진흥
태평
##비나
페르디
대학에
생각하고
마쳤다
연세
진짜
##려면
##슈타인
mod
가축
공인
##이거나
##yn
##고래
##손은
##박스
참여하여
##omys
##own
인접한
법조
장난
하나였다
변경하였다
개화
산다
소환
육군의
트레
협의
##타임
##자본
##식품
##러의
000여
승강장이
당대
말하였다
소나
에이스
일컬
임상
대신하여
목표를
체포되어
대처
버튼
부를
실려
재무
해변
##마와
##네는
##통이
숨겨
##츠키
국가는
제주특별자치
되돌아
펜실베이니아
시호는
콘크
##시노
강희
지점
진군
##브리지
##양은
실시간
5m
med
단위로
띠고
신호를
##되지는
여기에서
lck
교수가
소행성
유죄
##실과
##유는
one
가량
대웅
리메이
맞추어
발트
이화
이산화
국가로
아이치
시외
활발한
웨일스
드문
일렉
중독
##용은
##처리
du
곡으로
김씨
밝혔
스콧
야쿠
위임
##라톱
월드컵에
근처에서
시내버스
가나가와
일컫는다
net
몰래
이의
##불교의
##ork
134
nas
부호
포크
##ise
작곡한
오하이오
나눠
뜨거운
말기에
섬에서
수술을
천도
허브
##훈장
##림이
이후부터
어려움
국방부
mp
민법
방패
총칭
유래한
난징
모형
자율
철학자
향후
##라브
##풍속
지방자치
마음이
어울
좌표
플랑
##청에
##ute
카자흐스탄
5세
bro
대합
사원
평택
오오
##길을
이름에서
구제
김상
매개
존속
측면에서
희귀
##포구
##이면서
##음으로
주민들이
남쪽의
검증
누군
리스
장려
찾기
춘천
##갔으며
시작하였고
fa컵
기점으로
북위
사사
신한
##구르
불리게
십자가
쓰시마
##포의
급제하여
international
넣고
##서야
##단위
##위원장
싱어송라이터
높고
추출
##연속
##권에서
부족한
시설을
##고등학교를
모친
앉아
장관을
주위
평등
##다지
##전선
##유적
프로레
##이라도
제품을
로맨스
can
있으면서
##지나
자신과
대통령에
진행된다
생각할
여름에
인근의
맞지
바그
업적을
할당
참가하는
인산
해주
출연한
과정에
전라도
장군의
##거리는
##산성
##해왔다
생산하는
강점기의
광해군
구동
주소
진정
##돌을
1898년
브라우저
강도
안보
역에
##인가
##봉을
만났다
시점에서
전투기
데뷔를
##지역의
그쳤다
양호
##enc
김기
미사
제독
##연은
##예정
특징이
드럼
선구
양주
전념
출전한
ste
물러났다
통틀
화제가
##겼으며
대회에서는
이명박
1호선
3으로
붙은
뻗어
##르지
세계대
mag
딸로
여성이
오빠
우편
이내
호위
##군이다
##열의
거론
시키
원수
준비를
물리적
불상
여행을
옹립
##내어
일본과
기능은
이루어지고
부정적인
je
끝까지
직결
초과
힘입
##님을
결정적인
중요하다
신이
아예
전압
황제로
##하겠다는
비즈니스
문장
상반
안에는
해운
영향력
요구했다
시점
##으로의
지정되었다가
보여주었다
트랜스
교역
문과에
소총
타카
펼쳤다
##a의
##증으로
독립된
배구
서사
알렸다
해밀
##박한
교황의
별은
의뢰
캠페
##두는
##이었다고
##바이러스
내부에
잃었다
조리
아틀레
##ala
활동하는
##위원으로
다양하다
실패하였다
겪었다
디오
로열
최후의
피해가
이래로
김재
제도가
##백과
##참모
이후로는
지휘관
최근의
총대주교
ele
레바
모으
어휘
퀘벡
협약
미카
비평가
수면
육성
이반
##더는
##크에
##채를
사회에
데이터베이스
한성부
주어졌다고
4번째
무기를
어긋
정한
##미쓰
##톨레
##enn
개발이
보완
##제이
##로니
##orn
데뷔하였고
기반의
##스카야
추기경
동성애
라스
영어로
이남
적고
정리한
가환
모방
아서
##열차
comm
##어지는
##보안
##캐롤라이나
##urn
학교에서
밀접한
원리
##시부터
종로구
po
발을
이어진
후안
##르노
##십자
##함의
##크에서
지냈고
사단법인이다
a매치
##나라에
1901년
3차원
나쁜
드림
쓰촨
얻고
요소가
이노
텍스트
된다고
관할하는
선언하였다
스케이팅
##마일
##티의
와중에
##말라
##피는
조직의
영화배우이다
곡이다
말의
싶어
##녀를
규모로
iso
간단히
##공산당
최상위
에티오피아
난다
딸인
##전사
가지며
##km의
도는
선이
##스파
카를로
##사령관
알바니아
교구
반경
장거리
향하는
##물질
제국을
나가노
경험이
4위
일리노
##지휘
소속된
##박물관
관직을
둥글
시베리아
야당
장학
사고가
찾아볼
물건
알제
##디나
##놓고
운동은
노동조합
뉴욕에서
물질을
cf
리얼
사슬
시흥
잃어버
측의
##케이션
사이드
sec
법인
부의
수습
아인
접하며
학부
##각은
소설을
조별리그
마하
캐스팅
할리우
##나서
##br
제곱
충격을
nat
난이
만나는
함으로써
##행의
엔진은
나폴리
체코슬로
기하여
밤에
##야를
무상
상트
##선언
1902년
건축물이다
시칠리아
기단
좌절
주가
##레가
업그
폭풍
회계
##yc
##기기
##층을
백색
2012년에
만나게
3명의
나열
노란색
##약품
도착한
김수
배웠다
빠진
숭배
에콰
윤리
##우지
##스티벌
등지에서
이윤
하더라도
정신적
삼각형
1루
1시간
3의
센다이
순수한
해상에서
##2의
##항이
##60
다음을
달성했다
고수
깨닫
부딪
신임
카리브
ind
가리키
8개의
구출
부부
섬은
영상을
장치를
하마
사이타마
주민들은
가고시마
속도는
투옥
##스틴
##난성
자신도
##ake
구마모토
2천
루이지
바른
줄무늬
##제학
##버러
##올로
나오지
니가타
방식이
##통의
기술의
부동산
매입
소금
엔지
이차
들어온
베트남의
포르투갈의
요크
용어를
해수
##방은
다음해
2001년에
검은색
##음과
##과정을
##내셔널
##0년경
##ene
넣은
스톡
000만
광둥
달이
실전
재혼
조달
쪽은
척추
팀으로
역임하고
##테르부르크
자택
지고
효고
##측에
않았다고
태양을
아시카가
이광
탐지
표명
회사가
##암으로
##방으로
위치하는
밀집
분당
성주
으로서
최후
팔라
회사를
##번을
national
쫓아
캠프
##ition
고려대학교
우즈베
시와
이긴
자금을
##작은
##쟁이
##액은
것으로서
선거구
상태였다
미얀마
선사
철도가
유래된
움직임
har
인플
조명
##루와
##효소
##ink
결혼하였다
구의
호조
##커는
나이지리아
통일신라
ir
서초
##책으로
우승한
중단되었다
codice
내전
자체를
##치료
##21
##족에
##달라고
전체에
바퀴
않으나
일대를
지위
도입되었다
2칸
매카
손해
제압
지형
한국시리즈
3세는
사면
에버
이어진다
##권도
실패로
갤럭시
3층
4차
with
이룬
##창을
경찰은
프랑크푸르트
바티칸
관현악
상용
부유한
산란
연애
그날
문명
알루미
원인은
할머니
##평군
이루며
경신
목을
성분
경우에도
1903년
1884년
요청을
리틀
보지
용의
직전에
축출
코어
##순위
애틀랜
에서도
부문에서
석탑
설도
##씨와
##강에
슬로바키아
가요
기슭
하원
##화이다
인물이
리메이크
장군이
최대한
##pt
##황을
시즌은
조선로동당
나눈
본거
상원의
##짜리
2002
자연스럽게
공모
대상을
두는
참여하는
2011년에
고구려의
냉각
리우
위기를
##ire
##시키며
자유주의
경상도
느껴
밀어
오라
##환은
비용을
용도로
정밀
간호
공익
##타니
##인들과
기록하면서
차량이
방식이다
슬로베
ev
사간
삿포로
차원에서
##작이다
31일에
미루
수업
시범
인생
##기니
##푸아
그냥
많으며
보호를
봉건
소매
시골
일대에
존중
중대
카디
카롤
학자들은
##체제
##80
제자
1899년
김일성
관리를
불어
##앨범
그러던
사망하자
공격에
fc의
아시안컵
문화체육관광부
가짜
##방울
##릴라
##쳤으며
야마토
추측된다
지주
##아파
의미에서
왕국을
즉위한
종류가
부근에
신규
아부
##멘트
연결된다
str
아름다
승부차
때인
일본국
자동으로
헝가리의
매출
협상을
##왕과
도시철도
부서
이식
줄어
##방에서
대학교에
복귀하였다
amer
가죽
동국
버려
시바
초연
##동이다
##루아
가지가
국립공
몸길이는
3세의
시뮬
입성
주제가
##희의
남원
예배
##우드
##m에
생각하는
직접적으로
헌법재판
뉴저
동명
축적
헤드
중국에
지휘하는
##ement
닌텐도
알코올
힘입어
ibm
개교
##리조
##소방
다음이
##use
부적
섬이다
영지
우주의
헤라
만족시키는
달한다
베니
본부
##마르크
기록했고
나머지는
들어간다
배우로
치러진
nor
블로그
쌓은
왕세
의식을
제트
##터스
것보다
억압
화석
##주기
가톨릭교회
노르웨이의
다룬다
단기
담겨
사절
실린
##강이
문제의
참여하고
모용
신시
드라이브
칼리지
##가고
긍정적인
반박
##현과
##퍼스
##약성
##국장
##액의
현재에
근무했다
##ology
거북
비유
우울
유가
##모와
기록해
시즌에서
형태이다
스타일
어머니의
콘스탄티노폴리스
먹을
패키
##ood
116
환경을
더불어민주당
믿고
##상규
christ
mic
경로
공신
기아
일러
지름
항소
힘든
게르만
비로소
알루미늄
굉장
중재
포획
##항의
그래프
블라디미르
자오
##작품
##lex
시리즈에서
승강장을
버전의
##선거구
도요토미
바오로
수학자
시기를
아홉
전속
##좌상
요구를
1999년에
pet
war
있기도
##회의에서
기간을
획득한
패배를
##보통학교
보일
불편
오를
왜냐
정렬
충남
케냐
테니스
##란은
생각해
2명의
상류
승계
장성
위치는
존재하고
시스템이
차량은
결성된
핀란드의
성격이
자격으로
전도
##포트
##우스가
##오나
문화방송
bc
교전
아는
조조
차이는
사회를
정치인으로
주장한
등장했다
올바
전동
코스타
피신
##아리
##라기
있었을
##ames
더글
별명을
세자
이관
종착
협박
리그를
페르난
드라이버
거기서
간토
대거
땄다
마츠
불이
알을
연세대학교
글루
바나
불확
중복
표본
호세
민족주의
드물게
농림
리만
효소
사람과
결혼하여
년에
미시간
선생의
씨는
즉각
##총장
형성한다
지나면서
니콜라
레바논
게이지
대가
예선에서
이가
##bl
##무스
이용한다
계속되었다
조약에
고래
광장
꼭대
##커니즘
##지는데
수도원
논문을
벌어졌다
붙인
서유럽
용어로
주류
최적
칭찬
##리라
##제한
##차와
##박사
아이템
바이킹
광주광역시
교수는
누가
뒤집
롤링
양국
연쇄
조정에
##하우스
##행으로
##그레
않는다고
어머니가
주오
처녀
##실험
##교수
부분의
가까워
마운
삼촌
독일과
아래에서
것인데
아바
##칼라
이론의
일리노이
마일
총리가
최연
카스티
##변이
방송되었다
정도였다
난민
주도로
태자
2명
따온
필사
회장을
##테면
20여
드래프트에서
느낌을
권고
분비
센고쿠
여진
오바
##아키
##작이
##렸는데
##태후
설치한
운행한다
모델은
죽였다
포병
##측은
독일이
1897년
고등학교를
벼슬을
미즈
시는
태도를
2001
관련한
특징으로
아버지인
스스로를
mat
꽃이
레논
시장에
아라비아
정해
팀에서
##플렉
star
경계로
스튜어
달걀
모서
몸이
주체
화강
##사리
알려져있다
차량을
네팔
던져
매끄
모르는
반해
술을
이케
회의를
##ml
##교에
##폭탄
진행되고
사랑의
이곳을
who
덮여
엄격한
컬러
페어
했을
##스런
##방위
##iel
하나님의
아미타
프로레슬링
왕을
진공
편곡
구분된다
동생인
##도어
##mb
보유한
디자인을
day
tra
신선
##수용
##까지만
공손
관념
구할
비타
제안을
하이드
##정원
##보건
이를테면
시대부터
차량의
##베르토
2가
거제
우호
프레스
회고
##욕을
360
미시시피
1학년
본인의
아크
여부를
고려시대
아버지를
건설되었다
과일
나가는
엄격
위장
피트
##왕에
##차량
##쪽은
##라이더
##ade
고기
숫자
양이
일체
평창
##사나
선수들을
프랑스에
##검찰청
무실
사토
소니
옆면
타격을
##감과
물질의
위험한
sw
전년
평정
해소
##합을
##황제
생각한다
서식지는
super
1분
°c
미터
살았던
스쿨
##임에도
##번에
##있었다
아일랜드의
노리
담긴
버렸다
##iam
##역사
##경영
##턴의
정부에서
존재가
설립되었으며
밴드는
수동
입원
##24
##급을
계획이다
북아프리카
통틀어
감행
만일
##돌은
출신이며
##ash
아이디얼
에피소드
소지
하남
흔한
##파인
대통령으로
##이트를
광저우
단축
조언
표지
협정
이야기는
굉장히
골프
빌려
퇴역
경기장이다
낸다
이씨
일이다
학교에
와이번
임관
##아들
##시민
##야만
성공회
기업이다
갈릴
곳의
그랜
지식을
카타
##거리를
##자연
##드레
##펜하
인정하고
inst
ca
시위를
발견하였다
역사적인
두께
리치
물의
##네시
##가이자
##판과
시작하는
표현을
인터페이스
뛰어나
투표를
##그라드
가벼운
바꾼
심의
##대왕
##해살이
공간이
모델이
움직임을
적극적인
그다지
라파
와일
충주
##ont
모델이다
베드로
상처
일하는
최악의
패한
흥선
##거는
런던에서
생략
##가들은
##종과
임명되었고
유지하는
당주
보헤
##였을
##문에서
##달아
스타리그
모양이
경찰에
단층
떠올
마약
##어지고
##화물
부분으로
브뤼
이북
##도리
##전문학교
pre
광무
기각
신중
쏟아
의원을
재현
터뜨
##소득
##감에
##림의
미국을
제국에
왜냐하면
브란
슈팅
시장을
업체
##작의
올랐고
구와
되지만
폭스
횡단
히타
##도비
##나갔다
##푸스
##히메
경기의
결정되었다
성우이다
국영
성운
손가락
콤팩트
편에
##코드
##터널
##노가
선수는
rna
노선의
당일
병으로
수축
출산
황족
환경에
환경에서
크리스마스
뚜렷한
감정을
국군
신념
신탁
축조
전통을
멕시코의
열매는
누르
담배
쓰기
언더
캔자스
##장치
프랑스가
앨범은
어려워
물러나
갈수록
만남
목성
없었기
오쿠
##86
##팀의
##널티
작용을
새겨진
로스앤젤레스에서
점성술
규격
만성
민사
일방
##나우
이벤트
##원숭이
플라스틱
라오
마스
민병
배틀
부지
얻지
올리고
자문
한미
적합한
볼리비아
평범한
역까지
유동
##브는
##연료
##택을
베네딕
gn
온대
채워
표방
##적이지
##법에서
대전이
도입하였다
##선수권
by
노태
에디
출신인
놀이
배신
산의
산하에
중산
회사이다
제네바
뜻이
발현
세상에
잡았다
청원
킬로미터
표면에
##에너
##즈로
##버렸다
##스카르
상트페
1집
벌인
예하
판사
##허가
##발이
15세기
관할했다
점령한
그릇
딸이다
영등
중일
##책임
##팀에
디비시
문자를
적혀
중장
지나는
축하
투수가
##bi
##년의
##월드
평안남도
오프닝
박쥐의
##마뱀붙
어뢰
잡은
호평을
지역구
##연구원
터키의
베네수엘라
극동
따른다
원반
이진
취하고
프톨레
협동
##절한
##누스는
##벌레
복제
##갈색
##터미널
복귀했다
가옥
순회
펠리
폭넓
##적에
##ola
##구나
##폭풍
임시정부
궁극
수성
신축
어워드
죽어
스탈린
본사를
수확
피하기
함대
시절의
평가된다
떨어지는
결코
성취
##결정
알려지게
발매했다
마이크
최대풍속
1998년에
군대에
백제의
##법상
##법이다
##주어
##위해
##익을
1996년에
곡이
북방
##대책
1920년대
단어는
주어진다
탄도
퇴임
평일
황해
##시즘
##악한
스피드
디자
사살
산하의
왕국은
1라운드
del
상상
아기
점프
정해진
죽이
##나리
##사랑
##3명
해당된다
오사카부
상트페테르부르크
3분의
cro
대치
전세
##트륨
대회가
기독교의
붙여진
콜로라도
iv
싸워
언어의
파이어
##더니
도미니
상장
자국
차이로
##너의
시리즈를
민족의
유사하다
극대
신부
안치
잡혀
중형
쾌속
##1의
##양함
##잡이
프랑수아
그리스도의
울산광역시
프랭크
ver
고백
교리
룩셈
전력을
정도를
##da
##무역
아니라고
##가지의
개념이
그려진
atp
3천
강에
손으로
주사
포로로
하락
##물인
##즈에서
개발하고
기술은
전체적인
국왕의
온도가
지키는
##웠고
선수로서
100여
1885년
비난을
그레고리오
완화
전역에
환자
##면에는
##행에
정치에
##로부터의
이유를
머물렀다
도미
오피스
##다르
한국은
싱글로
사례가
계몽
맞붙
쇼트
스폰
쓰지
오타
플랜
##공무원
##노프
##act
자료가
요새를
분명히
ko
개종
적지
직할
행사를
##강과
2013년에
##운동에
루터
투수로
희극
##함마
##극장
가져왔다
school
가수로
보다는
불리고
유교
정무
##uk
##위원을
일으킬
국내외
넓게
마에
무료로
자란다
충렬
하부
##학부
##신경
##리아는
이적하여
다운로드
공민왕
밖에도
손꼽
지각
##fer
##내며
##먼은
경기로
천연기념
강풍
민영
번에
즐겨
침투
##화에서
정치를
수상한
##문화유산
보호하기
아무도
jt
성서
시종
책의
철회
##불을
##스트의
공격하여
정의한다
할아버지
메타
지장
##도바
##간은
국제적인
룩셈부르크
5위
마블
발칸
소말
중심지는
fc에서
앨범이다
1997년에
무궁
사당
스티브
호의
##품이
##ana
사회에서
중앙아시아
버전이
che
구스타
긴테쓰
날카
때에도
승무원
함수의
##쿠니
마을에
##201
17년
mr
군이
닫힌
등극
만세
맞은
방글라
불명
세력의
25년
수에
존경
추산
##오르
그후
마닐
연령
세워져
갈등을
lp
상행
선과
씨의
카스
##서원
##수소
세속
저기압
제노
##구성
##팀을
남쪽은
2인
gs
까닭
말하면
칼라
합작
##마로
##열에
결정하였다
위원장
기초를
둘러싸여
대두
비평
빛이
세금
자회사
집계
토르
##들여
##변에
##itt
형성하고
1871년
한나라당
기저
문서는
분출
케임
코치를
하차
##당해
##심에서
같은해
평안북도
고령
구단의
법의
사거리
안테
어업
##네가
##매매
어려서
방글라데
밝히고
굵은
금성
애덤
중서
중공
##고와
선수들
1대
강서
거울
결론
대교
성사
통영
해의
##라트
##감한
##월한
##병에
독립적인
미사일을
선정한
토니
피츠
헬륨
##니시
20대
음악의
설명하는
지난날
cont
창원시
당연히
발급
아타
연기를
위헌
합창
해마다
##서기
##느러
##분석
이루어지는
##cm이다
서쪽은
high
높게
리보
어른
진을
##하자는
##일으
##글리
실질적으로
act
문서를
산림
안으로
여우주연
유라
##티미터
##학원
수록곡
##tv에서
돌로
뜻은
문예
안성
질량이
##브의
역사의
주장은
형성되어
5번
val
가늘
단절
시노
처음부터
프로그램이
바이오
이론에
##ife
패전
상태의
방사성
토너먼트
넘어가
변수
산출
시공
##길이
##왕조
##케라톱
기록으로
대한민국과
존재할
##하자면
목표는
바르샤
프톨레마이
공습
연못
주머니
직면
##위안
##ena
제3대
cap
응원
의석
##고리
후임으로
물건을
정유
설치하고
3부
pl
남기고
아야
앙리
차원
##으려고
변화에
간신
디트로
반공
악기
##23
##정에서
##차이나
##홀름
받았지만
차례의
바빌
유년
저명한
##역학
##량과
역사에
후보는
학교의
담당했다
돌을
뾰족
##는지는
##로이
##람쥐
##학교에서
자신들이
##ane
##레이터
대학생
은퇴했다
연극배우
cs
뛰었다
인격
현금
산업의
sd
개가
균형
소셜
암시
연봉
입각
##레타
##희가
전두환
18년
수장
수색
심리학
전하는
##기게
##본으로
헌법에
불러일으
확실히
견해
규정에
나란히
두꺼
시장에서
지쿠
혐의
점령하고
완벽한
3명
꼭짓
대가로
사모
장군은
##ject
1890년
기간은
미디
방면으로
에미
전역에서
치안
##주택
##링을
공격수
수비수
등용
떨어졌다
사관
청주시
##인한
설명한다
red
동위
매매
배상
애슬
주위에
지능
##사업을
##두를
##채널
##시키지
##ower
대응하는
ty
그들에게
##전인
##품의
사람도
##inc
발매하였다
통합하여
생식
영유
잘라
##리야
##감으로
실시하고
기존에
요동
##주지
사이버
fc와의
가족은
남북으로
구간의
문인
붙었다
쓰레
이닝
##버린
##락이
서울의
새로이
자유형
##대학교에서
이라며
올라간다
페르디난
tw
대명
애칭
촉매
##아와
삼국지
난을
돌출
마다가
이빨
하라
##층은
결정하는
비율은
성능을
선보였다
미네소
2배
은거
인문
잭슨
컨셉
흔적이
##부상
##철의
생산을
임명된
마을에서
가신
웹툰
제퍼
##협의회
##way
19년
들어갈
개념이다
취임하였다
4만
벌금
석회
이내에
증후
트래
다양체
열린다
동쪽은
기초로
끊임없이
위에는
종속
##아일랜드
##자들에
##eng
파일을
얼굴을
세이부
아르헨티나의
9시
기회가
오노
하나님
공격해
의미는
이유가
클럽이다
교향곡
두개골
막부의
선물
테레
제21
사고를
500만
방문한
##예정자
각자
라마
명성
배가
오지
품고
함부르크
우승했다
경제의
##으로부터의
은퇴하였다
스위스의
쿠데타
cal
낳은
부가
소나무
시트
주위를
##개국
##츠가
##쪽에는
시즌이다
난카이
원조
파나
파란색
##준은
로마에
##ream
과정이
팔레스타인
것들이
수료
연상
컴파
대표적
진행하고
이탈리아에서
건설된
더욱이
깨끗
반도의
짐작
##점인
이란의
그렇지만
미상
자생
파스
##나오
건설을
##호선이
르네상스
2는
나중에는
볼셰비
키는
##과가
##빌딩
##국어
##두로
그룹이다
재판을
테이블
고통을
네오
선로
세션
잔류
정신을
헤비
##되므로
##코와
##비서
##que
##검사
##값을
현재도
자유로운
타이베이
정보가
도입된
실패한
인접해
발렌시아
간선
별이
유학을
재편
##코타
##천이
##m2
##킬로미터
운영을
차지하며
라이언
진출한
선발로
요시노
파이널
중반에
디트로이트
감안
검출
게이트
나올
비자
슈트
와의
트루
회수
##따라
유래했다
마음에
이스라엘의
마오쩌
마우
세네
유저
태극
하행
##ti
불가능한
colle
부대가
압력을
영지를
일대의
하에서
##렸다고
##운동의
연합군
함경남도
2주
디렉
병을
복소수
포장
학문을
##버리
주장하며
설치하여
연결되는
내려가
reg
메달을
아케이드
견제
부설
인데
지녔
크기를
페리
##승지
##덕션
여객철도의
대안
성장을
없어서
역설
전격
한스
휴스턴
##사단은
결정된다
내용으로
1889년
북쪽은
취임했다
뉴저지
가자
더해
장비를
##발사
##계약을
##기나
도시에
되어있다
아나키
가오
고인
부재
아닐
통용
하시
##등으로
##중추
활동하다가
추가적인
이루어지지
1994년에
##교육을
블랙홀
2억
가열
것임을
공부를
모셔
사범
지평
헬리
##서비스
##스기
##금지
선출된
1995년에
##조참판
나섰
냄새
뒷받침
모은
모나
산지
성별
이천
##양으로
위원회의
동쪽의
조성된
오리콘
가려
불꽃
적다
주행
##키와
##m에서
##았다고
시작하였으며
대표적으로
대학교를
수록예정자
스크린도
원더
초신
##하로
##che
##버는
##차전
##준의
##mun
출시한
부근에서
다니엘
부드러운
뒤에도
맺은
##대륙
영국에
건축물
##지역에
비율이
낙동
높이가
예이다
한층
##았기
htt
대책
발각
샘플
용병
음모
충성
##회담
서쪽의
air
da
각지에서
고민
작아
페스티벌
플러
##신도
##량에
조선에
2015년에
##호선과
가문은
물질이
서정
이경
정권이
##수리
##빈은
##ino
리그인
되었던
런던의
##정책을
확실한
사정
서원
스캔
연소
유식
환상
##받았고
##토모
##덕왕
##대학교의
1883년
경작
돌입
수녀
아소
에밀
오로
##미즈
진행되는
교육과
건물이다
비판했다
빨간색
감싸
다니는
사리
토지를
##문자
괴롭
기증
##전이다
##분해
고려시대의
강동
무지
신조
옥스
측에
##메다
##해온
##채가
문화가
지구에
가볍
로저
유벤
##부르
##루에
##주자
##국사
##것을
해결하기
담아
명이다
빈곤
취항
클라이언
##나스
##렸지만
131
4월부터
야마구치
오클랜드
rad
김창
있거나
피로
##통제
##노에
##헤이
1990년에
트리플
끝날
노트
무의
문법
우르
전기의
태백
판정
열차의
들어올
시즌부터
프로젝트를
아름답
가을에
나주
델라
뽑아
사쿠라
세력은
자의
##ye
##rop
제3차
포기하고
자칭
재미
제도는
지도를
##산리
부분에서
2014년에
인터내셔널
이때부터
남게
손실
한인
##풍의
##군단
##증의
##들과는
##기관의
포스트시즌
5번째
겉보기
동조
여우
##공주
나타낸
##ution
1868년
관직에
김경
범위를
비주
성이
용암
정서
치른
##25
##벽을
11개
설명했다
##과학기술
기자회
소송을
li
견인
대부
상표
제치고
창의
##가들이
##gb
##봉사
국제적
알렉산드로
고향인
1기
4명의
둔다
제도에
홍문관
##번은
##해주는
##해졌고
##집이
미주리
##버스터미널
ter
다테
단어를
더이상
시코쿠
신화의
언어는
##해양
있는지
##위원회를
이르렀
고유의
성숙
의결
조류
카트
##거리가
##루스의
##위성
나라에
판매하는
중요성을
스미스
cn
신정
짧고
합친
##파이어
##연방
##형인
##준비
##컨대
도로이다
교통의
국보
원인을
조르
카나
##순환
##덴부르크
##스트를
메시지를
후지와라노
dav
말씀
맥도
조립
휴전
##받게
##히토
수도를
국가대표팀에
야마가타
##기록을
##form
time
가동
상인
튀니
##키를
##oss
동치이다
감마
과반
무함마
이장
좌석
투항
##학이
##협력
전반에
세인트루
ml
무리를
별개의
서민
애비
직통
##체고
사이토
올림픽의
경기도의
갱신
국유
물어
저렴
정권의
처분
편지
##주의가
그러다가
카를로스
로이
온갖
회로
체포되었다
감리
메릴
집결
혁명의
글자
면허
무성
박스
퇴적
지구를
아돌프
코코
##디언
##우기
##온을
##병은
1993년에
천황이
에콰도르
경에
산둥
연한
질환
##말에
##왕으로
##채는
태어났
언급한
스트라이커
우즈베키스탄
송나라
얼음
합스부르크
##거를
러시아는
예정이었으나
최소한
낳는다
대패
번성
세례
쌍둥이
용어이다
헬싱
##대군
##6명
##각형의
역사와
인디애나
모시고
1위에
내무
니코
말미
아데
입을
종을
토요
##품으로
##두에
##냈고
대통령과
##시켰으며
정의된다
실시한
2라운드
점에
평화를
##토르
동안의
계약이
스카우
##상규명
위와
유연
장안
페널티
##궁의
##코르
##나가는
##무로
구성되었다
공격했다
인터페이
비행기
미래의
치열한
가네
격렬한
나라는
동부에
레슬링
복소
음료
파손
호응
##영과
사용되며
시작하면서
운행하고
소비자
잡아먹
슬로베니아
만이
비하여
송시
애리조
일어나고
재능을
사카이
습윤
응시
투르
해저
##공격
##프라이
##gh
##ins
2가지
급성
인상을
책이다
##ensis
저작권
궁궐
김옥
명목
조정의
##운을
##vel
##혹한
10분
연구의
오늘날에는
아키타
대행
랴오
실망
없었
우측
학원
##티코
##설에
##ald
공격으로
교육의
연합군의
##도르프
##경찰서
미네소타
거뒀
권장
뒤이어
부총
유권
피겨
##기사
##그는
본래의
비밀리에
2선
곤란
빈번
싸웠다
외에는
지옥
치고
휘하의
##미트
##행위를
##청에서
기업인
메커니즘
상응
장면을
장소로
통치를
풍속
하원의
현행
형상
수행할
경찰이
무소속
1승
8시
교회를
미소
상세
원을
이산
##교와
##광년
##골로
##증은
나타내고
증거가
불가능하다
자세히
농장
쾰른
타구
포수
##제에서
노선이다
만을
만료
살려
시정
포드
##ek
##당하는
##추는
##푸르
독일인
사업에
보존되어
암호화
sam
공과
사쓰
소리가
클라이
##애틀
제안했다
선배
집안의
하동
다이어
해체되었다
맞고
보드
요충
##판에서
##올라
데뷔하였으며
드러났다
친일파
미야기
가깝다
체코슬로바키아
농산
느꼈
숙청
우정
충실
##야에
##직으로
##황이
##것으로
지역인
제24
프로그램에
표현하는
기관총
소설가
대대적인
클레멘
밝힌
제프
조화
##업은
##피의
##적으로도
데뷔한
##oll
노선으로
가족의
아마존
bu
not
부도
상이
##발로
이용된다
게임이
경찰의
sci
걸린
그루
무조건
##수지
##파르
##프로그램
바다에
시뮬레이션
교수를
그로부터
꼽힌다
산요
카우
토스카
##전차
##세르
##년간
##반에
1995
정치적인
효과적으로
black
국어
부작용
압둘
없던
입헌
지류
토끼
##심은
1999
발생하여
수준으로
군산
러셀
몸의
불태
사위
서부에
입장에서
##막을
##벌을
게임에서
시대가
모습은
마을이
변화는
건조한
프란츠
명명되었다
해병대
길이의
대각
타협
허가를
##가르
##할때
##라이어
회사인
unit
거부하고
art
동영상
산시
섬과
얇은
전함
존슨
푸에르
한큐
해군은
##port
##5명
##손으로
##변의
프로듀싱
궤도를
불린
청춘
##4명
##당하여
##훈을
제23
국민당
인정하는
소련은
보내고
유로파
##박쥐과에
갈리아
견해를
단식
대도시
선비
성폭
수령
팀과
행성이
협조
##학적인
영국이
임명하였다
피핀
##루션
##살의
로마에서
지적했다
스코틀랜드의
프란체
매카트
감금
북구
올리는
하트
##냐는
자료이다
개봉되었다
항공모함
아리스토
리뷰
맥스
오비
유비
장사
전날
카카
##나에
##산동
영향이
비판이
클럽인
기여를
살아있는
득표율
##formula
길에
김현
사서
솟아
슬라브
시애틀
##7명
다케다
크리스티안
몬스터
하우
##키아의
##타이드
##테이션
##ican
정당이다
가정에서
제정된
돌고
싶은
요약
입구
차체
체류
커널
태국의
##부문
##개는
##집단
사랑하는
개념으로
목록에
##박물관에
목소리를
매니저
1시
4위를
out
링크
보리
파리의
##다드
##림과
10개의
##eth
시리즈는
생물학적
규범
기사를
불규칙
암흑
중국인
아키텍
열대폭풍
##고속도로의
등장인물
고사
공수
데스크
보라
서적
연금
예수의
있음
##시게
##되어있다
더불어민주
노르망
3000
시즈오카
엔지니어
가맹
가리지
몰수
붙였다
삼중
알래스카
절차를
조사에
##공파
##평화
대신해
1992년에
rock
ww
글래
남구
마녀
수도로
##무가
##됨으로써
기준을
가구
고원
공표
당원
비영
성곽
타자
나오고
동일하다
2세와
계수
공천
서임
중대한
하치
##8명
##브르
##팀으로
10시
중심에
등장하였다
도로가
don
고쿠
목성의
비준
에디션
폭행
##보르
##직할
##올림픽
지진이
스리랑
곡선
탐색
##창한
##메가
가지의
결정한다
실패하고
걱정
마인
진지
##되도록
##디를
##ble
##질러
##블리
##먼드
사용하기도
가지로
플레이어는
헌법을
kr
##에미
##액이
발견되어
##들에게는
기간이
##mm이고
1가
각국의
경연
내어
배후
유산
줄여
즈음
출가
피의
환자의
##신에
##운다
위험을
간주된다
받으면서
배속
##세다
##간지
##득점
이전부터
시간대
중화민국의
활발히
헤르체고
마라톤
top
간이
기해
동학
똑같은
봉기
인테르
크롬
##미한
##티아의
##부에는
##레스의
##법칙
##츠를
##칼리
으로부터
나라가
4회
경의
때려
막시
발의
왜곡
이방
이건
증조
허위
##페란
분리된
내각의
안토니오
wil
나비
소모
앞장
이타
##벤처
##철은
##취를
##문이다
국가와
앨범의
독립운동가
부드럽
gdp
vol
권총
무대로
반감
##이후
##초로
##순위로
사용되지
게임에
수여받았다
헤이안
생겨났다
푸에르토
3할
mas
wind
수단으로
이규
주자
직장
파동
##du
도시에서
31일까지
기여하였다
파이터
암컷은
구역은
발언을
서재
압력
자랐다
##생명
##ear
형성하는
건축가
arm
권유
넷째
이병
조병
종족
흐르고
##있게
되었다는
개통되었다
연고지로
lu
동점
보게
신형
원나라
자선
차로
취재
##내지
역임했으며
필리프
제목의
가격이
클래스
새끼를
오카야마
애리조나
2개월
lo
목판
백화
숨어
전지
##루냐
한국철도
##hel
델타
##피가
##갔다가
13세기
##km에
값이
생체
아담
왕가의
##하임
##공무
##씨로
올랐으며
호르몬
6세
강연
내정
발령
발병
차를
##1명
##웨이트
##왔던
트로이
플래시
스크린도어가
2기
5분
날에
넘게
선원
총리를
카르타
##2명
20만
영화가
제작을
종교의
1882년
벨기에의
극심한
대대로
때가
산성
하도록
##계급
korea
san
경희
광명
날이
불평
상경
성적으로
수련
씨앗
알지
엔딩
영업을
폭로
##타스
##연대는
##왕후의
게임으로
상황은
기본으로
니콜라이
예전에는
mi
못하여
벽돌
위주로
조세
키가
##라에서
##수에서
##mp
선수였다
2017년에
충청도
브리튼
동아일보
선임되었다
토너먼
nad
노란
독일에
동행
미륵
자라는
중퇴
##계에서는
1월부터
프리메라
데스
로즈
본인이
털은
##ual
##석에서
##집행
활동하며
2016년에
공간은
도로를
해안에
엔진이
고토
기회
스노
양반
자기의
##여우
##ner
붙여졌다
따뜻한
듀얼
미들
워터
총장
해가
민간인
반도체
어렸을
자결
천거
파산
환영
##링은
##하기는
이전까지
관련해
기업이
열차를
바꾸는
다이아몬드
어항이다
기와
김병
돌격
사바
스칸
식물의
오로지
칸의
##토와
##단지
생산된
##학자이자
sv
리옹
무척
무슨
정월
진해
터보
##조각
##훈은
기록되었다
정도에
설명할
그곳에
2호
2시간
yo
가솔
각색
리오
마리의
상해
정말
평평
혁명을
##강은
운영되고
작성한
레드삭
pop
관악
대니
샌드
16개
그레이트
매끄러운
김제
내리는
머리에
명사
미쳤다
백두
치세
현직
선거는
개인이
마야
병역
염기
우회
추서
키워
##만과
경기장으로
발견되지
제국과
전신인
가나가와현
다마
앞의
온건
##스트리
##ella
시스템에
주목할
아폴로
스톡홀름
구단은
로그
양을
컴퍼
해태
##린을
주연을
##일체유
무궁화
et
모인
연수
##포드
##대학교를
소련이
않아서
창설되었다
대포
테르
##ho
##교에서
##클라
진행했다
마르세
고창
모자
실력
##커의
프랑스령
형성되었다
담당한다
##국제공항
건륭
구단이
시직
아날
않자
직위를
코카
##시킴
##보니
##진상규명
전쟁과
문화와
조직이
1년간
eng
간신히
동참
미친
싸움을
이태
##쿠버
##근이
##위기
지휘를
##ull
세종특별자치
고산
실력을
우드
청룡
하반
##시나
##2호로
##브스
##병과
자유당
주민들의
위험이
늘어났다
페이스북
내에서는
동대문
##뱅크
이용객
리그로
설치하였다
적용되었다
바꾸고
십자군
6시
김홍
말까지
서포
원의
의무를
흐른다
히사
##관이다
기념하여
시기에는
종목은
개를
개헌
기숙
맺어
세기
여파로
정립
제의
판례
##대구
##들었다
##설은
##ert
전투의
그룹은
미토콘
케임브리지
문과
봄에
부시
우의
중점을
형인
##축을
##감은
##권에서는
##염을
이상한
개인적인
결론을
모티브
왔으며
전했다
정자
최성
##제도를
##거진
합류했다
왕실의
william
b는
데서
일제의
현상은
##지아
##통은
##xt
표현한
작업이
남동생
경향을
북아일랜드
제출한
크리스토퍼
베른
아레나
저하
터치
##터에서
##결합
##ication
주장에
프레데
ha
갑옷
분지
##표는
##받았으며
##했습니다
뉴욕의
조약이
이사벨
도착했다
김정은
볼로
예선에
옵션
흐름을
##기둥
한국과
##ater
변경했다
무렵에
사태가
영화제에서
끌고
다툼
상담
선도
장미
##드릭
##능한
##읍에
아니라는
중심지로
2년간
gener
대왕
알리는
어쩔
자작
피를
후기에
##티가
##이었을
하였지만
다녔다
균형을
별세
신화에
오류
인명
입지
코호
##연수
org
mor
ts
공이
맞대
병원에서
아산
인류의
카드를
##분과
##inal
축구를
1886년
단독으로
마오쩌둥
공으로
광년
김유
리베
스킴
##어인
##대회를
##va
##링턴
##했음을
##ony
역사에서
세포의
마르코
안전한
장애인
bre
나은
도야마
맥락
승리에
시에서
씨가
앙골
오르는
유의
의회에서
##다를
##관련
##한이
##너가
사용하면
사헌부
말부터
무대를
살라
진실
차출
창녕
##리온
##탄의
##클로
##클레오
중국은
점령했다
북한이
제주특별자치도
gt
gir
국장
국적
다름
닥터
새긴
세금을
양자로
전래
충전
##리던
##들보다
##철이
##주머니
##절이
접근할
다투
미군의
불참
셀레
약혼
위그
주조
##보수
##광을
200만
도쿄에서
도입한
방향에
효고현
바르샤바
헬리콥
관료로
구형
보증
입주
1893년
면이다
시부
영산
절차
체크
##테스트
##발은
##솔리
때문이라고
##acaf
내용이다
전통적
요청했다
강남구
동문
묶어
안티오
원숭
이룩
캐서
힘썼
##9명
스테이
아랍에미
단계에서
live
rh
개항
고대의
기어
들려
사전에
정하고
화순
##승으로
##것도
따라서는
대사헌
유아기를
concacaf
3세가
경시
구해
##형제
사용되기도
만들어져
주도한
하루에
에스페란
죽음의
지붕은
누구나
모로코
청와대
배수
보성
산이
장제
존스
황제는
##로우
##준이
받았다고
전국적으로
종교개혁
동일하게
주민의
1991년에
부르고뉴
경질
설일체유
죽인
##쉽게
프로덕션
승강장으로
고다
관음
스태
청나라의
코소
호크
##해지자
기반한
1888년
혼란을
문신이다
gra
겹쳐
늦게
도왔다
소문이
실존
싸우는
작다
종군
도시인
연구와
ang
수행한다
제한된
rev
천문학자
##able
청동기
비타민
2골을
ioc
당하고
대영
법무부
수양
의석을
증대
패널
##사들이
하나다
24시간
수용할
프로세서
##고등법원
고소
심하게
작가의
절단
초빙
##운이
서울에
스페인어
350
보도했다
박사학위를
아라곤
병이
이렇
중부에
##하키
##업으로
##림은
##하기가
##km²
사랑에
1848년
알렉산드르
강은
다를
되던
열심
일이었다
전국의
중수
추첨
필드
##재단
##xx
##한테
##척을
한편으로
경상북도의
지키고
향토문화유산
쓰여진
9개의
검정
미치지
양식의
어둠
형법
회피
##제곱
##하루
##s는
##노를
##work
노래이다
방문하여
가져온
안정된
출발하여
코무네다
동인
벌여
차용
청색
피라미
##지정
##연으로
##풍이
##랑을
##반이
##블랜드
발견되며
최고인민
##마뱀붙이
간격으로
명은
믿는
원인으로
웨스턴
##바퀴
##부리
일본군의
게이오
비용이
아이치현
따왔다
성으로
세레
입양
혐의를
##되나
##타우
##자리의
##무는
##당인
사이로
서울대
일반화
5000
드러머
디자인은
불안정
분위기를
하노버
격추
내걸
듣지
왼손
프롤
##프레스
##카에
선수들의
2차전
궁전
끌었다
내부에서
반격
소닉
품질
##업의
##국적
##츠크
##집으로
##뉴스
음악에
지도자로
종료되었다
생긴다
성향의
의문
주제를
파기
핸드
##니라
##난을
##신학
##ero
수익을
wal
그보다
기기
대역
마가
메소
승무
휩쓸
##밀히
제25
##urg
상관없이
가산
니혼
브로드
승점
이소
재선
##원수
##m로
##졌기
##께서
결정에
inc
단체이다
바탕에
거부했다
오리온
geor
긴장
단체의
떠오
아와
윗부분
자체의
주위의
증상이
코드를
##지지만
##태를
문제와
유럽과
출판되었다
##사관학교
1을
k3
크라이
##타입
##표가
##사고
##반도
영국령
분포하고
바뀌어
간사이
김구
삼척
스텔
압록
원통
자와
작전에
전무
중엽
축성
해명
협정을
##바이트
##커가
##지었다
##기일
10월부터
고려하여
출전하지
지원하고
스페이스
사라진
홍콩의
나타나고
공로를
권위를
딸이
상공
조광
진사
##열은
##안과
하나로서
압도적인
클리블랜드
우루과이
도널드
정전
##por
##레틱
##근의
##풀이
시험을
친일반민족행위진상규명
규정을
레온
비늘
쪽에
##사용
##속에서
##밀하게
제시한
부근의
music
허리케인
계단
느린
다비
별자리
사탕
처분을
호쿠
혼동
##net
##찬을
##illa
보여준
1세와
지키기
과테
밀리
상급
에어로
재상
해고
행하는
##반은
##캐슬
공개했다
1989년에
제목은
주관하는
동유럽
라그
부인은
##pg
중국을
정책은
1866년
프로젝트의
##테이너
캠퍼스
21년
강대
미라
세상
일하고
##카리
##7호로
독일군
발견하고
실시되었다
판매를
1은
der
si
미만
성에
승자
적어
현황
호를
화를
##복의
##빈의
13개
생각하자
지나간다
입학하여
가로지
누이
막는
부대의
선동
우파
전당에
좌측
체인
초월
##더의
50만
##베이성
스트리트
초창기
코스타리카
##해살이풀
디비시온
산스크
시에는
유목
타당
##맥스
##약한
##해튼
##본의
##ons
30여
off
3년간
유래하였다
생겨난
가리는
금요일
다듬
동정
러일
영역에
은하의
이양
장흥
주입
청산
팔작
하니
허리
##chn
작용하는
##아버지
등판해
간략
방침
부각
연안에
원격
유타
콜라
##현으로
##기독교
##ko
통과하는
경쟁을
제정되었다
시청률
말미암
공방
극우
되도록
사영
쌍대
연립
이데
정하는
제니
지수
##전시
##관계가
##협의
203
대표를
다양하게
표현이
가족을
가족과
물리치고
거두며
갈등이
good
관해서는
##펜하겐
ra
그렸다
방치
포착
선수들은
유지하기
여겨지고
cbs
것인지
배려
주니
회화
히라
##투자
##조에서
##70
##결과
##운영
##러를
방법에
증가하고
사상은
벨라루스
류큐
버전을
이이
즐길
##히트
대한항공
18세
보내어
유력한
기수
물체의
음향
이송
자산
총리는
코펜하겐
##다양
##판사
##번지
##기자
클럽의
고양시
항복을
업그레이드
가군
동로마
사무를
상처를
스즈키
프렌
##타고
##요를
사건과
주파수
케네디
애틀랜타
갖지
마스크
면제
사항을
식당
유형의
장쑤
투명
##령과
##9호로
##번이
서울로
서울특별시의
완성된
모니터
올바른
df
가상의
도카이도
박람
안타를
트란
학명은
한명
현악
##업체
##진군
선수의
##ital
##나무는
남동쪽
작성된
게릴라
구하는
모의
##종에
정의는
국가대표로
미나모토
ka
고문을
실버
천재
##어요
##하게도
에너지가
작업에
전략을
챌린지
group
노이
반포
번영
우한
잠정
프론
하코
##회사로
##청구
##함수
##망에
1892년
대체되었다
이해할
대항하여
지리적
7세
공양
글꼴
년간
돼지
루시
빌라
스포르
이득
접한
했었다
헌정
휴식
##작인
##sd
##저기압
입단하여
##호선은
긴키
언니
자아
자크
장소에
파인
연합의
##iver
여겨졌다
왕국이
시속
접해
##po
##협회는
##℃이고
해당되는
조직은
설명하고
선택할
북동쪽
산스크리트
fla
농어
다나카
시이다
암석
##친구
##gm
##날레
##운동장
가르쳤다
종류는
밴드이다
4개월
au
mer
것일
세바
예컨대
짓는
치렀고
##체계
##민과
대표가
시리즈에
분리되었다
제기되었다
유리한
소프트웨어를
오케스트라
매수
전까지는
헬레
##아야
##사회의
##양과
##능력을
사람들과
조선일보
##우스와
가르침
ceo
life
이븐
전담
점수를
##시한
##트루
활동하던
관계없이
ebs
rom
tc
공군의
다목적
한민족
##공화
##망의
자유의
지나가
기관차
학생들의
학생들을
산업은
몽골의
떨어뜨
북동부
카메룬
각지의
겪고
바꿨
수로
월요일
화엄
1200
조선후
구축함
ngc
e스포츠
라오스
송신
유진
유러
자메이
전복
정상에
##로이드
##유도
##추진
##위에서
##집에
이름과
활동했으며
개발했다
지구가
인도차이나
##해야만
제품의
와일드
plan
김규
농경
마린
방콕
충북
##스레
진행하는
부족으로
삼국사기
새누리당
6대
강간
은메달
정작
초고
후진
##에의
##지부
받아야
실시하는
그래도
1861년
생성된
콘크리트
6세기
국적을
대북
보복
시가지
어찌
자란
죽게
채취
함흥
흩어져
##장사
의미이다
아래는
캐나다에서
##클리드
격투
내리고
메뉴
몸은
선은
시장의
조국
토리노
협력을
힘으로
##치히
##워서
공격하는
시간의
##위원회에
개편되었다
##ave
알파벳
후쿠오카현
결선
병사를
블루스
해남
##사한
이탈리아는
자리하고
a의
교정
루키
수산
여성을
원정을
직책을
##바둑
##가수
##브리아
1887년
묘사한
쿠데타를
용인시
누적
본부를
서대문
의회에
지내는
창출
행동에
##mc
##sa
정책의
패배한
오이타
미토콘드리아
광학
대마
바에
성전
시립
정이다
효종
흥미
##모스
##감의
##직은
8월에는
추정하고
아프리카의
공항은
몬테네
하느님의
리바
포스터
##어리
##퍼는
##당한다
##각으로
담당하였다
뉴욕주
성장하였다
북서부
아날로그
3선
나노
동등한
사형을
이회
칼로
항쟁
##lo
##히데
필요성을
기관이다
공산당의
ber
다발
드는
보강
불변
세우는
전이
출석
튀르크
##2는
##야스
모두를
##회의를
내용에
수행했다
규모를
발달한
최연소
0이
궁정
맨해튼
치즈
펜싱
헌신
##물리학
##보장
##안에서
지방도
kh
ta
옮긴
패하였다
##유예
에서의
14개
이용해서
옮겨졌다
세인트루이스
방화
예선을
우아
전수
탐구
협주
홈경기
##원인
만들었고
정당이
비영리
ur
고아
넥센
다크
다리가
변동
섭정
전전
추종
칼뱅
##코딩
있어서의
프로젝트는
만들어진다
아스널
가솔린
sr
경복
낭만
대좌
장인
전하고
카시
카사
클러
호족
##상도
##요의
##되어서
uss
구하기
바꿀
요격
##하와
##루스는
일본군은
##ision
승리했다
전해지는
일어나지
프란치
코호몰
2시
군부
기니
남미
드디어
하르
##생은
##암의
##술의
##손이
음반으로
추정되며
홍콩에서
park
과도한
메릴랜드
4세기
병원에
보낸다
이겨
##더를
##더가
##보와
##역까지
표현할
다이쇼
주지사
조반니
키프로스
공자
많지
싸웠
안나
파나마
함수를
##네티
##행동
운행이
2차원
소재지는
다저
명인
문무
##자르
##유지
##층으로
정치적으로
지원하기
대항하는
약속을
방사능
리에
온도는
왕조가
집어
집정
천천
후세
활발하게
논쟁이
dra
나이는
남베트남
생겼
연인
워크
자책
황제를
##창의
##대대
##기계
##야와
##편은
참가할
기술적
모습이다
인간을
1863년
않아도
북서쪽
독자적으로
수락
순으로
재래
직책
차관
##포와
##정리
##전달
##주의적인
회원국
산맥의
솔로몬
정기적으로
하느님
1위로
5세기
유료
재일
정이
폭이
##직하고
##언어
국가인
경제는
분류하고
대전의
##르타뉴
후계자로
함경북도
3분
50년
동력
총리로
파푸아
##제작
##미노
##티시
##회전
##루시아
##직의
##심과
##심으로
것이나
로마로
진출한다
1891년
운행되고
밝혀지지
전략적
스튜디오에서
카탈루냐
abc
본부는
인증을
재해
철폐
티켓
##운의
##롭고
역할은
표현은
학생들은
보호하는
part
일제강점기
your
강철
견해가
브르타뉴
자민
시작하고
기간동안
천문학
2연
나를
열을
예전에
율리우스
제대
조형
패했다
확신
확진
##누스의
1998
12세기
1864년
##지역에서
작가이다
연기했다
죽음에
곳곳에
급속히
무역을
옥타
지자
콜린
탄자
파병
##는가
##천사
##카쓰
##트넘
참여할
##위원회에서
인간은
바다의
전반적인
포유류의
40년
공고
광양
마다
살게
이현
조인
컸다
##네마
##피에
보호하고
기념하기
club
성씨이다
애슬레틱
3인
것입니다
결별
극락
상파
심근
이완
##ator
설립하여
##ille
##cm의
논란을
미래통합
미야자키
세네갈
김옥균
if
경로를
관절
대기업
똑같이
방안을
올드
일기
읽고
파란
하비
##나기
##지오
##6호로
사용되어
시작할
##ark
소유한
민족문제연구소의
손해배
1개월
soc
데모
도사
복장
부다
소피아
요인
우유
잃게
지극
크레이
##8호로
##신인
##군다
##년이
12개의
7월부터
발전하였다
확정되었다
저지대
의혹이
경력이
레스토
산을
생리
조로
추존
히메
##로프
##토록
14세기
의미하며
마르틴
아나톨
미드필더로
최고인민회의
놓인
매킨
목적이
속이다
예는
카타르
##자라고
##례의
##료는
##슬리
##출력
##히코
이용되고
유지할
명령에
타이틀곡
도메인
대단히
이바지
거점으로
낙하
드라
마누엘
변광
손실을
아브
연동
전구
회귀
##i는
##화할
7월에는
영향력이
설립되어
국회의원을
효과적인
가의
관동
김지
당대의
몽고
사슴
수학적
질량을
최강
19세기에
그녀에게
체결된
박지
상록
오아
원천
점수
투여
포식
함대를
##아래
##하이드
##분열
지역에는
자료는
예술가
파견하여
받아들였다
우려가
사쓰마
친일반민족행위진상규명위원회가
고이
렌즈
맛을
실재
우치
전자의
풍자
##쥐는
않았다는
언론인
대륙의
mark
마다가스카르
led
값은
군정
볼티모
서부의
여겼다
이코
한계를
##트레
##태수
##불이
1996
대한민국에는
올림피아
공화국이
안정적인
비주얼
7시
노면
래퍼
서진
시도를
항성의
##어족
##단에는
##색이다
아이가
##ott
결승전에
반란이
나루
넣는
도로는
맡기도
순위를
어촌
연이어
일화
좌의
진한
카프
플라이
##평의
##죄로
##히지
9월에는
대표는
생각이
비롯된
서비스가
계통의
감옥에
mem
검거
관세
구이
맡는
무솔리
송파
정몽
키스
타지
탑신
##리쿠
##데라
##승의
프랑스로
음반에
서로의
지배하는
유래되었다
대청
독창
동메달
주계열
키예프
##현에서
15분
임명되었으며
언론에
불과하다
2m
면이
복선
상서
시어
아메
알프레
점과
혁명이
##아과
##미스
##세키
진행하였다
어느날
조지프
투표에서
정상적인
밴드를
산에
생방송
함수는
헌액
후예
##되다가
##보리
위치가
투수이다
##ubl
고딕
동형
북유럽
시신을
시신은
이스탄
쳐들어
춤을
행진
##4호로
##관계에
##줬다
동안에는
받았던
걸쳐서
##바야시
유러피언
bas
kar
뉴캐슬
모호
버마
취업
테네시
화학적
##천면
##3호로
##링겐
대한민국을
활약으로
1592년
명확히
##디나비아
팔작지붕
나뭇
별을
불분
비엔
성명
##전부터
마이애
들어가게
둘러싸인
명확한
미쓰비시
프란체스코
가중
김민
넓고
서산
점거
지미
클레이
핑크
황도
##타수
##테른
사회민주
기원후
프로그램으로
1881년
추구하는
가공의
open
2에
4의
7세기
남하
냉전
늑대
부채
선봉
야외
체제의
##비오
##린과
##s의
##색과
기록과
220
주변에는
신앙을
달라고
병자
성리
소행
쓰기도
접수
평을
##니오
한국을
그룹이
컴퓨터의
침공을
##도서관
단원
별명이
세비
세습
온난
워너
절벽
타르
##여명의
##자금
1997
구성은
독립적으로
stud
1988년에
탈락했다
1군에
경과
남았다
도래
범유
병력이
사상의
수복
신민
이준
##지거나
##단했다
그래미
장남으로
레인저
애비뉴
노랑
믿었다
빠졌다
악의
위구르
입국
정려
참수
파는
평의
후배
##궁을
##시인
##정부가
##묘한
서울중앙
정의를
제30
비판하였다
여겨지는
스테파
체계는
가와사키
커뮤니케이션
공휴
노인
정선
##마스터
##방과
##변속
##믹스
100년
##스트가
중앙의
분야를
선고받았다
향토유적
오케스트
교사로
바흐
부에
적게
##역이며
11시
따르고
개인적
공항으로
##과정에서
흥선대원
단어가
장을
##명칭
##학사
##양에
작품에서
인간과
반응은
지닌다
효율적으로
펠리페
거점
서스
일대에서
증상을
출처
통보
##케는
##ings
1이
4세는
ost
경주시
공존
드레
무작
스플
신종
오대
장면이
조슈
찍은
파고
##테크
##정부는
##전까지
##나라가
유지했다
1860년
분석을
spec
micro
23년
나트륨
랜드
우두
##동시
##록을
##32
음악은
컴퓨터를
단체인
차례에
##ange
성향을
아오모리
말미암아
고추
관상
등에게
미에
원활
이누
총을
페트로
한해
홍수
##90
##g이다
##5호로
##ze
옥스퍼드
럭비
부합
죽기
호프
##정신
##경비
경제를
2009년에는
일으킨다
공간에
교황청
1870년
보이게
원칙을
스트라이크
안드레아
당내
동네
소통
제주시
체제가
한중
##조리
##pp
##토로
##복음
##있어
##광이
##초가
##큐슈
시작되었고
생산이
##amm
1876년
반응이
우크라이나의
tbs
김인
달고
문하
장녀
집회
##일인
##학교의
연구에서
진출할
적용된다
개칭되었다
오세아
간혹
누나
도루
모색
본인
비전
없으므로
윌슨
인가
인과
접어들
종신
평민
해부
##회사가
##약의
##집의
러시아와
정보는
요구하였다
위원회는
결합하여
국한
동서로
복용
산호
아리아
의원의
첨단
##치에서
##나에서
##테리아
##브가
##자리가
##토쿠
##련된
들어왔다
으로도
사망자
출연하여
국내에서
미하일
스칸디나비아
열심히
3일부터
4가지
cj
가타
남성의
맛이
생전에
평탄
##키타
##나파
##당했고
##셨다
분류한다
대전차
보고서
가문이
집합의
인기있는
가라앉
1m
5시
mb
거창
교양
기인
되므로
모신
목재
시장이
오크
##스콘
##성인
##노리
##독을
그러고
##ini
중심을
2분
가문을
곱셈
공명
달리는
마셜
베리
선천
위를
일차
직을
현대에
효과는
##파리
##ral
##자고
##당할
##융합
1년에
1872년
파괴되었다
몇몇의
귀국하여
##방향으로
그저
단계에
승용
조에
##리마
##론으로
##들이었다
프랑스를
버전으로
의혹을
마천루
노후
닮은
사쿠
쌓았다
잡는
장점이
좀더
차츰
##속도
fc에
공간으로
후반부터
자녀를
포유류
브뤼셀
상파울
6번째
낮다
돕는
선행
오락
저격
중등
체조
태권도
혼성
##와라
##내려
한편으로는
저항을
취득하였다
레오폴
##ular
레이스
정동
지출
쿠웨이트
##부원군
##기며
##폐합
20분
시리즈이다
부르게
네이션스컵
b의
가사를
밖에서
신주쿠
일진
철종
##포시
엘리트
국무총리
외야수
ios
끼고
농부
물과
박종
영장
요절
치는
##자에서
##번호는
##섬의
평가했다
비교하여
젊은이
가격은
느끼고
지칭하는
놀라운
강화를
거쳤다
공백
종이다
켈트
파벌
폐렴
표를
피오
현을
##들처럼
것이므로
##레이크
30일까지
역임했고
자료로
국가대표팀에서
phil
검사를
등지에
번창
이베리아
##나로
##사범
##업과
##평론
##복은
##독한
2007년에는
정의에
이동하는
법칙을
교회는
기법을
부파
의회가
제너
##초는
##피크
##런은
수록되었다
외국어
달러에
가져다
나타나지
부모의
콘스탄티
sns
천천히
군용
드리
세라
수교
수필
안도
전락
주니치
코시
##나시
##사유
##ball
포함되지
##ows
##로마치
거칠
거리의
도리
삼림
삼층석탑
세트
역도
일족
##서스
##내었다
##페스트
진행을
생활에
int
##지역으로
증거를
tre
강하다
배에
수사를
피할
##회원
##갔으나
이론에서
##지방선거
이번에는
대규모의
associ
루이지애나
are
김준
분수
서귀
신세계
여지가
오기
온다
은신
정제
주권
커서
한족
##바리
##선생
##ler
##달마
##패의
15세
10월에는
개발하였다
마르티
cat
못했지만
숨을
앞선
양육
##복이
##버스는
##배에
##틴은
##mus
이용하고
계획의
결혼한
연합군은
아프리카계
아직까지
보석
소극
시몬
요제프
컨트리
케빈
휘말
##스투
##회사의
##22
##호르
##플레
##ka
활동의
영국군
2006년에는
공간이다
방지하기
평론가
관목
나무를
로페
무안
부평
언어가
전산
직행
##품은
##매김
아이폰
관련되어
##led
자유민주
2008년에는
충청남도의
당선된
친구인
도덕적
중성자
와카야마
감수
길다
덴쇼
바오
반전
성적이
어시스트
키르
탈취
##금과
##여성
##정권
##통상
##버른
##는다는
기준이
되어야
전투로
항공사
어렵게
노스캐롤라이나
미루어
win
고든
국외
노조
양측
용어가
유학생
이모
전화를
##라호
##마크
##길에
##놀이
##달라
경기장에서
계속된
가운데에
건립된
공장에서
관제
노바
루카
법에
유역
##대칭
##손의
##료가
사용하게
1970년대에
소설이다
가르침을
지명되었다
북서쪽으로
히틀러는
준우승에
euro
아이스하키
야쿠르트
4로
무로마치
소의
연희
예로는
이메
퍼포
##들리
##하우
##ative
30만
지상파
제한을
바다를
평안도
7대
대도
만난다
문경
밴쿠버
연호를
인재
진수
질문
##줄기
##화하기
##전략
##세력
##sch
##오자
##종인
##삼진
이르게
출판된
전해지고
채택되었다
j2
도르트
지는
카테
호랑
후작
##여단
##도상
##지능
##후가
노동당
장기간
케이프
##스테르담
푸에르토리코
city
갤러
넘어서
막대
발기
상부
페로
##하겠다
##상업
##ya
##적과
사용자의
영국으로
차지했고
2005년에는
제4대
경인
급격한
너비
딸과
설비
잠깐
쳤다
택시
##마리의
##년을
##위한
##히게
##학과에
##aceae
5회
pat
김원
맞았다
매체
미키
손잡
신학자
원소는
잦은
정성
##미사
##스키는
##장로
##하되
##1호로
##개에
##름의
##증에
위치로
##리그에
어머니와
##시켜서
1873년
참석한
헬싱키
na
나일
도박
무명
에레
우간다
철학적
칭송
형식은
cre
경계에
귀속
그밖에
그만큼
서열
성도
아다
적외선
카지
컨테이너
##말의
##부아
##노스케
공격이
대중교통
설계되었다
요청에
천황은
공헌하였다
데스크톱
이스탄불
구니
당국은
동사
바우
불화
중위
지부
하프
헤어
##케의
##몽골
존재했다
일반적
발표하고
중앙아메리카
플레이어가
그룹을
합격하여
bus
jap
간첩
나갈
내무부
미션
뿐이었다
없었으며
영어를
은혜
##포에
##결혼
국가보안
정치가이다
그것의
robert
규칙을
serv
염려
자제
종래의
지사
징병
참의
했기
##라디오
##go
##함대
구간에
가족이
정차한다
분기점
##한국당
피렌체
mil
기뻐
대접
더비
블레
아치
우지
천수
한가
##퍼런스
##oo
##유사
##한은
15일부터
12월에는
유럽에
##대학의
어머니를
대비하여
아키텍처
best
갈래
로버
비중이
색이
아쿠
저는
전역을
조현
주었고
지시를
켄터
포로가
폭파
##하르
##진보
##척이
16세
데뷔골을
발전소
명령했다
국왕이
6번
대출
브랜
쉽다
아빠
키보
훈장을
##cs
##3명이다
##고에서
##약이
##노와
##례로
사용하던
지방은
2010년에는
실시했다
아들이며
구한
급히
높여
뿌리를
사의
유혹
정당의
한림
##시이다
##법률
##유산으로
##배가
설립하고
구조와
집합을
단장
도피
우세
청량
체제로
패하여
##로폰
##격은
##요리
5월에는
##unt
노선에
1865년
전달하는
서양의
살아남은
포켓몬스터
1등
2명이
네모
롬바르
밀도가
오일러
의과대학
인력
제천
허드
##지던
##법원에서
##후이
##건축
3월까지
##리스가
유래는
밝혀진
단계로
어드벤처
american
von
군벌
동부의
띠는
사신
영역에서
##디와
##메트
##자리는
##약으로
##절에
6월에는
독일군의
##let
기원은
300만
연루되어
관장하는
elect
ib
대화를
박성
발해
왕조를
원소의
유해
칼슘
토크
트렌
틈을
##라니
##제철
##사단의
##벨트
20개
들어오는
4월에는
##시키는데
심지어는
4천
pi
백과
의약품
입는
총무
판정을
하급
##100
##ior
##국이다
##요는
##저는
##샤오
컴퓨팅
대수적
프린스턴
제후로
##가능한
마카오
갖춰
왕과
의지를
쪽이
채굴
##티넘
##수단
##니크
##좌를
##집은
##간으로
일반적이다
공격은
기관이
치명적인
겪은
머리카
멜버른
적분
조계
측에서
카세
페니
##로스의
##거의
##견이
계속되는
전라남도의
하늘을
줄어들었다
3m
것의
단체가
비는
아유
재차
직사
##이야
##다오
##cus
##했음에도
##든다
음악적
종목에서
강조하는
gp
공예
교회가
기지를
끌어들
무서
수중
##합성
##택이
취임한
전반적으로
tour
techn
불확실
5명의
감찰
김윤
대령
모른
실무
이바라
준수
총애를
취한
##하더라도
##gn
기록이다
##ara
그룹으로
##시간은
통합되었다
국립공원
##스키의
2를
극장에서
느낄
맡았던
모범
배터
불완
악마
이기고
##서인
##스퍼
##브와
##킨스
##안보
가능성도
1일에는
##시켜야
예정이었다
수준을
##조판서를
벌어지는
고시엔
center
공성
국회에서
실각
옆으로
중원
증폭
출전을
##제이다
##타도
##방정
##hr
##봉은
##놓았다
1880년
캐릭터를
해밀턴
그외
김천
단계를
도둑
로얄
모른다
생명을
이창
치환
하워드
##조한
##교사
##민스터
##매를
유명하며
##ura
##urus
이론이
기관의
1869년
영토로
arch
end
##ike
몸길이가
안장되었다
과장
남자가
인원
장소를
크리에
평야
##천은
1980년대에
21세기
수행하고
마음의
논쟁을
검찰은
교회에
달에
면적의
불행
여배우
운수
장관이
전하
제명
톈진
회장으로
##사항
##8명이다
##배치
240
도입했다
영토가
중요하게
아무것도
주인공으로
우에스기
7번
도스
맞춘
침묵
화해
##네오
##끄러
3월부터
##시키면서
1867년
##ops
1987년에
근거가
프랜차
미나모토노
구장
모르고
섬이
프레이
항등
현장에서
##칸의
##가미
출마하여
usb
max
광범위하게
cam
면서
제로
징수
참의원
캄페
파면
해왕
##비용
##공사의
프랑스군은
국제적으로
제한이
언급했다
효율적인
필수적인
오클라호
sal
건널
공장을
대위
미합
손상을
수차례
스칼라
아들은
알맞
원리를
자기가
제재
진흙
##26
선거인
성장했다
##erson
플랫폼을
타이거즈
9시에
hms
뜻에서
소외
예멘
##가쿠
##충은
##황의
2004년에는
요시다
김명
나미
매력
뮤지션
반죽
스와
오해
캐시
##가요
##선수로
##훈이
##두었다
##피오
제2회
구조이다
1862년
남서쪽
발탁되어
수요가
핵무기
일렉트로
각지에
달했다
양대
의문을
읽는
증진
지위에
##조사를
##지역을
##기하
##협정
##컵을
##운동이
단체는
##그룹의
bm
from
거꾸
경호
구성을
위생
태생의
##테는
##화되고
그리는
이름도
출연한다
생성되는
여름에는
알렉산드리아
철저히
프란치스코
4명
nt
나간
단거리
보행
이봉
제임
중생
콘테스트
포럼
##라나
##티드
##음으로써
##기갑
##짐에
2012년에는
시절을
정보통신
부르주
500m
소유의
탄핵을
##주식회사
2번째로
것과는
기이
면을
부러
비치
송도
아카이
우왕
유클리드
파랑
##테스는
##조치
##버스가
국가들은
국민들의
비판하는
##기관이
확인된
측정하는
2호선
감자
거치면서
광물
만났
상에서
예고
옥수수
의원으로
이랜드
재난
재료로
##레스는
##복합
##노카미
##속은
10세
클럽은
나무로
야마모토
만주국
il
oh
공세를
과는
관점
급증
보낼
살짝
시위가
신동
쏘아
자세를
포토
##카에서
##nd
##게이트
것이지만
조직에
바이어
비교해
증가했다
자료에
1878년
갈라져
영원히
소말리아
king
가이드
더빙
장르의
파우
##다와
##ym
##락의
##박이
##머는
제작하였다
이전하였다
진출하여
사업이
태양과
유래한다
배치되었다
thom
지바현
mit
번갈
상기
송출
신원
심해
암스테르담
적었다
준동
카이로
포털
##화산
##통치
##단체의
##6명이다
##왔으나
##ety
대사관
직후에
겨울에
남편이
하늘의
msl
가깝게
요르단
instit
2할
xp
깃털
보이지만
상소
안녕
알폰
완비
임의
전원이
주먹
##재산
가지지
아이언
임명했다
요구에
방식에
사후에
연산군
paul
각자의
기고
나우
말과
못했던
미세
벨리
본인은
퍼스트
##창이
##료의
지나면
배치된
움직임이
원칙적으로
대표팀의
글로브
인도네시아의
취소되었다
리더십
record
거리에서
못하도록
버펄
샌디에
소식이
수업을
자원을
장원
치렀
판의
##다람쥐
##자라는
##렉션
##럴드
이곳의
인민군
삼국시대
노르망디
3점
수염
의령
입자의
출구
##양성
##근은
##초와
러시아에서
작곡하였다
비정상
트럼프
쿠르드
신한은행
두꺼운
글러
당뇨
동등
아들의
퇴직
##활성
나타날
학교는
이동할
학생이
표기한다
후손들이
##브리엘
ger
ram
계엄
글자를
등에서는
무술
사단은
스포
오미
요하
찬양
찾고
활주로
##기면서
공격할
이산화탄
금환
남작
노보
발착
배향
버스를
비중을
산으로
슈투
일일
차세대
포츠
행위는
헌납
##공으로
##루에서
##락은
3월에는
작품인
음악과
노래가
분포하는
완성되었다
겨울에는
상업적
##프랑스
5일부터
두각을
막스
성적은
커플
##시브
##니코
##엔터
##ci
##것이
중국에서는
그림은
소재한
바람이
비율을
크로아티아의
5cm
공리
군인이다
뒤의
뚫고
묻혀
섞여
온두
자진
적당한
지점에서
질소
##맥을
##티를
##커를
##프턴
영화에서
인도에서
교황이
종류로
대성당
##상태가
5의
대나무
동요
만드
맥아
복권
증상
측이
친구가
##모에
##근을
##살에
고려사
이적한
활용하여
##세포의
경전철
피츠버그
끼쳤다
맹활
슬픔
않다고
인원은
팔꿈
훈장
흥미를
##남부
##궐선거
시작되었으며
정보의
적용되는
발행하는
1985년에
등급을
플래티넘
성남시
david
let
시합
외래
자카
특집
회사에
##데자
##참찬
##lar
축구단
공개적으로
주변에서
거주한다
올리브
##여자대학교
고유한
무시하고
8세기
ah
단말
대에
비스타
책으로
태그
힐베르트
##천과
시티즌
도르트문
9세기
걸리는
농축
숙부
여부
연설을
지린
총회
포터
##르다
##전에는
한국독립
##레이트
서로를
705
원칙에
분쟁을
2tv
동탁
먹이는
부당
성에서
신상
안전을
와인
##으려는
##ous
##질에
##막이
##민들이
이어주는
공격하였다
지하에
체결했다
파일럿
고향으로
아들이자
목소리
투쟁을
she
공소
불에
암모
정주
##창은
##회관
##바가
##륜구
##예가
##za
문화에
시간과
국민투표
이사회
이주한
너무나
아랍어
우루과
게오르크
더글러스
hot
sol
각국
무대에서
양식으로
자서
잔존
집착
##마력
##카쿠
##웠던
구성하고
제2의
상태는
거쳐서
대중의
##프로세
수원시
dream
남방
싸이
차고
칼을
항목
##시기
##전대
##무의
##그러
유지하였다
노래로
받았는데
현재까지도
2위로
기법
두개의
백만
봉해
순항
안되는
와세다
하타
##리얼
##호텔
1994
노래의
자격이
거꾸로
24년
교류를
군대와
막고
말리
설계를
앤더
없으면
위스콘
이사를
초당
초부터
함양
헌병
##c는
##문서
##절의
일부의
inf
조약으로
할리우드
그나마
대사를
목회
밀도
반역
붕어
승하
위촉
이항
작전은
저자
직계
##관인
##삼존
사실에
음반이
##대학을
결승골을
1874년
주인공이
근본적인
대량으로
7번째
sim
가쿠
납작
면적이
숲에서
연대는
용서
장소에서
행성은
##코토
##전용
##종교
한다면
##스터는
이론적
##tern
정당은
1875년
증거는
빠져나
완벽하게
본질적
3남
ft
구호
길이를
늦은
모았다
어우
음원
자국의
장이
전대
전적으로
중합
키릴
##천으로
##거가
##심에
과정의
반대하였다
헌법의
에너지의
1차전
남동부
북동쪽으로
비단털
5km
띄는
로키
로비
##암은
##투로
##직되었다
##증과
##쳤으나
설치했다
진행되어
라틴어로
남서부
공헌을
앤드루
3억
aut
군중
기성
당황
사상이
전적
정종
조부
주주
혼다
##cr
##선형
##녀가
프로모
경기장은
행정부
선언을
##berg
분쟁이
중소기업
##데자네이
3시
fri
규정이
너머
마애
박사는
속하게
열려
예가
의회를
##통과
##있지
##분한
##감사
##됐던
제1대
진행한다
구조에
조약의
공직선거
돕기
머리가
번도
세리
실리
위원으로
해에는
##타워
##대서양
##수입
##러드
존재는
폐지하고
다카라
아내가
나누는
북서부에
소수민족
구멍이
몸무게
자택에서
6일부터
rt
vir
강으로
골짜
데카
때를
상점
스퀘
시기가
##공단
##분류
##율과
210
북부와
증명하였다
빅토르
집안에서
무산되었다
조선인민군
2집
song
고장
공적
김광
말린
식사
작사가
카바
##원자
##면적
##질환
##누마
지역에서만
의사소
남편의
피아니스트
퍼포먼
j리그
강행
극도로
떠난다
모금
바울
쉽지
여단
오디
왕에게
주임
천왕
##연합회
apg
장악하고
승진했다
포도당
엑스박스
익스플로
gnu
2단
james
공로
구금
답변
바와
육체
일원이
주전으로
콜레
패해
##우로
##런의
1960년대에
경제적으로
가리켜
물리학자
국가대표팀은
파견되었다
라이온즈
위키백과
유라시아
광해
구독
군복
도키
벌이는
앞세
없었지만
위함
인적
##cl
##p는
##fm
##군주
##7명이다
##두의
##례에
##되었음을
야구를
클럽에서
예정인
편찬한
##여자고등학교
꽃잎
마비
버린다
서인
성북
최장
탤런트
향상을
회장이
##스틱
##cess
##공장
##공화국의
##오던
##순은
활동으로
일부이다
이어지고
2018년에
2004년부터
이론과
##시간이
과학의
지속되었다
엔진의
제안한
종류에
죽음으로
나카무라
취득했다
이바라키
나지
돋보
두가지
띠며
애완
조그
주부
청송
친족
타케
##궁에
##아노
##통에
##선발
1940년대
2007년부터
2006년부터
이슬람교
공부했다
##시험에
레스토랑
3위로
award
높았다
박해
불신
위조
칸은
##할린
활동과
제작했다
주장으로
독립한
stat
증가하였다
작업은
이주했다
스테이션
거절하였다
받아들이지
라이선스
가던
말에서
모빌
베오
부교
싶다
원종
유스
읽을
정칙
편이
휴게
9월부터
애니메이션이다
책임이
##사무소
반정부
베풀
않다는
종묘
철학을
퇴장
하므로
##정사
##방송을
조지아의
집합이다
성격의
네트워크를
대다수의
프랜시스
오세아니아
bi
soci
개기일
물체
사신을
유수
이제는
일가
전기를
초콜
취리히
##수로서
##망은
법률을
둘레
등번호
맥주
문종
미성
자위
정인
출동
클루
##표의
##1은
##알라
교육에
##대학으로
아시아의
법률에
출입구
바닥에
후지와라
알제리
켄터키
공안
과연
내며
메틸
문자로
법은
복역
새마을
혼혈
화재로
##치면
##정지
10일부터
##였다는
이름에
항공사로
경찰서
성립된
장악한
카스티야
hen
line
그릴
무언
방어를
상고
수목
앵글로
전멸
죽여
책에서
코뮌
하키
회상
##무기
그러다
중국공산당
##부분에
지방과
판매되었다
피해자
합류하여
필리핀의
api
서초구
3단
dos
거세
루돌프
보기도
에른
줄이기
중이며
##네를
##by
##증권
15개
사이에서는
참여를
참가해
##이라며
총칭이다
리우데자네이
마닐라
long
sur
금산
니켈
다윈
말도
성명을
어리
장치가
코드는
퍼즐
평원
##b는
##보국
##문인
##겠지만
##달라는
##0년부터
##ery
부분일
1일을
인물의
인물은
현대적인
오늘에
이해하는
체결하였다
권한이
아카데미상
매장되었다
마그네
4승
만년
매표
분홍
쓰이지
일괄
일식은
입수
토트넘
투어를
행해
행사가
##와서
##화문
위치하여
감독에
2005년부터
보통의
대체할
문서이다
경성부
목소리가
아나운서
수수께
고마
구경
천사
##쿠르
##바오
방송되는
번째는
선거가
거부하였다
당선되어
지진으로
느끼는
수컷은
구멍을
유니버설
도미니카
hol
sun
꿈꾸
두지
반입
상소를
소작
여인
염소
오산
자명
##리면
##어류
##코로
##vid
##변호
하나씩
인해서
승강장의
발전과
전국동시
결합을
##tain
클라우드
잃어버린
college
5개월
구에
남산
배달
부회
외부의
이홍
첼시
튼튼
##만으로는
##히드
러시아어
스타일을
fir
현대자동차
이와테
승리하였다
언론의
즉위하였다
이주하여
종목에
신설된
성능이
철저한
라파엘
토스카나
오클라호마
22년
dec
법안을
앞둔
이보다
재팬
전차를
코린
##지로서
##지라도
##번으로
##청으로
##콜라
사용자는
기록했으며
방송이
인정받았다
증가하는
북한은
스트레
달라진다
명확하게
free
a3
cy
공장이
구역으로
다쓰
맹세
범위는
신진
완결
정도는
해안을
##왕국
##후는
1980년에
인물을
이끌었고
집행유예
전성기를
big
대덕
릴레이
밀란
비어
비싼
선으로
신석기
왕조는
음이
자립
재편성
직교
케이스
패하고
형제는
##도스
##천년
##소인
200여
2011년에는
지원이
대체적으로
이승만은
##고등보통학교
북극점에서
jtbc
순차
슈타
양력
우체
투자를
파시즘
화랑
##와도
##물리
대한제국의
기여한
부모는
app
출간되었다
국토교통
천연기념물
쓰레기
거뒀다
고치
만인
워드
한창
해군이
호랑이
##동원
##디아의
##사다
##사르
##로스는
##지리
##무덤
##직이
##텐셜
1992
조선왕조
중국이
존재로
파견된
그린란드
충돌이
클린턴
날카로운
가브리엘
격려
경건
고트
곳이기도
굴복
남송
미식
찍어
타인의
탁월한
##바위
##ds
##가게
##적이라고
##절로
##확인
중심지이다
러시아가
태풍정보
부임하였다
끝내기
낙동강
전국동시지방선거
wr
깊게
등지
리프트
섞어
성동
성매매
조화를
형제가
##수송
##wn
사용했던
마을로
##기관인
금환일
ast
night
rich
격리
둘이
마요
민정
병력은
보며
사각
엄마
이단
인정을
정권은
크기와
팀이다
##미치
##디드
##28
##승이
##슨을
##탑을
설립을
운동과
내려졌다
이성질
특성상
tu
과시
규탄
기쁨
라치오
민감
불균
비해서
심야
아프
영천
일간
전자는
질문에
책록
##자문
사람에
아이젠
생각한
국왕으로
1986년에
##데이터
벗어난
akb
4학년
교회에서
로베르
서자
서위
자코
파충
폼페이
형용
##공연
2022년
##지방검찰청
요청하였다
계승한
amd
파라과이
펼쳐져
##타나베
카디널
bra
고생
날로
마술
생일
얼룩
질량의
쿠빌
호출
##대회에
야구장
결승에서
450
가톨릭교
project
강조했다
느끼게
끝난다
났다
아뢰
연대를
조항
집단의
해전
협회의
##사사
##공립
##네르
##지어
##any
만들었으며
이루지
따르지
중요시
귀국한
##ization
class
크리에이
cia
계의
근래
능동
다리는
말하자면
맞배
머리는
문자는
배운
법원은
본존
양보
요괴
있듯이
편안
해역
해독
##gy
##적한
##루크
14세
발표하여
받아서
역할로
평가가
시행된
##슬라프
6만
곡물
목요일
본관으로
팬들의
포스
##4명이다
##sp
영국인
선언하고
부진으로
일러스트
병자호
3연
7일부터
cup
김형
낮고
만장
상정
생몰
숫자는
신을
신학적
알프스
이겼다
크기로
##라서
##9명이다
##ox
##화하였다
##45
통과한
설계된
결성한
개찰구
노태우
수수께끼
back
고흥
부추
신입
않으므로
울릉
카즈
흑백
##들고
##급은
##뤘다
경우와
##리그에서
##rol
000m
명칭이다
교황은
수행하였다
아키텐
인공지능
tom
법이
브룩
순서로
저해
전주시
정리에
황폐
효력을
##제인
##표로
##구스
##이었다는
조사에서
교수이다
창설된
완공되었다
히어로즈
박영효
##엔터테인
hum
mov
tri
수페르
영월
이언
직경
청계
통하는
휴대전
##라토
##5명이다
##심사
것이기
1월에는
교황으로
이동하여
연주를
남서쪽으로
승진하였다
살펴보면
미스터리
충렬왕
##네티컷
결핵
맡는다
명륜
석불
세분
찬사를
콘솔
펑크
포격
##쓰고
##27
##일기
##질과
##탄은
##살을
##강도
교체되었다
road
일치한다
스튜어트
길러
대승을
몰두
성질이
스이
조소
청도
체르
학과
##코치로
##현실
##로워
##임의
##so
##경쟁
##순이
20일부터
활동했던
11월에는
##cm이고
행동이
에스컬
방정식을
순서대로
2승
나빠
매립
색의
성악
청소
측면을
##르면서
##강한
아이즈
않았을
40여
확실하지
방정식
테스트를
심사위원
인테르나
납부
다수를
배터리
시중
영암
의용
##번대
##곡리
2008년부터
그룹에
방향의
아내인
단백질의
##peg
프레임워
가늘고
association
fk
상에
성문
안고
오시
정적
제왕
지탱
한달
햇빛
##포타
##블릿
##순의
독일군은
우승과
로마를
발매됐다
시민의
오른손
접근을
이주하였다
근거하여
세력으로
##리우스는
프로세스
이뤄진
하노이
결핍
내린다
레버
물은
불필
산티아
연관이
자민당
최남
##어사
##2명이다
##암이
##군인
##늦게
대전에서
추가된
주변을
기념하는
##트가르트
alb
전설에
들어서면서
신청을
ktx
##라에몽
기슭에
bab
구내
굴절
글리코
도출
보자
상품을
종식
죽임을
토목
헤센
##미네
##용과
##수염
##나가의
##1명이다
##퍼레이션
##lin
##극을
지방으로
기반이
조사한
에너지는
즉위하자
가톨릭교회의
트레이닝
논의가
메시지
인상적인
가토
법적으로
신봉
신학교
##메이트
##약은
##청과
##노부
주장도
생성된다
기초한
에이전
개정으로
##ship
1명이
4일부터
곡들은
공적을
마땅
모차
미군은
수만
오자
원소를
정관
조조는
중견
추축
테라
플리
##하늘
##구멍
##당하자
기술과
조직된
정의된
보통은
##ode
통일을
노르만
가르치는
설정되어
동원하여
2일부터
거란
꼬리는
버스가
얻었고
직속
차르
희곡
##지법
##오게
##잉글랜드
아이들을
민주당의
아무리
혼자서
기대를
사바나
요정
정화
지분을
코네티컷
패럴
혈관
혐오
##로쿠
##채의
##캠퍼
다시금
지정한
국내에
조약은
기후는
달아났다
평균자책점
탄자니아
가루
강의를
구획
남인
달린다
동인도
믿는다
보였고
부부는
불상이다
시체를
인형
정경
정읍
취하는
친왕
##장에게
##남에
##흐트
##봉의
##궤도
1993
시즌에서는
##라이드
2009년부터
거두어
식민지를
미래를
남서부에
저지른
ext
주어졌을
방사선
##유가행
무늬가
차가운
위스콘신
고르
과학자들은
군청
극한
맞춤
선양
응급
정박
칭기
현역에서
##미나
##시다
##메드
##무르
##까지를
레이싱
국내의
##바이러
미군정
무사히
카카오
hel
같다고
디에
손녀
신천
애기
종영
황색
##타점
##세였다
사업의
조건에
합류하였다
프란시스코
플레이오프에
fun
mich
도이
동진
라쿠
복무를
쓰나
유망
조조가
향하여
##니언
##발생
##두가
##채와
기준에
노르드
스스로의
살해한
5명
lou
mid
고을
공감
광고를
군과
독서
리조
매리
머신
배의
스텝
시원
없음을
요원
원고
이같은
일주일
주세
지분
팔아
휩싸
히브리
##다니는
##군도
##광은
10억
1990년대에
되어서
260
뛰어넘
북동부에
거처
누리
리베르
물결
보은
조차
조정은
##하길
도시와
여성은
간행된
4세의
말고
명나라의
무네
보름
성행
정해져
지침
추억
해준다
##공사가
##정부를
##판매
10위
경우이다
##ars
사회가
##uss
시민들의
명령으로
거두었고
강력하게
무너뜨
##무장관
프랭클린
사간원
신시내
마키
봉수
살며
아쉬
오와
왕인
우물
의사가
조심
펼친
##디자인
##지않
##배의
이후인
5월부터
6월까지
기관을
지내다가
세웠고
착공하여
유식유가행
3호
고온
마스코
신은
잎이
전제로
조영
##바브
##체제를
##절도사
##른베르크
지방선거
돌아가는
표현의
통합되어
연주자
해석을
인플레이션
ba
가드
도라에몽
매직
방공
배척
자처
저그
적발
제의를
형의
##코를
사망할
경찰관
시민권을
남동쪽으로
##시킴으로써
격렬
나리타
부풀
연달아
와는
제인
조롱
발전했다
사랑과
시민들이
총독부
학술적
미트라
시선
신기
일각
임원
후방
제26
생산하고
ant
언어이다
1877년
공화국은
사라지고
000년
4시
ok
국기
단체를
무게는
시국
아드리아
양평
조의
채소
##다발
##바와
##공과
##등과
##술은
프로그램인
2003년부터
멤버가
1984년에
사태를
처벌을
엘리자베
플루토
백악기
시외버스
방글라데시
cg
갔다가
뜻하며
먹기도
명단의
발동
백신
블로
세븐
여자가
입어
자릿
주일
지켰다
칼럼
항만
##사자
##농업
##몬트
사업은
모양인
종교는
행동은
1세대
전사했다
무엇을
미드필더이다
익스프레스
sing
군함
기차
놓아
먼지
산이다
습득
연중
이륙
일하였다
정리를
통폐합
황실
##동물의
##35
##크레
##저를
##혔고
11세기
국가정보
우승으로
필요하다고
전국에
블루윙
##ugh
1세기
3시에
8세
batt
기사가
높이의
뒤에서
열릴
있은
정계
체스
타타르
편을
혜택을
##노르
##든가
1979년에
독일을
집중되어
웨스트민스터
브루클린
심리적
프리미어리그의
blue
charles
2세를
ht
pap
비옥
인코딩
자리는
필터
하쿠
행위에
향했다
##티와
##대리
##테의
##신앙
##처분
##쾌한
스타일의
클럽으로
선출했다
사무총
밝혀져
기사이다
프리미엄
텍사스주
올스타전
소나타
아틀레티코
die
간결
높이기
버그
번씩
슬램
한의
합의를
##어스
##티즌
##mo
##역인
##행과
시대는
결승에
시민권
uefa컵
넘어갔다
미래에
물러난
재정적
극장판
볼로냐
ol
꾸며
몹시
미군이
박상
빛나는
신분으로
패킷
한겨
회원으로
##마케
##ger
##군수
##결과를
##골이
10세기
국가에서는
실시하였다
나오게
유사하게
언급하였다
것인가
http
dd
vi
거머
괴물
구슬
동전
본관
오만
##술이
##하였으므로
이용이
발달하였다
탑재한
얼굴은
구역상으로는
보냈고
국사
볼프
성우는
수단을
재계약
표기는
함대는
##아로
##라드
##익스피
##ari
12월부터
여러번
자유와
계속했다
후보의
마을은
조건은
베르나
브란덴부르크
##에너지
거시
걸프
기적
끝나는
번은
##마한
##선인
##층에서
사용되었으며
생산되는
분포하며
1972년에
발발하자
후계자
정교한
호소카와
2점
ve
곳이었다
범위가
색은
서바이
소생
의식이
임계
편이며
호모
##디로
##상황
##할수
##움이
##태가
##협회의
일본식
문화는
생산한다
지구로부터
champ
도로의
제품은
자이언츠의
영원한
클레멘스
9회
ear
가격을
근사
기압
다마스
문정
바스
보이스
복수를
비토
신전
여운
왕래
카네
풍습
후유
##수교
##장성
##탄이
##시키려
이탈리아를
##스터의
개최한
50m
다이빙
전라북도의
관할하고
하이브리
바다로
재직했다
함수이다
오리건
브리티시
1인당
rem
경량
눈물을
병에
손님
원소가
타는
효자
##리스는
##시안
##공작
##방법
##투수
##족으로
##형문화재
1970년에
6월부터
하였다고
##시키면
시리즈로
708
작가가
##시설을
협력하여
대표팀에
부임한
화합물
그러고나서
3세기
bel
게리
고쳤다
공시
김승
당하는
서거
세상의
여기는
여론이
인위
키보드
##코치
##가락을
##등기
##모양
##버의
##요일에
##하지도
영국에서는
계속하여
활약하며
50여
충청북도의
자리매김
승리하여
세포가
공화국을
이해를
움직일
처리하는
확대되었다
주둔하고
히틀러의
의거하여
type
힘썼다
공영
남성이
밀레
봉화
세례를
실권을
인테
일산
주기로
편으로
형을
##아에
##0년까지
##ors
국가들이
중국으로
이상인
중앙은행
기관으로
연관되어
web
초콜릿
3가
금동
끝을
내포
둘다
떼어
많지만
맑은
미셸
완봉
위상을
입상
저질
전봉
쪽의
화재가
##회사를
##인간
##고스
##루엔
##광의
일본군이
1990
만들기도
000명이
올림픽을
식민지의
가입하였다
mart
얼굴에
랴오닝
8대
교부
보령
숫자를
여부는
이례
조셉
촉발
##표준
##비치는
##조연
##ax
##훈의
기록하였고
구성요
아이콘
개발하는
중앙집
아래에는
2013년에는
불가피
복귀하여
아내와
law
에른스트
lang
가우
개로
궁중
못하였고
보로
슈고
지대에
평상
##친왕
감독직을
제27
개최되는
보수주의
2위에
9일부터
당나라의
로타르
모하
버린
보이기
생길
얕은
요인이
점검
철강
총사령
추리
##64
##리스타
지배하에
이듬해에
채택하고
채널을
베어스
당사자
트윈스
기원을
번호를
요즘
조회
행위가
혜성
회원이
힘의
##멕시코
1983년에
한국이
인구밀
도입하여
선정된
도착하여
제시하였다
1982년에
생물학
코트디
pos
끝냈다
능력은
때와
북경
아디
원심
즐거
총회에서
패스
패트릭
##로니아
##지이며
##왕복
##담당
음악이
지원했다
않았는데
##ody
##거리에서
요리토
일찍부터
베네딕토
메소포타
pan
개미
관리가
구부
대량의
이심
익산
질서
휘발
##제도의
##렸다는
##헌법
##섬유
기준이다
평가받고
앨범에
2001년부터
구분할
작가로
fil
jose
금호
모리스
세가
송환
엑스포
요소로
자행
잠실
재개발
집적
휴양
##사들은
##전력
##주간
##러와
14일부터
##회의에
2011년부터
학생을
설명하기
유니언
부모님
득점하였다
기억을
머물러
뉴질랜드의
발탁되었다
다카라즈카
1조
감상
겐지
견디
병기
연락을
예일
윤보
이길
정예
철도를
카피
캄파
타인
##kt
라이너
정당한
조성되어
내세워
플랑크
파푸아뉴
ever
np
경매
기장
뉘른베르크
먹이
소용
신약성
실은
없어진
일생
중개
집의
충칭
키르기
핵탄
##비크
##전적
##무관
활동하면서
대학교는
드라마로
비교하면
강력히
제5대
안전하게
great
연호이다
슈투트가르트
3번째로
디비
땅에서
레일
심화
아델
영역은
장치는
푸젠
필연
##백화
##비우스
##고지
##좌의
경우의
##위원장을
중앙정보
결정하고
예술의
비율로
8강에
##다니며
객원
기온이
꼬리를
모모
의장을
죽이는
침범
크기에
픽처
형벌
후대에
##서비
##아트
##니우스
##트트릭
##밴드
19일부터
##0년에는
##시아의
일부러
정치의
생산되었다
##운동가
기타를
##ipp
목록을
이야기이다
제거하고
가로질러
제13대
비스마르크
마운트
쿠빌라이
1점
pp
utc
변질
수인
씨를
외국의
유체
입장에
전장
제도와
죽었고
징계
케플러
풀백
##바를
##부시
##규는
##저의
##팀에서
활동했고
자연의
건설이
여기고
개인용
보수적인
heart
무엇이
선생님
보헤미아
mlb
헤르체고비나
gold
신임을
야전
이니
투하
후자의
##대비
##인구
##당시
##급으로
##팀과
##출판
1974년에
발생하고
반대하여
산업이
논란의
파견되어
회의에
헤르만
##ucn
김정일
발족하였으며
tim
갈색을
도읍
메카
안토
위원을
장벽
차원의
컨텐츠
콜럼
페라
##하곤
##호대
##막의
##책이
20세기에
1973년에
모양은
일반적으로는
담당한
사무소
마르쿠스
남부에서
스위치
황태자
그랑프리
wii
가졌고
겪게
광대한
구강
깨고
도청
만날
무자
반성
법령
법안
절망
주창
지오
초회
##하리
##29
##고시
##등은
##재와
##랑은
##절도
##새가
그러면
가능성
##ild
##osa
그것에
연합군이
공간에서
바로크
건강한
##노동조합
단단한
본사
실수로
앞에는
양서
연화
유정
이브
임기를
자사
즐기는
측에서는
테베
##서울
##제사
##인산
##합의
##vent
1949년에
##ese
종교적인
임시로
위치해있다
아테네에서
마이애미
iucn
miss
것들을
남매
바리
불타
엇갈
열두
월남
일기로
직업을
징집
찰리
하려고
##철학
시작되는
국제선
태양계
성장한
나뉘었다
조선민주주의인민공화국은
병사들이
고등학생
브레멘
증권거래
스카우트
설일체유부의
5세는
개수
걸린다
불량
설문
소문
스몰
이들에게
전위
조이
##키스
##방식
있었기에
조직하여
스페인은
정책이
추정되고
기타큐슈
시설이다
스트레스
바꿨다
sat
라디
보류
장관은
재앙
족의
중용
지을
진료
##프에서
##주사
##락에
국가들의
여성과
삼성전자
교회와
시도했다
홈런과
신화에서
라이프치히
div
est
pal
목에
묶여
사할린
정계에
크며
품은
##대회는
##기만
##개와
##진구
##피트
발견되고
사망하면서
생각하여
정책으로
서식하고
1879년
거두고
제거하는
노부나가
돌려보
705인
1칸
5가지
ru
군마
급여
대를
목욕
반대를
불려
빠르고
사명을
소아시아
속했다
쓰게
에노
처리를
칠곡
컴백
튀어나
하후
##리드
##피아의
##위치
12월까지
개발하여
돌아오는
결합한
이사장
##스키가
혼란에
아이디어를
각본가
시마즈
##레타리아
캄페오나
같았다
남자의
유닉스
자켓
줄이고
취할
특산
패밀리
##ru
##구간
##닌은
선수단
2월에는
이것에
데뷔했으며
##문화의
모델의
소설의
전해져
캐릭터가
감염된
베를린에서
문헌에
명나라에
광둥성
5위를
mot
관구
국철
도도
도봉
양상을
오가는
충성을
홋카이
##아스
##비안
##부대를
##쉬는
참여하지
역할이
인정했다
여기서는
##km2이다
알렉스
이외에는
모스크바에서
청나라에
gi
내전이
당하여
도마뱀
뛰는
무리가
소가
연말
육지
제헌
호모토
##비언
##임에
##보았다
##단백
자신만의
국가들
구성한다
행정동
state
연주하는
치료에
살아가는
활용한
work
디자인이
어려서부터
불분명
군데
근위
뒤늦게
리스트
발톱
부주
생선
수증
여학생
오일
캐논
##바스
연합하여
공항이
나무의
이시카와
##ency
늘려
사수
왕정
원동
일주
일삼
제동
철도는
퍼텐셜
형제의
##대수
##1호
##움의
##곡동
##요가
##례가
이상적인
성공한다
부산광역시의
레이더
비슷하지만
선택한
결합된
달성하였다
장착한
akb48
oper
무르
벵골
에페
왕궁
우위를
재료를
패자
형이
확장을
##티넨
##기아
##했기에
##때는
이상은
2010년부터
제공했다
데이터가
떨어진다
가르쳐
progr
전시되어
학문적
요미우
유용한
1단
갈리
공국
다행
단정
떠날
변모
여주
영사
온도를
의성
의상
잡을
통킹
판본
히노
##다테
##정상
##ql
##클래
##대학교는
서비스는
명의로
설계한
체포된
10년간
공유하는
생명체
##축구연맹
거룩
건안
도네
며느
발산
주의를
죽는
중거리
칸이
크메르
파시스트
후루
##키에
##과와
영국군은
정도이며
시스템으로
개봉된
지하철의
자체적으로
전설이
개시했다
루마니아의
imf
3명이
6명의
7만
sil
감소로
규정한
둥지를
리히
림프
복종
비둘
시장은
유령
이조참
일리
주제에
하기로
회사로
##치카
##업무
##처의
##버스를
##준을
##딘은
12시
##ano
시간대에
제공할
올라가는
왕국과
출생하여
구별된다
마르크스주의
이노우에
폭넓은
여우주연상
부다페스트
과잉
권력의
단어의
묘지
살아가
시오
여타
위패를
있으니
장자
절도
탄수
##제일
##운은
##노미
##머가
시작을
아이누
운동으로
시스템에서
학교가
입단한
대중적인
사라져
국정원
개그맨
aa
god
안정을
에마
자체에
충무
캐리
푸아
풀이
##르스
##폭력
##승은
##먼의
국가이다
230
공개하였다
확인했다
주민등록
##ague
명예를
부모가
등급은
##텔레콤
유니폼을
네티즌
대여
무어
미카와
반격을
벌이고
설명을
열리고
유영
집단이
피살
##판에서는
##불의
##새를
보고서를
##시간에
물질은
1859년
3위에
dem
당하였다
등산
셰익스피
영덕
완수
재벌
한데
함은
해트트릭
##마귀
##언이
##대학교에
붉은색
관료이다
임금이
dist
j1
삶에
예종
요시아
유지를
의정
잔여
장관으로
조경
호기
##아비
##b의
##레와
항공기를
건물에
모양이다
입학했다
atc
도쿠시마
극단적인
오바마
플루토늄
mk
감추
경순
따랐다
명목으로
무제
밑으로
방대한
배반
부등
산과
상가
수시로
숫자가
아쓰
아놀
외손
잠입
전면에
정형
탈당
회장은
후원을
##움에
##링의
##먼이
##하기까지
기술로
돌아갈
추가적으로
관리한다
앨범인
지나가는
불교를
사령부
제7회
거절했다
대승불교의
무함마드
ul
가뭄
개선을
김선
날은
동의를
못했으며
묻혔다
반도에
벤처
별명으로
복속
승정원
예편
음주
점진
줄리
쳐서
초까지
최영
통역
학명
화제를
##바인
##ris
##조작
##움과
##문제를
##해질
아이의
언급이
기초가
연맹의
##시설이
니콜라스
고성능
아세틸
과테말라
강에서
고후
길로
꾸몄
모스
박원
반달
앨라
입구에
정문
증발
##타라
##실점
##모어
##wa
##녀의
##ated
제작하는
역할도
마지막에
이야기의
##app
근거를
제6대
로맨틱
이글스
제너럴
교장
살면서
여럿
임기는
전리
중랑
지명은
차이나
채색
철학의
카슈
현무
##필을
1988
대학은
소련군
어머니인
##기관을
하이퍼
근거한
오스틴
탄생한
격파하고
브래드
mu
가량의
눈은
말에는
몰도바
미만의
선조의
승낙
실효
종업
짧게
천장
타우
테두
투신
환자가
##제조
##99
##만인
##오에
##설과
##태는
11일부터
프로테
인구를
출시했다
없었다고
가정용
1남
3는
4분
mg
공국의
삼은
세토
스기
신당
에반
여부에
용해
전력이
지날
파주
패망
##33
##ael
##닌다
아이티
그녀와
조직으로
음반인
내려오는
비행을
왕국에
수준이
인민해방
센터에서
사진이
성우로
미니시리즈
비틀즈의
대웅전
스리랑카
셀레우
격하
날려
대수의
동물을
명제
무찌
복수의
순례
안팎
이조
이범
전방
초의
침체
##로에서
##산염
##충이
사회민주주의
앨범으로
남부와
##iew
선고했다
##플레이오프
확률이
히타치
united
조선후기
8일부터
겪는
결제
공주시
단점이
매도
문자의
저수
적법
정거
총리의
필하
회유
##성장
##보스
##보지
유명해졌다
만들어지는
동물로
수준에
스테인
캐릭터로
공군기
세웠으며
신체적
general
검열
묘는
무기로
사민
월터
적당
풍경
##동성
##호에서
##메스
##레스트
##버가
##목과
##순에
##억원을
##샤의
일어나기
등록되어
근무하였다
this
##ney
손해배상
mt
게스트
균등
부왕
삼는
심포
입자가
장시
출품
해킹
##마켓
##기상
##기병
##46
##야말로
##달의
참가하지
##eld
지나친
바다에서
내부에는
핵심적인
800m
천안시
제15대
여의도
유벤투
power
것들은
권유로
담보
둘의
뚜껑
살기
수은
왕가
외삼
자궁
전미
전자를
중건
추운
코리
합천
##내면
##품과
##직원
##충의
사람인
경제적인
대학교와
##urch
다이노
재판에서
##ific
미술관
플레이오프에서
맞이하였다
사운드트랙
급격하게
way
교원
모욕
보정
사림
솔루션
신기록을
쌓고
저주
직무를
##미래
##해서는
##좌에
##박을
##희를
나타냈다
역사학자
내용과
기능에
결혼식을
단백질을
신앙의
내놓았다
제17대
추증되었다
패러디
network
감리교
thomas
가기
국악
금액
내에는
도산
바쳤다
세번째
싸운
싸울
양은
양조
인사를
전단
줄일
줄곧
타오
황소
##제비
##ning
1991
연구로
설치하는
필요성이
보고되었다
2002년부터
내각이
아침에
치러졌다
6천
ben
m2
교단
날인
단속
데에는
묘소
변이
앨버
외할
조수
창고
특성이
##리기도
##니티
##바도르
##화했다
##히라
당시는
1975년에
중심지가
드라마는
개인적으로
선언한
패배했다
발행된
지진의
세력에
떠나게
센터백
제19대
자발적으로
남자는
뇌물을
버스는
생명의
스윙
양쪽에
점으로
주며
클리어
키를
할양
##마라
##학으로
##집이다
##참여
하나에
올림픽에서는
##olf
##르트의
태양이
기관은
통합을
작용한다
충돌을
거래를
바깥쪽
icbm
장로교
가스가
뉴멕시코
다국적
무쓰
바젤
부부의
수비를
아칸
얘기
의류
조봉
##돈의
##목사
차지하게
##ama
이적을
적용된
##드리게
사무라이
회사에서
주도이며
출생한
정착한
90년대
dom
강성
그럴
드레스
받던
영미
영역의
오우치
위법
입당
입후보
잉여
피셔
향신
현상이다
희망을
##명도
##원사
##사적
##ila
##길은
##해줄
12일부터
과정이다
거두지
한번도
스트리밍
play
프랜차이즈
0의
격자
기를
날을
날개를
누에
복위
사하라
세르게
식용
신체의
울프
주저
헌종
호스트
1971년에
폐지되고
시험에
사례는
오토모
일으키고
개찰구는
토착종이다
영의정
각료
강하고
생물의
신자
앞뒤
음운
제나라
찾지
추론
한사람
형식이
##은하
##우회
##기통
##곡면
##km이다
수도가
관계자는
경제에
형태와
복귀한
1812년
양성자
분위기가
대의원
메트로폴리
home
경선
교리를
구례
네바다
밀가루
발포
변하지
비를
새정치
오르게
천체의
초전도
쿠퍼
탱크
##생성
##소재
##개미
##ky
11개의
조선시대에
세계로
가지를
제22
대회인
##ional
운영한다
싱글은
선출되어
오늘날까지
발행한
고가역이다
챌린저스
세종특별자치시
japan
캄페오나투
land
mult
고종의
뉴클레오
문명의
복식
분사
비지
서프랑
셀틱
시인이다
실증
약사
열쇠
예약
왔으나
정진
##타리
##마니
##조사에
##토에
##그라운드
대회로
러시아에
사상에
32강
요청으로
결성되었다
오사카시
2세대
교향악
샌디에이고
dig
gps
나간다
분별
연도
이룰
장래
재외
주성
후추
##rich
##브란
##팀이다
아이오
문제점을
소속기관이다
##elf
기업은
##ival
사고의
내려와
정규리그
패배하여
real
종류이다
실행할
반발을
##상태에
끌어올
망원경
맞배지붕
키르기스
cell
강진
기온
상자
셀주
소아
슬하에
행사에
현이다
현장에
##각에
##ility
제공한
영토에
집합은
등록된
1858년
주어지는
세르비아의
2세기
가졌으며
뉴올
번이나
법원의
신분을
작위는
전학
절충
주역
집단을
초음
해시
##했으므로
##청소년
##컴퓨
##림으로
##갔지만
아이오와
보고를
부산에서
반대했다
소련과
차량으로
번역한
제시했다
개편으로
계산할
island
신뢰를
힌두교
nasa
화강암
생몰년
넘치는
들지
땅이
물체를
믿음
배는
범람
분단
불릴
수군
예산을
장병
재보
전교
직렬
토성
##아지
##브러
##냈으며
##∼16
16일부터
선수인
많은데
11월부터
아이들이
전투이다
구조적
등장하며
2003년에는
지배하고
불리던
위험에
금지하는
주인공인
배출하였다
자극을
windows
george
이데올로
over
가역
국의
뉴잉글랜드
문학의
민물
유방
자갈
조정을
춘계
투니
하카타
##는지에
##금속
##지였다
##배로
##쳤지만
1981년에
이용하면
인도양
사업으로
##기술을
출마를
머물렀
스타디움에서
석방되었다
브레이브
내야수
2번의
hal
고찰
고기를
교량
글렌
기밀
뉴턴
단결
두터
듯하다
마니
물자
빠지게
순식
스쿠
악성
오스카
폭은
한계가
##사도
##로라
##가며
##세요
##크리
##중이던
##북면
##유전
##찬성
활동하였으며
1950년에
가능성은
분류는
제공하기
시스템이다
제안하였다
##정보를
원자핵
commun
그만두고
고고학
의도적으로
닛폰햄
cur
대문
대군을
서면
염화
책이
포스포
##도움을
##비노
##자로부터
##해로
##처가
##처벌
##둘러
##에게만
여러해살이풀
출연해
생활의
##대학에서
아닌가
언급된
추진하고
선생이
모노이드
저렴한
끊어
바트
봉황
사설
성산
앞바다
엘레
영락
장대
정정
지위가
코난
클릭
표출
핵융합
후자는
##브리어
##토프
##구조를
##행렬
##1년에는
1963년에
결정할
##하려던
만들어졌으며
출시되었으며
마드리드의
타원형
희귀한
패키지
하이드록
8개월
dan
경원
도르
딱딱
모란
부인이
쌍의
썼으며
아흐
유적이
자랐
토모
하의
한산
홍성
휘하
##시카
##조부
##거리에
##받기
##격투
##꽃차례
##리아를
가장자리에
##atic
##하자마자
플레이를
소설은
환경이
출생하였다
직후인
도망쳐
인터뷰를
무승부를
시트콤
doc
꽃을
당진
되풀이
들의
미칠
쓰이며
아편
전자가
철학과
##인권
##록에
##데일
##호인
##ux
##gs
##화도
##웨스트
##저가
##됐지만
##리아와
경제가
##eter
바뀌는
에드워
트랜스포
아인슈타
6회
고개
귀순
내주
떠나는
리튬
수요일
식을
요양
유선
육식
이별
전범
테헤
##들만
##기원
##노마
##빈이
##었다는
위치에서
한국프로
서울을
2월부터
게임과
2000년부터
that
투입되었다
소장하고
임무는
원로원
안티고
2남
격침
되게
밴드가
식물을
주동
처한
통제를
##라바
##36
##min
##적이라는
##받았으나
##모양의
##버린다
##las
배우고
##하자고
##운동은
상황이었다
##경기장
동물이다
주민이
단체로
영토는
프로젝트에
제목을
##단체인
##사이클
논문에서
프톨레마이오스
뉴올리언
구장으로
기리는
기도를
반기를
외척
정권에
카니
포천
##질량
##그의
##센티미터
##청사
##리아스
##주의자들은
이루게
##itz
1일까지
기능과
반대하고
##르트는
이동을
컴퓨터에
위원장을
페르미
해결할
출생하였으며
노력했다
구체적
라이브러
개막전
유로파리그
만장일
고의
그란
내몽골
묘소는
북반
시성
아들과
아종이
예로부터
외환
요소는
초식
코끼리
##사에게
##li
영국을
개발도상
영토의
유니콘
처형되었다
침략을
tor
가가
강렬한
깨어
낮추
배분
부제
불상의
에두
영역이
중공업
추세
패스트
페레
##원칙
##상공
##정주어
##자마자
##율의
##뉴얼
사회적으로
대표이사
리그가
사실상의
이탈리아어
2021
승강장에
비롯되었다
dev
포르노
히데요시
##노동자
사임하였다
어디까지
숨겨진
미야기현
어촌정주어
요하네스
bs
국수
논산
뒤덮
무겁
불상은
샤이
서지
용맹
이윽
전선에서
##비한
##ico
대표작
설치류
진행한
출연을
표현한다
변경을
판매하고
tv에서
바뀌게
종목이다
대립이
franc
##계획을
분노를
정체성을
로렌스
1호선의
ray
vo
wom
러닝
바이트
변하는
석권
엔트
옮겼
줄이는
표면의
##탄에
2010년까지
##들에게도
지구로
유지되었다
지도자이다
대중에게
남동부에
1839년
soul
포도주
사가미
붙잡혀
구스타프
대니얼
서스펜
alex
md
공세
김희
대담
문자가
북중
상대를
신해
였던
유포
자음
필두로
해주는
현실을
##부대가
##메니
19세
포함되는
연구하고
아이스크
##스터를
프로그램에서
전문적인
업무는
##노동당
탄압을
명백한
jun
sem
각성
댓글
데는
맞물
빨강
사하
셰이
시도가
없도록
주제는
진리
통솔
표창
하겠다
행성을
##이시
##gen
##운수
##xy
##ов
9월까지
감독인
제작되어
부분이다
##red
##ural
제3회
2019년에
공개한
절대적인
세월호
돌연변
계룡
능가
단면
되살
배로
별개로
불사
사귀
세군다
시점에
어웨이
종말
죽는다
진주시
테살
호찌
##쿠마
##fe
##국립
##배마
##변수
국가적
1969년에
경기인
##isc
태어났고
##ida
발전한
##리오스
우주선
세포는
구분한다
정규시즌
노력하였다
조정에서
어깨를
nato
이윽고
가설을
권리가
독도
동백
베테
벽에
봉인
부엌
사생
에다
여자의
유능한
정세
정리는
치르게
파리로
##형사
##베스트
##2년에는
1989
도시이며
25일부터
작곡을
500여
소유권을
불리한
등록되었다
대항해
비용은
사도세
어려움이
인터페이스를
캐서린
거미
과다
끼친
무단
배양
버섯
시찰
아레
은폐
작위
첩보
할인
호가
확고
##정이다
##교류
##링이
##언은
##ason
대학교로
##eder
이론이다
40분
상징으로
세력과
범죄를
이뤄졌다
어디서
다이묘이다
대다수
포인트를
협주곡
champion
광주시
뉴기니
레즈
매듭
변한다
불복
비석
익숙
제도로
종파
초원
픽셀
##타점을
##덩이
연구한
개발자
21일부터
유럽연합
참가한다
고려에
판매가
유일하다
그림이
초반에는
건국훈장
간단하게
다항식
평평한
db
rs
그랬
만화를
성분이
쓰이기도
오우
의논
제창
친한
홍익
##미아의
##비츠
##천문
##mi
##르에
##절은
##킥을
들어서는
13일부터
개발은
270
임명되고
##ada
조각을
보여주며
성직자
해협을
사이타마현
대정
맡겨
성경의
쌍성
왕당
점도
지선
흡사
##청장
대한민국이
기준은
대학이
도쿄의
펼쳐진
콘텐츠를
부에노스
3에
7회
가닥
대상에
리모델
문의
불경
성인이
커리
##라며
##중공업
##설의
##농민
##희와
##웠으며
있었으므로
사망하였고
돌아왔
제공된다
민주공화
내각총리
수비수로
그렇기
달아나
등장인물이다
메디치
아리스토텔레
www
순식간에
개개
독살
박진
발로
싣고
쓰일
아스카
접합
치르
##록은
##공개
##네프
##만명
##운송
##처는
##5년에는
계속되고
노동자의
주도권을
입학하였다
후손으로
beat
훗날의
신성로마
다스리는
주최하는
함경도
마감했다
초신성
만드는데
것만
공대
광서
닛산
다룰
몰타
문양
산은
세키
외무부
초에는
##스텐
##우스를
##vin
이후로도
조선을
방송에서
대학으로
2012년부터
2015년에는
불가리아의
점령하였다
무렵부터
장애를
더블린
grand
행복한
리바운드
1과
4는
80년대
cv
vic
내재
다이라
봉헌
붙이는
브루스
산재
색소
시대로
야행성
완도
유태
짐바브
차트에
##가족
자신들을
제작하고
다르며
비정규
1세를
27년
기마
도치기
둘을
마나
복직
사물
운명을
육군은
접두
줄을
직원이
체계가
토양
판명
피카
피드
##원장
##작업
##작전을
##품에
##오면서
1978년에
17세
8월부터
대표적이다
##부분이
개발과
영향은
기술이다
국립중앙
통과한다
1854년
부정적
이민을
보관되어
동작을
연관된
간접적으로
어촌정주어항으로
짐바브웨
8회
공기를
군으로
단계의
분파
앨리스
야마다
양극
위주의
유생
집이
타락
페드로
허블
##ker
##랑의
##닌의
발매되었으며
2014년에는
##ett
연합국
피해는
있어서도
정신과
아내를
전사하였다
show
총선부터
화장실
영등포구
first
lin
강이다
기호는
나쁘
디나
매디
머리와
볼록
비싸
성지
쌍방울
안방
와타나베
이문
이형
##이론
##르카
##모음
##ja
18일부터
##00m
15일까지
들어선
##회의의
기술에
##ret
건설에
ann
tvn
복귀를
유전적
재판에
##회사인
해결을
결성하여
내각에서
cons
마리아의
승진하여
끝나면
##재판소
저술한
남아있지
708인
걸고
과이다
동창
몸통
사비
수퍼
아킬
아핀
연료를
영상이
올렸고
진원
함수가
##실점을
##진한
##편성이
##6년에는
진행되었고
##리오는
학생들에게
드러냈다
한반도의
명확하지
갑작스럽게
jean
europe
ju
공사는
공의회
기가
단국
말하기를
멀어
버라이어
부대로
불만이
비아
옷주
원본
지석
혈통
##포인트
##천리
##게도
##해석
##림에
##학교는
중심부에
선거에서는
월드컵의
정당인
오른쪽에
황제에
1차전에서
삼성전
유로비전
mbc에서
전공을
파악할
몰아내고
최하위
홈구장으로
가환환
om
과선
마늘
분자의
상세한
설교
성당의
없었으나
연안의
우월
파리에
##소리를
##보며
##레네
출전하는
주변은
설명하였다
계급은
파생된
이순신
신시내티
하이브리드
mad
가면서
강우
거인
경보
낮게
대하
센서
신익
절친
정글
조언을
주둥
퇴위
피치
하류
해피
##스프
##트맨
##기동
205
17일부터
표현하고
서비스의
보내졌다
자동차의
국제공항이
전한의
이마가와
girl
fer
hist
겸직
남조
내릴
바스크
안경
알리고
유머
유희
인류가
인생을
지명으로
청취
타자로
함대의
화요일
횡령
##파운드
##지스
##누스가
##났지만
다르지만
병사들은
출범한
분위기
아미노산
인테르나치오
8번째
game
nm
간사
고성군
궁내
나바
남반
노원
로트
리프
사나
사내
서예
신안
심어
영어의
의병을
주식을
##백이
##으러
##누아
##외교
##3년에는
선수다
전국에서
공부하였다
중반부터
타이완의
사냥을
주최한
대법원은
용산구
michael
light
가사는
개축
땅의
백업
소를
수력
쓰던
어미
여왕의
운하
지적이
##나무를
##현대
##3의
##활동에
##지상
##반으로
20세
선수와
만들어낸
수행하기
멤버이다
방문했다
미사일은
좌우에
완료되었다
베스트셀
페르난도
지장보살
가볍게
1주일
non
west
같아
금정
노력이
다우
데드
렌더
마테
속을
시크
실어
역에는
염두에
주이다
집은
초나라
총기
태도
파열
히브리어
##코어
##립트
##지검
##토키
##련을
##츠카
##8년에는
수도는
생산한
분류할
그것이다
이때의
헌법은
시민들은
북쪽에서
사령관으로
prot
최소한의
바람을
추천으로
두드러진
고층
노르트
눈의
데미
루비
마차
문맥
백운
병렬
북대서양
안철
안데스
위나라
일행은
장치의
총애
컨설
합하여
##나드
##조사에서
##설계
##좌파
18세기에
1987
현재에도
로마는
23일부터
배우는
결정이
제공하였다
표현된다
시리즈가
개최하고
개최하였다
그대로의
인터넷을
규정되어
제5회
근대적
##kg이다
빼앗아
올리버
부처의
아나키스트
플러그
글래스
부르주아
니카라
덕에
있음에도
펠로폰
흔적
##라르
##31
##모르
##불은
##섬에
##림에서
##득점을
##됐으나
프로에
프로축구
사람들도
관계의
등장하여
28일부터
보고했다
부족을
교통사
이하로
자리잡았다
비잔틴
깨닫고
단양
대전에
믿을
별도
사치
생계를
시네마
않거나
월트
이들과
줄리아
효력이
##크루
##렌스
##옥은
##ск
활동한다
##atus
일부에
##시키려는
소련에
초기부터
종교를
언어와
생성한다
보도되었다
행사할
음식이다
불안정한
프로이센의
무게를
그라운드
날씨
남겼
돌이
르완
박찬
발가락
버티
버진
송진
시우
시미즈
연행
자비
정체를
착각
청일
출혈
환산
##인지는
##립을
##교인
##건에
##때까지
12세
1976년에
방송은
발표하면서
생각은
지구는
2002년에는
사무실
요시쓰
league
고정된
고속버스
페르시아의
예수회
생기게
무죄를
호모토피
gar
계량
나나
도부
머릿
물체가
손해를
양념
재구성
지명이
진나라의
추밀
흔하게
##1동
##격의
##경부터
##유와
##노조
되어서야
fc와
##시간을
나무가
슈퍼컵
신설되었으며
게이초
##산업의
자살을
대대적으로
개명하였다
힘들다
선제골을
알폰소
칭기즈
7명의
맞닿
몸돌
생모
선대
시도는
양자가
없어졌다
유계
이도
적재
제가
폭포
##구니
##탑은
지역구의
1960년에
사회는
지방에서는
유럽에서는
기업으로
2000년에는
지배권을
방향이
##나무가
설명한
언급된다
달러로
주도이다
침입을
1이닝
나르
눈치
능력과
다수가
발리
부조
순종
않음
지우
현에
##나지
##지에는
일본서기
##erv
적용하여
작곡가이다
즉위했다
남북조
전사한
확실하게
감동
강변
게놈
곧이어
눈물
로타
박사가
변속
성화
소크라
수년
이조판서
제철
카와
타임스
##네스는
##소녀
##yr
##∼19
18개
##7년에는
사이먼
자유민주당
등장하지
생활하는
실시한다
도입을
##ations
연기자
촬영을
참석하였다
다니며
nhl
부담을
골키퍼로
주한미
##륜구동
라쿠텐
구원을
구약성
글이
넷플
돈이
따위의
바라는
산청
조석
진단을
형상을
휘는
##학습
##임과
##구미
##민들은
##층과
##값이
##캐스트
프로방
연구소의
연구소에서
태어날
가운데에는
필요할
구간에서
##ope
오늘날에도
공항을
배경이
신도비
폭탄을
자랑하는
institute
리베르타도
가든
당신
아브라
안겨
알기
양수
질서를
##도마뱀붙이
##발트
##즈마
##팔렌
##톤은
사건에서
남아시아
바이마르
공작의
유대교
윌리엄스
편입되어
나뉘며
참석했다
연대기
하얀색
##press
##스러워
ut
고도의
극적인
남을
성체
세무
아이다
열도
영예를
예수가
예문관
원자가
자라고
죽일
통로
형이상
##영에서
##버섯
1968년에
아이들
공격형
280
28일까지
요구한다
적용할
##raph
1999년부터
텔레비
def
측정할
##로그램
예비역
안동시
피아노를
멀티미디어
ret
다윗
상한
세울
어사
이호
차오
최북
##상인
##조류
##신보
##열차가
사회민주당
##회의원
대통령에게
선거로
지원하였다
기관지
스페인과
개편에
##사회주의
목적에
인종차별
부친은
제16대
후쿠시마현
줄기세포
쇼핑몰
north
농어촌
cc
근원
뇌물
대장군
서류
서아프리카
좌천
캐치
태생
휴가
##fs
##버스의
프랑코
독일군이
사망한다
운동가
100명
표현하였다
생성하는
캐릭터의
허용하는
제9대
볼티모어
society
battle
앨라배마
3주
고집
도구를
돼지고
봉우
성실
셔틀
쉽고
임금을
쥐고
펠릭스
##정류
##온에서
##급이
##lay
발달해
멸망한
삼각형의
전설의
##차례의
소장되어
국무총
클라크
16강에
보편적인
쓰촨성
자카르타
4인
but
van
모세
바쳐
비의
수심
카툰
##다스
##것은
##먹는
##orm
##부분은
제국주의
##레스테
소설가이다
베트남에서
달성한
수입을
발발한
시상식에서
기동전사
스퀘어
단사
떠돌
소울
일대는
중남
타마
티에
학회
현은
##퍼센트
##짐을
##ister
26일까지
라이센
공화국에
성립되었다
살해하고
제도에서
produ
고전적
양자역
##문학상
방정식은
부친의
쓰러뜨
분데스리가의
홈경기장으로
교수의
매스
본초
오메가
월화
유우
이만
지점을
##대군의
##여지
##x는
구성되며
개발되어
25일까지
돌아간
비교할
나타나며
제도이다
신성한
남양주시
허드슨
가결
국공
규명
밝고
사와
선우
정명
좋고
줄기는
지팡
치른다
파업
##도호
##니즈
##호부터
##hc
##중대
##란에
##츠에서
##걸이
1980
사이언
대표이
##이트는
필요에
자연스러운
관측된다
본래는
2개를
삼국유사
개시하였다
정유재
고인돌
4세가
대주
됐고
매거진
목이
생을
아끼
업로드
옥천
운명
팬들이
환관
##미트리
##금에
##pm
##fo
##기소
##ling
##반대
##집에서
29일까지
야구단
컴퓨터가
수여하는
조선시대에는
덧붙였다
일방적으로
어우러
a는
글씨를
낙엽
미수
벽을
셈이다
수백만
어지
억울
칼륨
혁명으로
##투르
##교수로
##적일
##브나
##트레이
##캠퍼스
coa
2013년부터
인정된다
실시하여
비판하고
부여하는
바탕을
남편과
변형된
다음날인
소프트웨어는
강서구
32년
fac
뇌의
다치
무색
방호
생포
승부를
오인
오게
음모를
천태
총통
친환경
태블릿
파직
##화경
##냐고
##기적인
##독일
##히며
세계적
##km로
출전했고
정의하고
부르봉
대체하기
데이터의
승강장과
이승만의
한때는
dire
바뀐다
볼셰비키
클라이언트
상파울루
경무
관내
권력이
늙은
면모를
속편
속하지
시호
양천
에히메
음의
인자
잃어
전선을
해전에서
##백의
##고트
##기보다는
##zy
##위하
##ily
stre
통합된
지지하였다
올라와
1998년부터
변화하는
구분이
동생이다
750
3세와
누구도
특허를
한국방송공사
##공무원으로
미성년
버라이어티
dou
듣는
마우스
배워
별명은
병원으로
부실
올릴
진언
퇴출
편성이
평형
##록대부
##커우
##기본
##쥐속
13세
결정은
고등학교에
가르시아
알렉산데르
인수하여
전설적인
탈락하였다
득표율을
나폴레옹은
플로리다주
압록강
몬테네그로
4m
5차
구루
문장을
북송
센티미터
소시
스님
염증
왕자의
원효
유카
있기에
체제에
헤엄
##카드를
##법에서는
##감염
##두더
##민속
##채로
##으로서는
##학교로
기록한다
영화와
지방산
교육부
발달하여
얼굴이
성우극
아이디는
상하이에서
소프트웨어의
프로모션
패럴림픽
기권
눌러
릴리
이희
입지를
제리
중상
지위는
질병을
확충
##제도가
##보존
##전서
##중량
##피탈
##갔는데
이동했다
수행한
월드컵과
2차전에서
##고등학교와
일종인
해결하는
집중적으로
강점기에
합쳐져
성향이
관여하는
개국공신
##훈련을
모티브로
높이고
동두
드나
리어
머큐
모닝
신학을
안쪽에
앤서
에뮬
영역으로
왔던
재가
한마
화염
##바에
##말은
##체계를
##레앙
##일이다
##각과
##예비치
##섬은
##균은
##4년에는
일부로서
대표되는
대학이다
계약에
사고는
런던에
pres
체코의
##ection
동성결혼
복음주의
선제후
온타리오주
가로지르는
kb
김시
단어로
로런
로드리게
예부터
오호
우문
재창
재검
총사령관
타율을
트레일
행하여
현으로
##ham
##자동
##빌리
##골은
##헤드
사용은
1977년에
존재한다는
이전했다
선거구로
시대와
등장하고
stand
부여받았다
폐지된
경쟁에서
추진하였다
특정도
가입했다
체계적으로
1789년
삼국지연의
열대폭풍으로
프롤레타리아
2경기
ct
괜찮
규합
김보
노드
던진
도자
모시는
모자이
반항
부문을
새뮤
순찰
식이
에인
인계
인식을
일체의
추계
클럭
태화
토미
호리
##바키아의
##거북
##평의회
##워스
##죄를
1984
다시는
제29
부분과
나라로
지휘했다
애니메이션의
명령어
제4차
만나고
수비형
준비가
촬영한
보이는데
플레이오프를
동원해
되돌려
사우스캐롤라이나
쇼트트랙
5억
6명
걸었다
달리고
당은
로컬
루손
멋진
배재
변성
사각형
양국의
이철
장신
종5
지난다
치우
쿠로
틈타
##시장에서
사망자가
참여해
22일부터
민주당은
지도자가
교통국
##모토는
불리었다
출판사
내각은
마련하였다
부터는
오리엔
가담한
근본번뇌
나가노현
알렉산드로스
가령
광시
남지
넘지
대상은
마켓
묻는
보이기도
사교
세대의
숙박
열정
온라
올레
처해
투병
##착륙
##데냐
##사단이
##탄올
##란과
##뿐이다
##히사
경기장을
참여했으며
27일까지
상황이다
예정되어
인천국제공항
320
후쿠이
강조하였다
##스럽고
고등교육
##키가하라
줄무늬가
service
로고
면에
미요시
버드
왔고
웨인
정변
집단으로
치유
폐교
##비르
##범이
##분투
##값은
##것이다
방송에
인정한
##ump
헌법이
국왕은
출생으로
건강이
체계적인
취급하는
south
엔터프라이
스탠리
쓰여져
헤라클레
서포터
나미비아
ai
lib
건전한
나름
네브
명왕
바쿠
부피
성소수
소식
의주
장소가
절약
조동
지그
질문을
착취
체제는
학자들이
함대가
##질서
##그림
##골의
발견할
일어났고
##리스와
##ental
증가한다
개념의
##지방의
전해졌다
살해당했다
베르나르
묘사하고
천문단위
고전적인
보컬리스트
조카인
위키백
천도교
31년
jack
가모
귀가
노론
두었고
매복
백혈
부전
산책
시발
온실
옹정
원조를
죄로
추력
호른
##여행
##com
##구역에
##노트
##패스
##onom
있어도
1935년에
생각하였다
확인하고
거주하던
5년간
인식하고
아르헨티
##여자중학교
1에서
4위에
6량
갇혀
갑오
격상
관점을
궤도에
규장
그늘
당수
리포
방을
병마
샀다
상층
생리학
숲과
식물이
알마
이강
절을
직위
편의를
혼잡
##암동
##기시
##측이
##덕을
20km
이해하고
802
종목으로
교토부
party
암컷이
메모리얼
저널리스트
히데요시의
걸렸다
군주의
단위의
묘역
보루시아
부진을
상금
손자인
에일
유이
카보
##남의
##연과
##주도
##봉이
##빨리
사람들에
데뷔하여
건설한
귀족들은
태풍으로
일으켰고
높아졌다
##식품부
전년도
4명이
5세의
que
uc
끔찍
몰고
반납
변해
##아미
##제1
##수면
##ych
##산드로
##향의
시즌으로
가능하고
공격적인
설치할
대학과
이것으로
정의하는
분야는
살해되었다
참전한
합쳐서
어깨에
3라운드
just
가선
모잠
벗겨
볼넷
순서를
을사
장점을
페미
피니
하단
해지
##립의
##네트
1964년에
만들게
운영에
연결을
##스와프
1857년
병사들을
라이브러리
지시했다
무게가
김해시
주축으로
이리하여
4단
bet
port
버클리
법원에
사대
새우
속씨
시켰다
신발
엿볼
이지만
캐나
현이
현미
##데스는
##부에서는
##법원은
##숙이
##건으로
##틀리
##era
선수단은
235
드러내
공급하는
남동쪽으로는
문서에
판단하여
roy
출토된
시그마
프톨레마이오
한가운데
구역이다
내구
누렸다
단위는
도구로
도자기
뜻에
리비
물가
배경을
빨라
사중
쓰네
인노
일설
주름
총영
코퍼레이션
후견
##34
##팅을
##모습
##딘의
##탑이
##책은
##효율
사람이었다
졸업생
수행을
제품이
파괴된
물론이고
레코드를
white
거느렸다
콘서트를
manag
연예인
green
house
1500m
코소보
1급
곳도
균일
넓혀
높였다
대입
데일리
비리
비하면
에리
에치고
작전이
절감
처칠
초중
##2동
##부사로
##메랄
##드루
##있는데
##종공신
##달이
##귀족
##9년에는
영국군의
중심핵
30일부터
방송사
출전하면서
인정받고
움직이지
만화이다
##ude
위반으로
mvp를
재발매
나눈다
mtv
개구리
거리로
기종
기리고
당연
라울
레몬
반동
버밍
상설
시영
식사를
윤원
인제
전역의
조준
토로
팬들은
해군에
현립
##타에서
##임으로
##더와
##보자
##구역은
##쇼에서
##5년부터
사회학
감독이었던
정부에서는
참가하게
방법과
요구하고
개통과
확보하기
2명을
3번의
gla
끼워
농작
대본
러시
메콩
바치는
봉기를
스레
아내는
어둡
오트
전선에
체계의
테리
팔린
##암에
##과장
##능력이
##규가
##ita
이탈리아에
생산에
상대방의
차량에
참전했다
다스렸다
강사
관해서
귀는
녹음을
느리게
다닐
드로
등기
등에도
문하시
박재
백조
블레이
식의
신들의
여자를
예속
원유
윤곽
저우
전에서
출자
하구
함부로
##명에서
##수스
##최고
##에게로
1966년에
아이디어
2007년까지
이탈리아로
인도와
프리큐
보통이다
열차로
물질로
##센터는
사례로
650
747
8강전
##해져서
##mann
분노한
싸움에서
박쥐로
메르세
농림수산
26년
5는
hom
기구를
끝내고
두껍
방면의
변증
사커
서주
순양함
적힌
지청
타도
툴루
파파
포를
한옥
##인터
##자이기도
##선사
##개정
##회의는
리그는
방송되었던
24일부터
2012년까지
추가하여
환경의
시설은
제한하는
발사할
합병하여
베이징에서
##영화제
취득한
승객이
자메이카
송파구
비단털쥐과에
3승
rc
run
같지만
거치며
그도
느슨
